{"version":"1.0","truncation":null,"padding":null,"added_tokens":[{"id":0,"special":true,"content":"<pad>","single_word":false,"lstrip":false,"rstrip":false,"normalized":false},{"id":1,"special":true,"content":"<unk>","single_word":false,"lstrip":false,"rstrip":false,"normalized":false},{"id":2,"special":true,"content":"<bos>","single_word":false,"lstrip":false,"rstrip":false,"normalized":false},{"id":3,"special":true,"content":"<eos>","single_word":false,"lstrip":false,"rstrip":false,"normalized":false}],"normalizer":null,"pre_tokenizer":{"type":"ByteLevel","add_prefix_space":false,"trim_offsets":true},"post_processor":{"type":"ByteLevel","add_prefix_space":true,"trim_offsets":false},"decoder":{"type":"ByteLevel","add_prefix_space":true,"trim_offsets":true},"model":{"type":"BPE","dropout":null,"unk_token":null,"continuing_subword_prefix":null,"end_of_word_suffix":null,"fuse_unk":false,"vocab":{"<pad>":0,"<unk>":1,"<bos>":2,"<eos>":3,"!":4,"\"":5,"#":6,"$":7,"%":8,"&":9,"'":10,"(":11,")":12,"*":13,"+":14,",":15,"-":16,".":17,"/":18,"0":19,"1":20,"2":21,"3":22,"4":23,"5":24,"6":25,"7":26,"8":27,"9":28,":":29,";":30,"<":31,"=":32,">":33,"?":34,"@":35,"A":36,"B":37,"C":38,"D":39,"E":40,"F":41,"G":42,"H":43,"I":44,"J":45,"K":46,"L":47,"M":48,"N":49,"O":50,"P":51,"Q":52,"R":53,"S":54,"T":55,"U":56,"V":57,"W":58,"X":59,"Y":60,"Z":61,"[":62,"\\":63,"]":64,"^":65,"_":66,"`":67,"a":68,"b":69,"c":70,"d":71,"e":72,"f":73,"g":74,"h":75,"i":76,"j":77,"k":78,"l":79,"m":80,"n":81,"o":82,"p":83,"q":84,"r":85,"s":86,"t":87,"u":88,"v":89,"w":90,"x":91,"y":92,"z":93,"{":94,"|":95,"}":96,"~":97,"¡":98,"¢":99,"£":100,"¤":101,"¥":102,"¦":103,"§":104,"¨":105,"©":106,"ª":107,"«":108,"¬":109,"®":110,"¯":111,"°":112,"±":113,"²":114,"³":115,"´":116,"µ":117,"¶":118,"·":119,"¸":120,"¹":121,"º":122,"»":123,"¼":124,"½":125,"¾":126,"¿":127,"À":128,"Á":129,"Â":130,"Ã":131,"Ä":132,"Å":133,"Æ":134,"Ç":135,"È":136,"É":137,"Ê":138,"Ë":139,"Ì":140,"Í":141,"Î":142,"Ï":143,"Ð":144,"Ñ":145,"Ò":146,"Ó":147,"Ô":148,"Õ":149,"Ö":150,"×":151,"Ø":152,"Ù":153,"Ú":154,"Û":155,"Ü":156,"Ý":157,"Þ":158,"ß":159,"à":160,"á":161,"â":162,"ã":163,"ä":164,"å":165,"æ":166,"ç":167,"è":168,"é":169,"ê":170,"ë":171,"ì":172,"í":173,"î":174,"ï":175,"ð":176,"ñ":177,"ò":178,"ó":179,"ô":180,"õ":181,"ö":182,"÷":183,"ø":184,"ù":185,"ú":186,"û":187,"ü":188,"ý":189,"þ":190,"ÿ":191,"Ā":192,"ā":193,"Ă":194,"ă":195,"Ą":196,"ą":197,"Ć":198,"ć":199,"Ĉ":200,"ĉ":201,"Ċ":202,"ċ":203,"Č":204,"č":205,"Ď":206,"ď":207,"Đ":208,"đ":209,"Ē":210,"ē":211,"Ĕ":212,"ĕ":213,"Ė":214,"ė":215,"Ę":216,"ę":217,"Ě":218,"ě":219,"Ĝ":220,"ĝ":221,"Ğ":222,"ğ":223,"Ġ":224,"ġ":225,"Ģ":226,"ģ":227,"Ĥ":228,"ĥ":229,"Ħ":230,"ħ":231,"Ĩ":232,"ĩ":233,"Ī":234,"ī":235,"Ĭ":236,"ĭ":237,"Į":238,"į":239,"İ":240,"ı":241,"Ĳ":242,"ĳ":243,"Ĵ":244,"ĵ":245,"Ķ":246,"ķ":247,"ĸ":248,"Ĺ":249,"ĺ":250,"Ļ":251,"ļ":252,"Ľ":253,"ľ":254,"Ŀ":255,"ŀ":256,"Ł":257,"ł":258,"Ń":259,"Ġt":260,"he":261,"in":262,"Ġa":263,"Ġthe":264,"er":265,"--":266,"Ġo":267,"re":268,"Ġs":269,"le":270,"ĠĠ":271,"on":272,"Ġc":273,"ut":274,"is":275,"at":276,"es":277,"Ġw":278,"Ġof":279,"Ġ1":280,"it":281,"Ġn":282,"Ġf":283,"en":284,"an":285,"Ġan":286,"Ġin":287,"Ġp":288,"Ġb":289,"ing":290,"ou":291,"or":292,"um":293,"put":294,"Ġ=":295,"ll":296,"ar":297,"Ġis":298,"am":299,"Ġm":300,"as":301,"ed":302,"Ġto":303,"Ġd":304,"ion":305,"Ġand":306,"Ġe":307,"ĠĠĠĠ":308,"al":309,"``":310,"00":311,"Ġ$":312,"Ġ2":313,"st":314,"Âł":315,"ac":316,"Ġth":317,"----":318,"ple":319,"Ġre":320,"Ġ[":321,"ot":322,"om":323,"ay":324,"Ġl":325,"Ex":326,"Ġnum":327,"ers":328,"et":329,"-----":330,"Ġg":331,"In":332,"Ġ3":333,"ample":334,"The":335,"ur":336,"ts":337,"ve":338,"Ġ(":339,"Ġh":340,"ic":341,"Ġ<":342,"Ġst":343,"utput":344,"Ġon":345,"Ġnumb":346,"Ġbe":347,"ow":348,"im":349,"Ġ-":350,"th":351,"ain":352,"Input":353,"Ġ<=":354,"te":355,"Output":356,"ation":357,"Ġcon":358,"Ġ\"":359,"ct":360,"Example":361,"qu":362,"Ġare":363,"```":364,"urn":365,"],":366,"Ġthat":367,"Ġy":368,"Ġ`":369,"Ġ4":370,"Ġar":371,"se":372,"if":373,"Ġnumber":374,"ĠA":375,"ir":376,"pl":377,"ig":378,"\",":379,"od":380,"ith":381,"teg":382,"est":383,"Ġr":384,"Ġarr":385,"iv":386,"**":387,"ce":388,"Ġinteg":389,"Ġ\\":390,"Ġ0":391,"Ġle":392,"Ġyou":393,"Ġpo":394,"ld":395,"ent":396,"Ġ5":397,"id":398,"ach":399,"ill":400,"Ġcan":401,"ly":402,"ĠThe":403,"turn":404,"Ġv":405,"ĠĊ":406,"ng":407,"Ġreturn":408,"Ġ10":409,"Ġor":410,"ring":411,"Ġwith":412,"ĠĠĠĠĠĠĠĠ":413,"Ġfor":414,"Ġit":415,"un":416,"Ġwill":417,"Ġse":418,"tain":419,"Ġpr":420,"ngth":421,"ase":422,"ter":423,"Ġk":424,"Ġsu":425,"iven":426,"Ġex":427,"ine":428,"plan":429,"ht":430,"ue":431,"planation":432,"Explanation":433,"Ġeach":434,"ist":435,"Ġcontain":436,"Ġas":437,"ak":438,"Ġstring":439,"ive":440,"ĠN":441,"10":442,"ble":443,"ul":444,"Ġfr":445,"Ġarray":446,"Ġne":447,"irst":448,"You":449,"ĠC":450,"her":451,"Ġ+":452,"ol":453,"Ġch":454,"ĠS":455,"Ġ*":456,"Ġsh":457,"ĠT":458,"Ġâ":459,"ÂłĊ":460,"Ġif":461,"Ġone":462,"Ġtest":463,"Ġval":464,"ss":465,"Ġinteger":466,"ould":467,"Ġ6":468,"Ġall":469,"ave":470,"..":471,"\",\"":472,"Ġfirst":473,"Ġwh":474,"Ġat":475,"ad":476,"Ġline":477,"Ġfrom":478,"wo":479,"For":480,"ame":481,"Ġnot":482,"Ġ'":483,"Ġby":484,"ore":485,"ver":486,"//":487,"length":488,"Ġhe":489,"pe":490,"ction":491,"ī¤":492,"us":493,"Ġwhe":494,"nt":495,"Ġtwo":496,"str":497,"],[":498,"all":499,"ge":500,").":501,"ch":502,"Ġhave":503,"Ġtr":504,"Ġintegers":505,"Ġ7":506,"Ġwe":507,"Ġthis":508,"ord":509,"oll":510,"11":511,"ode":512,"Ġpro":513,"__":514,"++":515,"pt":516,"Ġgiven":517,"Ġcontains":518,"ĠB":519,"0000":520,"Ġâī¤":521,"Ġsub":522,"Ġ->":523,"ight":524,"oo":525,"Ġhas":526,"ence":527,"Ġ**":528,"Ġj":529,"ard":530,"imum":531,"ap":532,"ind":533,"Ġonly":534,"Ġcase":535,"ab":536,"Ġshould":537,"ĠI":538,"ond":539,"ust":540,"strain":541,"##":542,"res":543,"ate":544,"ww":545,"com":546,"Ġi":547,"straints":548,"art":549,"ax":550,"sit":551,"ents":552,"ake":553,"act":554,"ollow":555,"ask":556,"el":557,"'s":558,"end":559,"Ġgr":560,"leq":561,"ps":562,"Ġal":563,"Ġfollow":564,"ri":565,"Ġpoin":566,"Ġnums":567,"and":568,"ich":569,"per":570,"ck":571,"Ġany":572,"Con":573,"ĠĠĠ":574,"$.":575,"ays":576,"ible":577,"000":578,"Ġso":579,"Ġthere":580,"),":581,"ex":582,"Ġde":583,"Ġwhich":584,"unction":585,"Constraints":586,"_**":587,"ies":588,"ove":589,"ata":590,"Ġpl":591,"Ġnumbers":592,"lem":593,"iz":594,"Ġposit":595,"Ġtim":596,"Ġsum":597,"der":598,"ice":599,"ote":600,"arr":601,"Ġ9":602,"Ġ==":603,"Ġfunction":604,"Ġco":605,"ĠE":606,"quence":607,"Ġ|":608,"Ġ8":609,"ome":610,"ars":611,"ases":612,"ther":613,"Ġmin":614,"ult":615,"ang":616,"Ġ**_":617,"Ġinput":618,"Ġelem":619,"$,":620,"Ġexample":621,"em":622,"Ġmax":623,"Given":624,"Ġpoints":625,"ast":626,"Ġlength":627,"Ġx":628,"ssible":629,"Ġcom":630,"Ġu":631,"ob":632,"',":633,"Ġun":634,"we":635,"Ġlet":636,"Ġsing":637,"Ġvalue":638,"lo":639,"].":640,"cond":641,"ree":642,"ĠM":643,"ĠP":644,"are":645,"ace":646,"int":647,"://":648,"Ġbo":649,"sw":650,"Ġsingle":651,"ated":652,"Ġword":653,"ations":654,"ĠR":655,"code":656,"ĠW":657,"ĠH":658,"ity":659,"ack":660,"eturn":661,"Ġsecond":662,"ount":663,"ĠK":664,"il":665,"its":666,"htt":667,"Ġper":668,"Ġthan":669,"ub":670,"12":671,"Ġneed":672,"ite":673,"Ġdo":674,"Ġcases":675,"ally":676,"fter":677,"Ġansw":678,"iff":679,"for":680,"ik":681,"ell":682,"](":683,"ates":684,"Ġorder":685,"Ġ#":686,"Ġpossible":687,"Ġchar":688,"ĠYou":689,"ower":690,"ile":691,"Ġind":692,"ĠL":693,"get":694,"Ġcons":695,"ong":696,"hef":697,");":698,"ĠIf":699,"Ġno":700,"Note":701,"_{":702,"Ġother":703,"Ġqu":704,"Ġthen":705,"ĠF":706,"nd":707,"Ġres":708,"ces":709,"ne":710,":-----":711,"Ġyour":712,"Ġsp":713,"Ġdiff":714,"Ġanswer":715,"Ġequ":716,"Ġ//":717,"Ġget":718,"our":719,"ag":720,"ters":721,"Ġab":722,"ish":723,"Ġrem":724,"case":725,"alse":726,"++++":727,"to":728,"Ġsequence":729,"...":730,"Ġmaximum":731,"ery":732,"Ġsuch":733,"Return":734,"Ġform":735,"Ġbet":736,"Ġlist":737,"Ġ[\"":738,"Ġgo":739,"one":740,"Ġdist":741,"urre":742,"po":743,"out":744,"Ġwhere":745,"ween":746,"Ġ```":747,"Ġsame":748,"ize":749,"Ġ100":750,"Ġsome":751,"Ġstart":752,"www":753,"Ġdig":754,"ions":755,"'t":756,"Ġus":757,"wars":758,"ĠĠĠĠĠĠĠĠĠĠĠĠĠĠĠĠ":759,"dd":760,"ost":761,"av":762,"`.":763,"ull":764,"Ġfollowing":765,"]]":766,"ustom":767,"~~":768,"Ġ[[":769,"ire":770,"ĠD":771,"py":772,"codewars":773,"ĠFor":774,"ort":775,"Ġequal":776,"heck":777,"ft":778,"form":779,"umb":780,"Ġbetween":781,"ists":782,"Ġoutput":783,"Ġem":784,"ie":785,"Ġtime":786,"Ġletters":787,"Ġcustom":788,"ass":789,"ues":790,"Ġplay":791,"Ġoper":792,"ment":793,"ide":794,"ov":795,"Ġminimum":796,"Ġelements":797,"ial":798,"urrent":799,"Ġ,":800,"ĠIn":801,"Ġthem":802,"not":803,"ip":804,"fit":805,"Ġrep":806,"ant":807,"cri":808,"Ġthey":809,"20":810,"ĠInput":811,"Ġfind":812,"Ġboard":813,"\"]":814,"If":815,"ound":816,"Ġreturns":817,"Ġden":818,"Ġprofit":819,",-":820,"ary":821,"the":822,"Ġhis":823,"thon":824,"pty":825,"Ġvalid":826,"Ġmore":827,"ca":828,"Ġ--":829,"so":830,"Ġcol":831,"Ġup":832,"Ġam":833,"Ġdiffer":834,"Ġ>":835,"xt":836,"cre":837,"resent":838,"Ġmake":839,"Ġindex":840,"Sample":841,"Ġrot":842,"tal":843,"very":844,"Ġpositive":845,"age":846,"ĠO":847,"ud":848,"()":849,"Ġday":850,"`,":851,"Ġbut":852,"ance":853,"gr":854,"oth":855,"uct":856,"Ġ12":857,"Ġ:":858,"Ġcustomers":859,"par":860,"ans":861,"cl":862,"cc":863,"Ġmay":864,"ro":865,"alle":866,"Ġlo":867,"ating":868,"ep":869,"Ġprint":870,"ath":871,"Ġsc":872,"ick":873,"Ġvalues":874,"Ġkn":875,"Ġgrou":876,"ative":877,"inal":878,"Ġnew":879,"99":880,"Ġ20":881,"Ġtrue":882,"ange":883,"ins":884,"Ġtotal":885,"Ġfalse":886,"rite":887,"air":888,"ĠChef":889,"Ġwheel":890,"Ġdenot":891,"Ġwa":892,"les":893,"Ġend":894,"Ġcell":895,"Ġmat":896,"Ġits":897,"There":898,"Ġright":899,"ĠOutput":900,"eries":901,"Ġlower":902,"âĢ":903,"python":904,"Ġman":905,"use":906,"own":907,"Ġafter":908,"Ġsqu":909,"akes":910,"acters":911,"___":912,"ven":913,"Ġdiv":914,"Ġleft":915,"ines":916,"val":917,"ous":918,"ime":919,"ect":920,"Ġnon":921,"Ġ-->":922,"ise":923,"Ġinto":924,"kata":925,"Ġposition":926,"olut":927,"--------":928,"Ġap":929,"Ġdigits":930,"task":931,"Ġspace":932,"Ġdes":933,"Ġ...":934,"ĠĠĊ":935,"Ġmove":936,"https":937,"Ġwait":938,"able":939,"Ġ1000":940,"Ġcor":941,"Ġob":942,"ook":943,"cause":944,"('":945,"oy":946,"Ġed":947,"Ġtask":948,"ey":949,"Ġgame":950,"cript":951,"string":952,"Check":953,"tr":954,"ince":955,"Ġsize":956,"Ġwords":957,"arget":958,"lice":959,"Ġsubse":960,"Ġevery":961,"Examples":962,"ĠThere":963,"ubtask":964,"Ġcharacters":965,"Ġstrings":966,"Ġpre":967,"ream":968,"100":969,"ots":970,"Ġlast":971,"Ġ=>":972,"array":973,"Ġmust":974,"gative":975,"http":976,"aph":977,"Checker":978,"Ġtimes":979,"Ġresult":980,"ways":981,"Ġelement":982,"Ġnext":983,"(\"":984,"==":985,"ype":986,"Ġamount":987,"ĠEach":988,"Ġtheir":989,"ure":990,"15":991,"Ġtarget":992,"Ġrepresent":993,"Ġwor":994,"ĠĠĠĠĠ":995,"Ġdoes":996,"parated":997,"Ġout":998,"ĠĠĠĠĠĠĠĠĠ":999,"reamChecker":1000,"ants":1001,"Ġalways":1002,"Ġbecause":1003,"ĠX":1004,"oose":1005,"his":1006,"57":1007,"ĠâĢ":1008,"Ġme":1009,"):":1010,"Ġcannot":1011,"ulti":1012,"igh":1013,"blem":1014,"Ġpile":1015,"Ġpair":1016,"ĠCurrent":1017,"Ġthree":1018,"wise":1019,"Ġrotates":1020,"eth":1021,"Ġ.":1022,"ike":1023,"ero":1024,"Ġpart":1025,"ee":1026,"Ġboth":1027,"ff":1028,"Ġempty":1029,"ater":1030,"umber":1031,"\".":1032,"ition":1033,"fore":1034,"Ġdifferent":1035,"Ġtree":1036,"Your":1037,"Ġlong":1038,"cd":1039,"Ġz":1040,"Ġcontaining":1041,"acter":1042,"Ġlines":1043,"Ġexact":1044,"null":1045,"ets":1046,"Ġlar":1047,"13":1048,"Ġwas":1049,"Ġ15":1050,"Ġsm":1051,"Ġdenoting":1052,"Ġadd":1053,"Ġtake":1054,"gh":1055,"Ġro":1056,"Ġgre":1057,"Ġpe":1058,"++++++++":1059,"Ġcost":1060,"Ġlowercase":1061,"ges":1062,"Ġspe":1063,"Ġwho":1064,"Ġcharacter":1065,"Ġleast":1066,"ext":1067,"ors":1068,"ĠG":1069,"Ġ11":1070,"Ġalso":1071,"45":1072,"Ġinit":1073,"Ġdec":1074,"oduct":1075,"ix":1076,"Ġrow":1077,"Ġproblem":1078,"([":1079,"Ġdivis":1080,"Subtask":1081,"We":1082,"Ġthese":1083,"Ġ{":1084,"ethod":1085,"ning":1086,"Ġim":1087,"Ġfollows":1088,"Ġsquare":1089,"Ġexactly":1090,"erm":1091,"Ġkey":1092,"inct":1093,"Ġen":1094,"Ġmost":1095,"][":1096,"Ġwhen":1097,"ider":1098,"Ġway":1099,"fin":1100,"ices":1101,"},":1102,"Ġcl":1103,"aa":1104,"ild":1105,"Ġmulti":1106,"cted":1107,"Ġ($":1108,"ĠJ":1109,"32":1110,"ople":1111,"Ġmod":1112,"imal":1113,"Ġscore":1114,"Ġtakes":1115,"~~~":1116,"Ġknow":1117,"Ġgu":1118,"\")":1119,"ign":1120,"query":1121,"ĠWe":1122,"ĠIt":1123,"Ġ16":1124,"old":1125,"cess":1126,"Ġhow":1127,"ough":1128,"Ġwould":1129,"Ġsubsequence":1130,"sum":1131,"tern":1132,"Ġchoose":1133,"with":1134,"Ġ13":1135,"Ġfour":1136,"Ġpass":1137,"Ġcoins":1138,"Ġte":1139,"Ġrequ":1140,"lish":1141,"Ġstr":1142,"Ġ==>":1143,"Ġconne":1144,"Ġwants":1145,"ph":1146,"low":1147,"Ġdistinct":1148,"uel":1149,"edi":1150,"ĠBob":1151,"Ġgraph":1152,"iqu":1153,"Ġ10000":1154,"16":1155,"Ġover":1156,"Ġpeople":1157,"erson":1158,"Ġorig":1159,"ĠSt":1160,"ĠAlice":1161,"Ġmany":1162,"inary":1163,"cul":1164,"Ġlike":1165,"list":1166,"23":1167,"50":1168,"18":1169,"gum":1170,"$-":1171,"');":1172,"Ġname":1173,"Ġpath":1174,"Ġzero":1175,"Ġkata":1176,"Ġpoint":1177,"Ġcity":1178,"Ġperm":1179,"Ġuse":1180,"streamChecker":1181,"Ġinter":1182,"Ġcomp":1183,"op":1184,"ict":1185,"Ġplayer":1186,"ctang":1187,"Ġsort":1188,"oves":1189,"Ġtri":1190,"ject":1191,"Ġbu":1192,"1111":1193,"ique":1194,"])":1195,"ĠĠĠĠĠĠ":1196,"clud":1197,"Ġargum":1198,"Ġloc":1199,"hes":1200,"Ġgroup":1201,"14":1202,"Ġmethod":1203,"Ġset":1204,"nglish":1205,"ere":1206,"Ġwork":1207,"Ġgrid":1208,"ird":1209,"ither":1210,"<=":1211,"Ġjum":1212,"itt":1213,"Ġbecom":1214,"Ġ`[":1215,"Ġpermut":1216,"Ġconsist":1217,"Ġdis":1218,"ĠAll":1219,"]`":1220,"ĠEnglish":1221,"ress":1222,"Ġoperations":1223,"Ġletter":1224,"de":1225,"etic":1226,"Ġabove":1227,"Ġeven":1228,"Ġ`\"":1229,"ĠĠĠĠĠĠĠ":1230,"Ġwant":1231,"Ġdistance":1232,"Ġcount":1233,"ator":1234,"Pr":1235,"Ġsubstring":1236,"Ġbinary":1237,"Ġperform":1238,"aces":1239,"aying":1240,"Ġ$(":1241,"Ġ/":1242,"umbers":1243,"Ġcont":1244,"Ġlongest":1245,"Ġnode":1246,"Ġfin":1247,"Ġstep":1248,"ry":1249,"Time":1250,"Ġperson":1251,"ert":1252,"Ġocc":1253,"aran":1254,"All":1255,"ash":1256,"arante":1257,"Ġsim":1258,"ĠV":1259,"Ġwin":1260,"Ġunique":1261,"It":1262,"Ġconsider":1263,"ests":1264,"otes":1265,"Ġwr":1266,"Ġcond":1267,"Ġfuel":1268,"Ġshe":1269,"ĠHe":1270,"Ġguarante":1271,"odes":1272,"Ġedges":1273,"Ġsubarray":1274,"ctions":1275,"alcul":1276,"ided":1277,"ied":1278,"reate":1279,"Ġpar":1280,"ĠThen":1281,"25":1282,"Ġused":1283,"rr":1284,"Ġoperation":1285,"Ġremove":1286,"col":1287,"Each":1288,"arrays":1289,"ical":1290,"ade":1291,"ploy":1292,"Ġguaranteed":1293,"Ġremain":1294,"quen":1295,"ĠâĢĶ":1296,"Ġinform":1297,"allest":1298,"Ġthird":1299,"ired":1300,"Ġcho":1301,"Ġarrive":1302,"Ġoriginal":1303,"33":1304,"Ġconsists":1305,"wik":1306,"Ġ[#":1307,"Ġemploy":1308,"Ġeither":1309,"Ġturn":1310,"Ġac":1311,"vers":1312,"St":1313,"iend":1314,"Ġfriend":1315,"ordin":1316,"\"],":1317,"Ġjob":1318,"Ġbefore":1319,"ĠSo":1320,"ĠExamples":1321,"Ġgroups":1322,"Ġye":1323,"other":1324,"ink":1325,"ithm":1326,"ives":1327,"\"`":1328,"Ġside":1329,"Ġhim":1330,"Ġteam":1331,"abc":1332,"###":1333,"$)":1334,"ĠTask":1335,"Ġ50":1336,"sh":1337,"Ġthr":1338,"cription":1339,"Ġminut":1340,"solut":1341,"separated":1342,"30":1343,"up":1344,"ess":1345,"Ġexce":1346,"Ġdigit":1347,"66":1348,"10000":1349,"ner":1350,"Ġwrite":1351,"Ġcand":1352,"Ġpower":1353,"Ġdays":1354,"âī¤":1355,"ib":1356,"cut":1357,"lease":1358,"Ġround":1359,"eps":1360,"Ġsee":1361,"Ġbox":1362,"Ġdire":1363,"->":1364,"ats":1365,"ulo":1366,"Ġless":1367,"lock":1368,"Ġexists":1369,"28":1370,"Write":1371,"Ġid":1372,"40":1373,"rom":1374,"Ġrectang":1375,"Ġmultiple":1376,"gram":1377,"Ġcurrent":1378,")$":1379,"atis":1380,"Ġ18":1381,"!!":1382,"---":1383,"Ġcomm":1384,"pect":1385,"Ġsolut":1386,"atisf":1387,"}$":1388,"Ġtrans":1389,"Ġonce":1390,"of":1391,"ular":1392,"Ġcard":1393,"uck":1394,"Ġcode":1395,"Ġpermutation":1396,"Ġball":1397,"Ġhel":1398,"ldots":1399,"Ġsmallest":1400,"24":1401,"Ġgood":1402,"ĠU":1403,"hed":1404,"plic":1405,"Ġbus":1406,"77":1407,"Ġdet":1408,"Ġstarting":1409,"Ġ...,":1410,"Ġjust":1411,"Ġsatisf":1412,"Ġmodulo":1413,"rect":1414,"ood":1415,"pond":1416,"Ġproduct":1417,"ci":1418,"Ġinitial":1419,"Ġcalcul":1420,"hat":1421,"olve":1422,"ĠAfter":1423,"pr":1424,"Ġincre":1425,"88":1426,"ons":1427,"Ġsteps":1428,"Ġbr":1429,"Ġpairs":1430,"60":1431,"vel":1432,"Ġabout":1433,"','":1434,"ious":1435,"ively":1436,"Ġformat":1437,"Ġcould":1438,"solute":1439,"quences":1440,"read":1441,"Cost":1442,"Ġlarg":1443,"],[\"":1444,"Ġmeans":1445,"Ġfl":1446,"Ġhelp":1447,"Ġrun":1448,"ĠThis":1449,"ens":1450,"Ġpiles":1451,"asing":1452,"Ġgreater":1453,"ones":1454,"Ġtype":1455,"ank":1456,"Ġabsolute":1457,"respond":1458,"ending":1459,"Ġusing":1460,"wn":1461,"Ġ14":1462,"Ġdescription":1463,"attern":1464,"secut":1465,"empty":1466,"Ġdivisible":1467,"lf":1468,"Ġodd":1469,"Ġ_":1470,"ply":1471,"22":1472,"Ġreach":1473,"Ġquery":1474,"ail":1475,"yp":1476,"Ġcorrespond":1477,"This":1478,"Ġrespect":1479,"oun":1480,"hen":1481,"number":1482,"umn":1483,"Ġstud":1484,"Ġotherwise":1485,"Ġbl":1486,"plete":1487,"Ġobtain":1488,"Ġflo":1489,"Ġprogram":1490,"ĠExample":1491,"Ġmoves":1492,"Ġ30":1493,"Chef":1494,"ark":1495,"Ġneeds":1496,"Ġclass":1497,"Ġ[-":1498,"Ste":1499,"og":1500,"rix":1501,"Ġspec":1502,"any":1503,"ights":1504,"Ġtext":1505,"alled":1506,"Ġstate":1507,"Ġjump":1508,"alind":1509,"avel":1510,"#\",\"":1511,"Ġnodes":1512,"Ġbecomes":1513,"ames":1514,"Ġsorted":1515,"anges":1516,"Ġdown":1517,"Ġad":1518,"Since":1519,"Ġlocations":1520,"ially":1521,"lect":1522,"Ġher":1523,"amet":1524,"89":1525,"Ġsy":1526,"Ġcorrect":1527,"Ġcalled":1528,"Ġanother":1529,"Ġfinish":1530,"Ġfe":1531,"Ġinclud":1532,"here":1533,"Ġlevel":1534,"angu":1535,"org":1536,"itions":1537,"ĠNote":1538,"num":1539,"ically":1540,"Ġconsecut":1541,"Ġbelow":1542,"edia":1543,"____":1544,"Ġ17":1545,"Ġrating":1546,"ĠY":1547,"19":1548,"ĠYour":1549,"Ġvert":1550,"Ġstones":1551,"Ġcoordin":1552,"Ġseparated":1553,"vert":1554,"Ġwhether":1555,"Ġdon":1556,"ĠKata":1557,"Ġ25":1558,"Ġassum":1559,"Ġhead":1560,"Ġopt":1561,"Not":1562,"mat":1563,"Ġcolumn":1564,"âĢĶ":1565,"Arr":1566,"Ġgond":1567,"Ġgondol":1568,"ced":1569,"right":1570,"_**:":1571,"Ġbeg":1572,"Ġru":1573,"Ġlarge":1574,"ba":1575,"17":1576,"be":1577,"Ġdr":1578,"Ġthrough":1579,"Ġcheck":1580,"Pl":1581,"Ġremov":1582,"phab":1583,"ES":1584,"leet":1585,"alk":1586,"iss":1587,"set":1588,"jac":1589,"Ġrout":1590,"led":1591,"Step":1592,"but":1593,"ari":1594,"++++++++++++++++":1595,"Ġqueries":1596,"ec":1597,"21":1598,"Ġarrays":1599,"Ġrespectively":1600,"LL":1601,"ĠZ":1602,"Ġrange":1603,"ĠFirst":1604,"plement":1605,"Ġconnected":1606,"Ġlangu":1607,"Ġvery":1608,"Ġexceed":1609,"ares":1610,"Ġremaining":1611,"arts":1612,"Ġdeterm":1613,"ĠReturn":1614,"ier":1615,"Ġ$\\":1616,"101":1617,"')":1618,"let":1619,"Ġchange":1620,"123":1621,"jacent":1622,"itten":1623,"Ne":1624,"Com":1625,"ages":1626,"Al":1627,"Ġcandies":1628,"Ġsolution":1629,"67":1630,"Ġnumbered":1631,"Ġchild":1632,"^{":1633,"weet":1634,"Ġways":1635,"Name":1636,"Ġvis":1637,"Ġedge":1638,"Ġtoo":1639,"Ġinterval":1640,"ows":1641,"cdot":1642,"/`":1643,"uring":1644,"44":1645,"ĠSeries":1646,"stem":1647,"55":1648,"Ġtestcase":1649,"Print":1650,"Ġconsecutive":1651,"Ġacce":1652,"con":1653,"uch":1654,"Ġ500":1655,"00000":1656,"cases":1657,"Ġpassed":1658,"Ġappe":1659,".\",\"":1660,"Ġfinal":1661,"rue":1662,"ities":1663,"Ġsince":1664,"Ġstop":1665,"make":1666,"Ġpattern":1667,"amp":1668,"Ġ$[":1669,"joy":1670,"Ġmatrix":1671,"Find":1672,"Ġ24":1673,"rome":1674,"':":1675,"Ġconsidered":1676,"Ġrece":1677,"ĠQ":1678,"alindrome":1679,"Ġwritten":1680,"lections":1681,"add":1682,"Ġinst":1683,".)":1684,"]$":1685,"fer":1686,"odu":1687,"imit":1688,"Ġask":1689,"gle":1690,"Ġparamet":1691,"ift":1692,"red":1693,"Ġlook":1694,"Ġstarts":1695,"'.":1696,"Ġemployee":1697,"Ġdata":1698,"icult":1699,"ott":1700,"wap":1701,"Ġhig":1702,"Ġel":1703,"Ġminutes":1704,"Ġag":1705,"ribut":1706,"Let":1707,"ready":1708,"Ġlargest":1709,"Ġnegative":1710,"press":1711,"Ġback":1712,"Ġfull":1713,"ead":1714,"Ġnow":1715,"resents":1716,"ever":1717,"Ġoccur":1718,"Ġobject":1719,"ipedia":1720,"`-":1721,"Ġrepe":1722,"Ġrec":1723,"Ġalready":1724,"negative":1725,"aut":1726,"af":1727,"Ġhand":1728,"Ġwithout":1729,"Ġrepresenting":1730,"lex":1731,"Ġmon":1732,"imes":1733,"Ġargument":1734,"Ġread":1735,"Ġconditions":1736,"Ġstack":1737,"Ġweight":1738,"âĸ":1739,"possible":1740,"Ġmade":1741,"Ġpartic":1742,"Ġdifference":1743,"Ġprice":1744,"Ġ^":1745,"Ġtry":1746,"collections":1747,"After":1748,"max":1749,"ithmetic":1750,"Ġ60":1751,"Ġche":1752,"index":1753,"Ġitem":1754,"ava":1755,"ypes":1756,"ping":1757,"Ġconstraints":1758,"Ġtestcases":1759,"andom":1760,"Ġyear":1761,"Ġtravel":1762,"leetcode":1763,"Ġassume":1764,"plit":1765,"Ġknight":1766,"ener":1767,"Ġupper":1768,"NO":1769,"Ġshown":1770,"clus":1771,"Ġtop":1772,"Ġballs":1773,"Ġalphab":1774,"Im":1775,"atas":1776,"Ġdoesn":1777,"ory":1778,"]],":1779,"return":1780,"Ġcap":1781,"Ġred":1782,"Ġarguments":1783,"`/`":1784,"emb":1785,"Ġcells":1786,"59":1787,"Ġfact":1788,"Ġdescri":1789,"Ġrepl":1790,"find":1791,"word":1792,"Ġbeen":1793,"Ġsquares":1794,"Ġexamples":1795,"....":1796,")`":1797,"ses":1798,"self":1799,"Ġwhile":1800,"At":1801,"count":1802,"Ġwalk":1803,"Ġeat":1804,"ward":1805,"Ġcar":1806,"ici":1807,"clusive":1808,"erv":1809,"Ġadjacent":1810,"ints":1811,"54":1812,"Ġrequired":1813,"Negative":1814,"Ġbou":1815,"Subtasks":1816,"Ġplace":1817,"ram":1818,"Ġconsisting":1819,">>":1820,"bit":1821,"true":1822,"sen":1823,"()](":1824,"Ġdetermine":1825,"80":1826,"Ġpick":1827,"Ġwithin":1828,"ĠCon":1829,"Ġtriple":1830,"Ġunder":1831,"Ġdecimal":1832,"Ġbegin":1833,"Ġcorresponding":1834,"Ġ21":1835,"oney":1836,"iculty":1837,"Create":1838,"Ġwhat":1839,"Ġclo":1840,"92":1841,"Ġstatement":1842,"37":1843,"playing":1844,"Ġimpossible":1845,"1000":1846,"otal":1847,"Ġshort":1848,"bab":1849,"bin":1850,"ored":1851,"Ġvisit":1852,"acket":1853,"Ġroll":1854,"gor":1855,"ĠCh":1856,"69":1857,"Ġmark":1858,"Ġent":1859,"Ġgondola":1860,"Ġbott":1861,"fined":1862,"Ġones":1863,"----------------":1864,"over":1865,"Ġstill":1866,"Ġdef":1867,"els":1868,"34":1869,"Ġrepresents":1870,"uous":1871,"resh":1872,"As":1873,"Ġallow":1874,"An":1875,"ON":1876,"Ġagain":1877,"false":1878,"Ġ19":1879,"iles":1880,"Ġrevers":1881,"where":1882,"vious":1883,"Type":1884,"Playing":1885,"text":1886,"Ġmethods":1887,"ager":1888,"Number":1889,"9999":1890,"Ġbit":1891,"gs":1892,"Ġ200":1893,"Ġ>=":1894,"Ġtable":1895,"Ġsign":1896,"Ġop":1897,"ush":1898,"Ġdep":1899,"min":1900,"AT":1901,"day":1902,"Ġpie":1903,"aw":1904,"book":1905,"wikipedia":1906,"Now":1907,"**_":1908,"cat":1909,"Th":1910,"uplic":1911,"Ġheight":1912,"Ġsmall":1913,"Ġtriang":1914,"ĠTh":1915,"Ġwins":1916,"Ġcompany":1917,"ah":1918,"Ġmoney":1919,"Ġacc":1920,"Ġgener":1921,"Ġbeing":1922,"Ġroutes":1923,"oogle":1924,"\"],[\"":1925,"cy":1926,"reshold":1927,"fect":1928,"arp":1929,"Ġsimple":1930,"graph":1931,"Ġdenotes":1932,"njoy":1933,"1000000":1934,"Ġstand":1935,"Ġ40":1936,"87":1937,"AN":1938,"Ġ32":1939,"ments":1940,"35":1941,"Ġunits":1942,"ĠĠĠĠĠĠĠĠĠĠĠĠĠĠĠĠĠĠĠĠĠĠĠĠĠĠĠĠĠĠĠĠ":1943,"====":1944,"tex":1945,"Ġindices":1946,"Ġass":1947,"Ġpositions":1948,"wh":1949,"ĠAl":1950,"ĠĠĠĠĠĠĠĠĠĠĠĠ":1951,"google":1952,"Ġcoordinates":1953,"Ġtypes":1954,"aint":1955,"Ġsplit":1956,"ased":1957,"Ġlab":1958,"Ġarithmetic":1959,"elp":1960,"Ġcreate":1961,"36":1962,"cending":1963,"Ġformed":1964,"Ġdecided":1965,"oh":1966,"}{":1967,"ume":1968,"pro":1969,"face":1970,"Ġspaces":1971,"Ġcolor":1972,"Ġnumer":1973,"27":1974,"til":1975,"ertex":1976,"Ġold":1977,"makeNegative":1978,"avers":1979,"Ġcommon":1980,"Ġoff":1981,"Ġgold":1982,"AA":1983,"Ġtown":1984,"Ch":1985,"Ġsolve":1986,"Ġdescrib":1987,"^(":1988,"Ġbuy":1989,"```,":1990,"Ġrandom":1991,"Ġroad":1992,"Ġquest":1993,"sitive":1994,"start":1995,"Ġrunning":1996,"tt":1997,"aid":1998,"wiki":1999,"Ġinputs":2000,"xi":2001,"Ġcre":2002,"Ġgive":2003,"Ġking":2004,"avor":2005,"ĠLe":2006,"Ġith":2007,"ĠĠĠĠĠĠĠĠĠĠĠĠĠ":2008,"Ġint":2009,"zz":2010,"Ġallowed":2011,"Ġcalculate":2012,"#\",\"#\",\"":2013,"Ġrob":2014,"Ġtravers":2015,"Ġwhose":2016,"igit":2017,"Ġreg":2018,"City":2019,"Ġyi":2020,"ffici":2021,"ific":2022,"Ġbouqu":2023,"input":2024,"ose":2025,"Ġspeed":2026,"aking":2027,"fr":2028,"YES":2029,"Ġsample":2030,"Ġobtained":2031,"pp":2032,"Ġclos":2033,"Ġterm":2034,"Ġsold":2035,"owever":2036,"ĠTrue":2037,"ees":2038,"Ġwere":2039,"abcd":2040,"Ġblock":2041,"Ġins":2042,"ouble":2043,"`-`":2044,"Ġnull":2045,"Ġsequences":2046,"Ġtests":2047,"ings":2048,"Ġ105":2049,"64":2050,"Ġswap":2051,"Ġrepresented":2052,"Ġchef":2053,"ouse":2054,"Ġrules":2055,"Ġduring":2056,"os":2057,"Ġcondition":2058,"Ġ!":2059,"ides":2060,"[[":2061,"Ġroot":2062,"Ġfloor":2063,"Ġconnect":2064,"Ġlimit":2065,"Ġph":2066,"hest":2067,"anged":2068,"Ġcards":2069,"ify":2070,"Ġroom":2071,"Ġchess":2072,"ale":2073,"Ġrest":2074,"Ġprov":2075,"irth":2076,"70":2077,"bb":2078,"Ġblue":2079,"90":2080,"cle":2081,"idd":2082,"numbers":2083,"Ġsystem":2084,"Day":2085,"EX":2086,"bo":2087,"Ġstudents":2088,"action":2089,"Ġ&":2090,"OR":2091,"name":2092,"Ġbask":2093,"wor":2094,"Max":2095,"'re":2096,"111":2097,"ĠĠĠĠĠĠĠĠĠĠĠ":2098,"Ġsatisfy":2099,"cts":2100,"Ġvertices":2101,"Ġluck":2102,"loom":2103,"Ġpalindrome":2104,"dots":2105,"Ġtre":2106,"Ġbuild":2107,"atest":2108,"iguous":2109,"Of":2110,"ĠFind":2111,"Ġwordlist":2112,"ikes":2113,"ĠOn":2114,"85":2115,"Ġlanguage":2116,"31":2117,"Ġnames":2118,"ual":2119,"Ġwater":2120,"Ġcomplete":2121,"rder":2122,"Size":2123,")_**":2124,"Ġrectangle":2125,"Ġuntil":2126,"ython":2127,"Ġassign":2128,"Ġdi":2129,"],[-":2130,"arent":2131,"Alice":2132,"ef":2133,"struct":2134,"ren":2135,"Ġcustomer":2136,"creasing":2137,"ility":2138,"Ġour":2139,"ĠEnjoy":2140,"Ġyears":2141,"Notice":2142,"ograph":2143,"aving":2144,"Ġmy":2145,"Ġdefined":2146,"Ġhour":2147,"aced":2148,"ĠWith":2149,"Ġq":2150,"xx":2151,"Ġcur":2152,"Ġproper":2153,"ohn":2154,"No":2155,"facebook":2156,"ĠLet":2157,"Ġdirect":2158,"),(":2159,"ily":2160,"39":2161,":**":2162,"no":2163,"Ġfew":2164,"âĢĻ":2165,"(-":2166,"Ġneeded":2167,"integ":2168,"az":2169,"Ġfavor":2170,"Ġrows":2171,"Ġshortest":2172,"Ġaccept":2173,"Ġplayers":2174,"Ġboarding":2175,"String":2176,"Ġbloom":2177,"Ġelse":2178,"Ġcollect":2179,"Ġequals":2180,"Ġ[]":2181,"Ġcities":2182,"Ġ`'":2183,"pos":2184,"Ġconvert":2185,"arrow":2186,"Ġfriends":2187,"gorithm":2188,"grid":2189,"âĸł":2190,"Ġbeginning":2191,"$).":2192,"Ġpresent":2193,"Ġarea":2194,"left":2195,"So":2196,"Ġfig":2197,"ĠTo":2198,"valid":2199,"ĠrunningCost":2200,"ĠboardingCost":2201,"ples":2202,"Ġsubset":2203,"eng":2204,"Ġcomput":2205,"Ġfourth":2206,"ĠSince":2207,"indexed":2208,"lean":2209,"Ġhighest":2210,"land":2211,"Ġ26":2212,"Ġmonth":2213,"icograph":2214,"Ġmanager":2215,"Ġreturned":2216,"Ġinstead":2217,"Ġrel":2218,"ĠĠĠĠĠĠĠĠĠĠ":2219,"Ġinitially":2220,"Ġcall":2221,"ĠPo":2222,"Ġ['":2223,"ately":2224,"Ġchosen":2225,"Here":2226,"Ġmess":2227,"ĠNotes":2228,"Ġ(`":2229,"Ġsk":2230,"ĠNumbers":2231,"01":2232,"king":2233,"Ġseg":2234,"))":2235,"Array":2236,"Ġgoing":2237,"*.":2238,"Ġremoving":2239,"Ġpaint":2240,"ĪĴ":2241,"Ġhor":2242,"Ġdest":2243,"```.":2244,"Ġincreasing":2245,"Ġamong":2246,"Ġbecome":2247,"Ġput":2248,"reak":2249,"Ġhap":2250,"bar":2251,"ertain":2252,"To":2253,"Ġduplic":2254,"Ġanswers":2255,"cluding":2256,"iddle":2257,"oding":2258,"Ġ)":2259,"idth":2260,"iction":2261,"Ġprime":2262,"ror":2263,"Ġrepresentation":2264,"Ġjumps":2265,"Ġmatch":2266,"uby":2267,"gg":2268,"Ġ2000":2269,"Ġnever":2270,"Ġvow":2271,"Ġlex":2272,"Ġlead":2273,"ember":2274,"1010":2275,"})":2276,"Ġ;":2277,"Ġprocess":2278,"ID":2279,"BB":2280,"Implement":2281,"ĠĠĠĠĊ":2282,"ills":2283,"Ġ36":2284,"Ġprevious":2285,"Ġoptim":2286,"ĠAn":2287,"PL":2288,"Ġcut":2289,"ke":2290,"Ġenc":2291,"that":2292,"Ġzeros":2293,".\",\".\",\"":2294,"ĠSubtask":2295,"ighb":2296,"Ġcontin":2297,"rightarrow":2298,"Ġev":2299,"char":2300,"Ġlit":2301,"herit":2302,"Ġhere":2303,"Ġsubarrays":2304,"Ġfold":2305,"Ġer":2306,"nums":2307,"Ġrank":2308,"Ġprodu":2309,"ults":2310,"ording":2311,"Ġemployees":2312,"Ġsubsequences":2313,"\":":2314,"Ġact":2315,"Ġplan":2316,"heritance":2317,"ilar":2318,"kl":2319,"Ġrepeated":2320,"Ġwall":2321,"Ġminute":2322,"ĠALL":2323,"urren":2324,"eg":2325,"bc":2326,"Ġrectangles":2327,"Case":2328,"ĠBut":2329,"pression":2330,"Ġcertain":2331,"ĠString":2332,"pan":2333,"Ġwhole":2334,"ta":2335,"Ġlexicograph":2336,"iving":2337,"izon":2338,"Ġspecial":2339,"order":2340,"Ġ109":2341,"Ġlink":2342,"aba":2343,"Ġmag":2344,"Ġfound":2345,"ty":2346,"div":2347,"Ġgives":2348,"finite":2349,"Ġmiddle":2350,"Ġneighb":2351,"Ġstone":2352,"Order":2353,"Ġcir":2354,"Ġthose":2355,"bob":2356,"Ġappear":2357,"onent":2358,"pre":2359,"Ġâī":2360,"97":2361,"}.":2362,"edian":2363,"Ġexist":2364,"foo":2365,"way":2366,"oc":2367,"Ġlengths":2368,"Ġforce":2369,"ended":2370,"br":2371,"Ġtriangle":2372,"Ġfollowed":2373,"pose":2374,"Ġfavorite":2375,"Total":2376,"105":2377,"When":2378,"next":2379,"Ġgoes":2380,"Po":2381,"line":2382,"sing":2383,"Ġresulting":2384,"Please":2385,"bd":2386,"acci":2387,"ĠFalse":2388,"Ġalphabet":2389,"sub":2390,"Ġproblems":2391,"Ġplease":2392,"Ġmaxim":2393,"He":2394,"Ġbreak":2395,"lements":2396,"ki":2397,"points":2398,"Ġdelet":2399,"ya":2400,"Ġchoo":2401,"Ġaddition":2402,"Ġincluding":2403,"26":2404,"ATI":2405,"Ġbest":2406,"Complete":2407,"plet":2408,"output":2409,"ĠOne":2410,"Ġbook":2411,"ashi":2412,"ccess":2413,"eters":2414,"ian":2415,"solve":2416,"Ġitself":2417,"On":2418,"anced":2419,"ĠTak":2420,"Ġfactor":2421,"Ġquotes":2422,"from":2423,"ounts":2424,"Ġfigure":2425,"Ġoperator":2426,"Ob":2427,"Be":2428,"als":2429,"Ġban":2430,"Ġbase":2431,"âĢī":2432,"asic":2433,"onacci":2434,"Good":2435,"eep":2436,"ĠHowever":2437,"]$,":2438,"Ġalgorithm":2439,"Ġmov":2440,"****":2441,"agram":2442,"Ġage":2443,"Ġ-$":2444,"words":2445,"29":2446,"??":2447,"Ġwaiting":2448,"ssib":2449,"Ġatt":2450,"can":2451,"ATION":2452,"Ġseries":2453,"Ġwell":2454,"Ġdifficulty":2455,"Ġ23":2456,"ello":2457,"Ġgets":2458,"ANATION":2459,"EXPL":2460,"EXPLANATION":2461,"Ġinv":2462,"fficient":2463,"[\"":2464,"56":2465,"ĠĠĠĊ":2466,"Ġfit":2467,"Ġparameters":2468,"Ġable":2469,"thing":2470,"Ġparent":2471,"ia":2472,"Ġcolumns":2473,"iers":2474,"arm":2475,"card":2476,"comm":2477,"ĠMore":2478,")$.":2479,"posit":2480,"Ġinfinite":2481,"Test":2482,"arden":2483,"Ġhi":2484,"board":2485,"Ġeas":2486,"ified":2487,"]$.":2488,"ule":2489,"Ġnecess":2490,"ĠWhen":2491,"Ġdistribut":2492,"ross":2493,"arch":2494,"Ġ_,":2495,"Ġplaying":2496,"Ġwinner":2497,"Ġsl":2498,"Ġpack":2499,"ĠRem":2500,"Ġweights":2501,"my":2502,"Ġsay":2503,"olv":2504,"Ġdirection":2505,"ictionary":2506,"uzz":2507,"Ġrequests":2508,"Ġparticip":2509,"key":2510,"ains":2511,"Ġflow":2512,"verage":2513,"ips":2514,"Ġ34":2515,"ites":2516,"Ġends":2517,"Ġbel":2518,"Ġ27":2519,"Ġtell":2520,"ĠCan":2521,"Ġcombin":2522,"Ġmuch":2523,"chie":2524,"ouses":2525,"you":2526,"Ġsmaller":2527,"Ġoptimally":2528,"Ġmiss":2529,"ĠPr":2530,"ĠCity":2531,"Ġindic":2532,"Ġtransl":2533,"Ġachie":2534,"imens":2535,"avas":2536,"avascript":2537,"ahashi":2538,"Ġ22":2539,"Ġfun":2540,"Then":2541,"Ġprovided":2542,"peed":2543,"Ġmessage":2544,"ics":2545,"lete":2546,"First":2547,"without":2548,"Ġaccording":2549,"rm":2550,"Ġhorizon":2551,"Qu":2552,"Ġwon":2553,")$,":2554,"Ġcr":2555,"itially":2556,"Ġvol":2557,"Ġparameter":2558,"ĠSe":2559,"sl":2560,"Ġascending":2561,"Ġpiece":2562,"Ġ!!":2563,"Ġgarden":2564,"Ġuppercase":2565,"Ġfully":2566,"'ll":2567,"alanced":2568,"Ġprobab":2569,"ures":2570,"|,":2571,"++++++++++++++++++++++++++++++++":2572,"ped":2573,"Ġbutt":2574,"Ġinclusive":2575,"Ġopen":2576,"by":2577,"icks":2578,"ĠNow":2579,"pts":2580,"Ġseconds":2581,"84":2582,"Product":2583,"therwise":2584,"Ġrobot":2585,"345":2586,"Ġlabel":2587,"andard":2588,"11111":2589,"Val":2590,"ĠStandard":2591,"Ġstruct":2592,"less":2593,"Numbers":2594,"Ġreac":2595,"ĠNumber":2596,"Ġident":2597,"Ġoccurs":2598,"Ġdel":2599,"Ġ(\"":2600,"ming":2601,"lev":2602,"alf":2603,"Ġteams":2604,"####":2605,"llo":2606,"Ġinterest":2607,"IS":2608,"ĠGiven":2609,"Ġsubstrings":2610,"Ġcoin":2611,"ches":2612,"Ġdescribed":2613,"qr":2614,"Ġlinked":2615,"']":2616,"ived":2617,"frac":2618,"Ġdoll":2619,"Ġintervals":2620,"rep":2621,"rd":2622,"pop":2623,"Ġitems":2624,"Ġfree":2625,"co":2626,"att":2627,"Ġstrict":2628,"Ġchoice":2629,"ĠUn":2630,"Ġhouse":2631,"ually":2632,"ital":2633,"Ġperfect":2634,"321":2635,"fix":2636,"ĠâĨ":2637,"Ġboy":2638,"Re":2639,"Ġremoved":2640,"Ġnote":2641,"Ġbig":2642,"Ġfam":2643,"ĠHelp":2644,"acity":2645,"Ġuses":2646,"Ġbits":2647,"ĠTakahashi":2648,"Ġtriplets":2649,"Arrays":2650,"Ġhaving":2651,"Ġexcept":2652,"!\"":2653,"ÃĹ":2654,"times":2655,"ula":2656,"*,":2657,"Ġdie":2658,"Ġlexicographically":2659,"Ġinvalid":2660,"netic":2661,"ĠAt":2662,"askell":2663,"Ġturns":2664,"Elements":2665,"ield":2666,"Ġoranges":2667,"None":2668,"alleng":2669,"Ġshift":2670,"Ġvers":2671,"Ġsn":2672,"Ġpop":2673,"ĠAlex":2674,"Ġdivisors":2675,"Ġbouquets":2676,"including":2677,"Ġship":2678,"work":2679,"ĠNo":2680,"arning":2681,"stru":2682,"ared":2683,"75":2684,"Ġdictionary":2685,"edges":2686,"Ġresults":2687,"Ġconnecting":2688,"Ġquestion":2689,"Ġhtt":2690,"Ġbeaut":2691,"zero":2692,"Ġhot":2693,"gether":2694,"Ġserv":2695,"port":2696,"ĠAs":2697,"Ġ300":2698,"Ġreplace":2699,"tweet":2700,"Ġsto":2701,"150":2702,"Ġreceive":2703,"ather":2704,"Ġhouses":2705,"Ġcover":2706,"loc":2707,"Ġtimest":2708,"From":2709,"Ġblack":2710,"most":2711,"42":2712,"Ġï":2713,"Ġenough":2714,"Ġbul":2715,"lap":2716,"Ġsent":2717,"aken":2718,"200":2719,"aper":2720,"omin":2721,"ature":2722,"actions":2723,"]=":2724,"Ġbanan":2725,"Ġcontiguous":2726,"¹Ī":2727,"Ġï¹Ī":2728,"ma":2729,"rectang":2730,"play":2731,"Ġinformation":2732,"Ġchocol":2733,"Ġsides":2734,"Ġkeep":2735,"$),":2736,"Ġlanguages":2737,"Ġplaces":2738,"Ġpress":2739,"product":2740,"Ġcapacity":2741,"lists":2742,"Ġav":2743,"pected":2744,"xes":2745,"76":2746,"Digit":2747,"lcom":2748,"Ġwelcom":2749,"âĪĴ":2750,"Ġdecre":2751,"Ġflowers":2752,"Ġstructure":2753,"Ġtogether":2754,"two":2755,"atch":2756,"\"`.":2757,"ness":2758,"Ġown":2759,"\\\\":2760,"ght":2761,"Script":2762,"push":2763,"dist":2764,"Ġsever":2765,"Ġstrictly":2766,"uer":2767,"sharp":2768,"Ġtem":2769,"ects":2770,"More":2771,"Ġtraversed":2772,"Ġbananas":2773,"math":2774,"gre":2775,"mally":2776,"Ġtaken":2777,"ĠAlso":2778,"Mr":2779,"aaaa":2780,"arn":2781,"Ġnumeric":2782,"Hello":2783,"oolean":2784,"alth":2785,"ĠPython":2786,"ĠEx":2787,"round":2788,"ĠThat":2789,"nu":2790,"ĠPlease":2791,"ĠVertex":2792,"Ġbeer":2793,"Ġkind":2794,"users":2795,"Compan":2796,"Companies":2797,"ibonacci":2798,"Ġstre":2799,"Ġ106":2800,"12345":2801,"sort":2802,"Ġsched":2803,"]`,":2804,"Ġdial":2805,"Ġasked":2806,"Object":2807,"Sum":2808,"Ġloo":2809,"anging":2810,"Ġstation":2811,"ij":2812,"ful":2813,"acing":2814,"Se":2815,"IN":2816,"Ġmean":2817,"Ġsure":2818,"ances":2819,"Ġprefix":2820,"ently":2821,"ĠinformTime":2822,"Ġstudent":2823,"Ġfix":2824,"Ġhard":2825,"Ġdivide":2826,"Ġ__":2827,"38":2828,"ssibly":2829,"ĠShe":2830,"Ġchildren":2831,"AB":2832,"Ġexp":2833,"atur":2834,"11111111":2835,"ĠThey":2836,"Ġaccepted":2837,"stac":2838,"ĠLists":2839,"Ġcommand":2840,"Queries":2841,"Ġtimestamp":2842,"afe":2843,"racket":2844,"\");":2845,"Ġreverse":2846,"Ġ28":2847,"Ġneighbor":2848,"Ġsums":2849,"roy":2850,"Ġmight":2851,"48":2852,"Ġjobs":2853,"Ġtw":2854,"mb":2855,"Ġpur":2856,"Ġscores":2857,"Ġlow":2858,"cont":2859,"oes":2860,"Ġkeys":2861,"Ġtrees":2862,"ĠbloomDay":2863,"oid":2864,"Ġgir":2865,"Ġmedian":2866,"Ġcoordinate":2867,"ized":2868,"slash":2869,"Ġchooses":2870,"Ġcoding":2871,"au":2872,"Ġboxes":2873,"Ġassigned":2874,"Ġhapp":2875,"Ġtransform":2876,"Ġhome":2877,"Ġshow":2878,"Ġcome":2879,"Ġhigh":2880,"Ġdraw":2881,"ody":2882,"Ġdone":2883,"Ġpartition":2884,"Ġisn":2885,"ĠâĢķ":2886,"Ġunit":2887,"Ġstrong":2888,"izz":2889,"Ġbaskets":2890,"Ġaccepts":2891,"Ġ`{":2892,"Ġaround":2893,"even":2894,"\"]]":2895,"Ġsegment":2896,"Ġdollars":2897,"Ġreal":2898,"like":2899,"Ġhalf":2900,"Ġalong":2901,"ĠĠĠĠĠĠĠĠĠĠĠĠĠĠ":2902,"ĠâĨĴ":2903,"Ġoccurren":2904,"Ġ37":2905,"Ġlikes":2906,"Ġsolutions":2907,"birth":2908,"ĠcurOrder":2909,"Ġgoal":2910,"Ġdestroy":2911,"ĠTherefore":2912,"csharp":2913,"Ġseveral":2914,"Ġfolder":2915,"40000":2916,"Ġconstruct":2917,"Ġbottom":2918,"divis":2919,"should":2920,"Ġflip":2921,"`)":2922,"6789":2923,"Ġpoly":2924,"ĠNone":2925,"]^":2926,"]|":2927,"Ġ29":2928,"Ġhad":2929,"integer":2930,"Ġaverage":2931,"Ġrounded":2932,"hored":2933,"Ġcook":2934,"Ġwhite":2935,"cream":2936,"Ġleading":2937,"Ġimplement":2938,"Ġthreshold":2939,"Ġcontest":2940,"Every":2941,"Ġ!=":2942,"Kata":2943,"Ġexpression":2944,"rectangle":2945,"Ġ}":2946,"Ġextr":2947,"Ġdiscount":2948,"ÂłĠĠĠĠĠĠĠĠĠĠĠĠĠ":2949,"Ġlarger":2950,"II":2951,"Ġredu":2952,"Node":2953,"Ġasks":2954,"Ġapply":2955,"authored":2956,"ĠKatas":2957,">>>":2958,"Ġ20000":2959,"Ġexpected":2960,"iod":2961,"qrt":2962,"Ġ`(":2963,"Ġwar":2964,"Ġpay":2965,"Ġcy":2966,"OfNumbers":2967,"izes":2968,"Threshold":2969,"Ġve":2970,"ched":2971,"Ġ40000":2972,"Ġ`-":2973,"odd":2974,"Ġdepending":2975,"Ġsoldier":2976,"Ġhigher":2977,"ĠConstraints":2978,"Ġdenote":2979,"Ġsur":2980,"ĠDe":2981,"Tweet":2982,"Ġyj":2983,"aster":2984,"Ġ$|":2985,"Ġgot":2986,"Ġvolume":2987,"Ġphone":2988,"dire":2989,"Ġthink":2990,"Ġcolors":2991,"Ġtranslations":2992,"Ġdid":2993,"Ġrefer":2994,"Ġ100000":2995,"Ġ%":2996,"ivers":2997,"row":2998,"rid":2999,"Counts":3000,"Value":3001,"Yes":3002,"time":3003,"ĠJava":3004,"Ġthrow":3005,"Ġ5000":3006,"verse":3007,"rary":3008,"nuke":3009,"Ass":3010,"Bo":3011,"requ":3012,"hing":3013,"Ġ99":3014,"ackets":3015,"me":3016,"alice":3017,"Ġdefine":3018,"ml":3019,"sc":3020,"orm":3021,"Ġdice":3022,"],[],[":3023,"Ġcolour":3024,"Ġsup":3025,"tun":3026,"ystem":3027,"hour":3028,"Ġoptimal":3029,"ole":3030,"hello":3031,"aab":3032,"uit":3033,"represent":3034,"Ġchalleng":3035,"$$":3036,"Ġdro":3037,"Ġbrackets":3038,"Inheritance":3039,"ĠMethod":3040,"Ġtwice":3041,"both":3042,"may":3043,"Ġlocated":3044,"ĠheadID":3045,"Ġcosts":3046,"Ġclosest":3047,"([\"":3048,"xor":3049,"Â·":3050,"Ġdish":3051,"Ġext":3052,"Ġsafe":3053,"jects":3054,"Ġwidth":3055,"------------":3056,"cent":3057,"posed":3058,"Ġbar":3059,"Ġ>>":3060,"Ġfaces":3061,"Ġworld":3062,"ĠAnd":3063,"amed":3064,"Ġ90":3065,"Ġlatest":3066,"Ġcurrently":3067,"Ġachieve":3068,"ms":3069,"Ġcour":3070,"ittle":3071,"Ġorigin":3072,"Ġtick":3073,"aur":3074,"oS":3075,"}$.":3076,"hemat":3077,"ĠarrayObject":3078,"xy":3079,"ĠrollMax":3080,"kn":3081,"nce":3082,"Ġet":3083,"Ġvertex":3084,"Ġsepar":3085,"Ġpasseng":3086,"Ġstat":3087,"Ġpeak":3088,"Ġ[[-":3089,"ifficulty":3090,"Ġdelete":3091,"110":3092,"ellow":3093,"Ġide":3094,"Ġsatisfies":3095,"Ġ[[\"":3096,"Ġworker":3097,"ls":3098,"Ġisland":3099,"Ġstarted":3100,"ĠfavoriteCompanies":3101,"cho":3102,"gy":3103,"ason":3104,"Sub":3105,"Ġfile":3106,"Bob":3107,"oad":3108,"Ġgues":3109,"Ġaltern":3110,"58":3111,"Le":3112,"Also":3113,"such":3114,"ional":3115,"Ġcorner":3116,"irror":3117,"Ġuser":3118,"Stack":3119,"Ġbound":3120,"ĠOtherwise":3121,"arily":3122,"Ġ50000":3123,"\"`,":3124,"09":3125,"Ġschedule":3126,"Ġser":3127,"ĠJohn":3128,"$;":3129,"Ġquer":3130,"Ġdecide":3131,"Ġetc":3132,"Ġtu":3133,"Ġvowel":3134,"Ġparticular":3135,"uation":3136,"Ġcompute":3137,"'`":3138,"Ziz":3139,"ĠNext":3140,"crement":3141,"Ġparts":3142,"Ġcreated":3143,"oScream":3144,"ZizoScream":3145,"trodu":3146,"gon":3147,"png":3148,"Ġbutton":3149,"caten":3150,"âī":3151,"Ġcake":3152,"Ġforward":3153,"Ġwelcomed":3154,"ĠLearning":3155,"Ġprobability":3156,"Ġ(-":3157,"Ġknows":3158,"Ġ12345":3159,"agon":3160,"itial":3161,"Ġbased":3162,"=[":3163,"ĠdistanceThreshold":3164,"peak":3165,"izou":3166,"ĠZizou":3167,"ĠEnjoyable":3168,"MrZizoScream":3169,"âĸłâĸł":3170,"Ġqueried":3171,"bet":3172,"lyc":3173,"Ġ104":3174,"iting":3175,"ĠXOR":3176,"rypt":3177,"Ġspell":3178,"tri":3179,"airs":3180,"Ġapples":3181,"Ġpermutations":3182,".\"":3183,"ination":3184,"ĠSu":3185,"()`":3186,"Ġobstac":3187,"lycarp":3188,"Ġbill":3189,"Ġrotating":3190,"Ġmakes":3191,"Ġdivided":3192,"68":3193,"Ġsupp":3194,"1000000000":3195,"enari":3196,"ĠHence":3197,"Ġappears":3198,"Difficulty":3199,"Ġdimens":3200,"Ġlists":3201,"iful":3202,"\",\"/":3203,"Ġcapital":3204,"ĠStreamChecker":3205,"StreamChecker":3206,"value":3207,"Ġrearr":3208,"Ġchanges":3209,"PS":3210,"mi":3211,"]:":3212,"65":3213,"Ġsearch":3214,"Ġ**_(":3215,"Ġ1000000000":3216,"head":3217,"decreasing":3218,"Ġhotel":3219,"finish":3220,"type":3221,"`:":3222,"Ġwaits":3223,"ĠSh":3224,"Ġbirth":3225,"side":3226,"Ġselect":3227,"Ġpix":3228,"Ġsele":3229,"Ġplayed":3230,"love":3231,"ĠÂł":3232,"ĠOr":3233,"Ġgreatest":3234,"Ġroute":3235,"Rec":3236,"ĠAi":3237,"Ġcontained":3238,"inter":3239,"Ġgondolas":3240,"Ġnamed":3241,"Ġlowest":3242,"Ġbetter":3243,"igits":3244,"Ġperiod":3245,"Ġlot":3246,"numbered":3247,"embers":3248,"Ġ]":3249,"Ġcent":3250,"Ġsubordin":3251,"ĠmaxSize":3252,"Ġbeautiful":3253,"Ġâī¦":3254,"ĠReturns":3255,"apple":3256,"Ġrounds":3257,"Ġparty":3258,"Ġmathemat":3259,"Ġdesired":3260,"istory":3261,"ĠkeyTime":3262,"locations":3263,"dr":3264,"Ġmeters":3265,"Ġinstru":3266,"neq":3267,"Ġbasket":3268,"Ġremoves":3269,"azon":3270,"15088":3271,"pace":3272,"Ġcolle":3273,"gta":3274,"java":3275,"mm":3276,"Ġground":3277,"Ġdivisor":3278,"ves":3279,"Ġnight":3280,"Ġpuzz":3281,"ĠCom":3282,"ĠAr":3283,"ĠBoth":3284,"ends":3285,"cept":3286,"Notes":3287,"nam":3288,"Ġadded":3289,"Un":3290,"Ġfight":3291,"Ġeng":3292,"De":3293,"lockwise":3294,"move":3295,"ĠBe":3296,"Ġincluded":3297,"Ġbottles":3298,"Ġevent":3299,"load":3300,"Ġgreen":3301,"Ġaway":3302,"Ġcandy":3303,"Ġmissing":3304,"Ġversion":3305,"Ġ({":3306,"ĠAN":3307,"ĠMethods":3308,"ek":3309,"Ġloop":3310,"Ġconcaten":3311,"Cons":3312,"mbol":3313,"which":3314,"sm":3315,"atural":3316,"79":3317,"Ġsaid":3318,"Ġsolv":3319,"pec":3320,"Ġ('":3321,"alling":3322,"enario":3323,"between":3324,"Ġrequest":3325,"Ġhours":3326,"Boxes":3327,"Ġtaking":3328,"Ġ49":3329,"Ġquestions":3330,"Ġsimilar":3331,"True":3332,"Ġbulb":3333,"likes":3334,"Ġpieces":3335,"@@":3336,"ayer":3337,"known":3338,"javascript":3339,"Ġincrease":3340,"requen":3341,"Ġlake":3342,"Ġstanding":3343,"ĠHere":3344,"#\"],":3345,"man":3346,"tally":3347,"Ġlooks":3348,"Help":3349,"Ġprep":3350,"Ġfrog":3351,"ru":3352,"Ġmom":3353,"multi":3354,"Ġordered":3355,"amazon":3356,"orph":3357,"Ġsom":3358,"plus":3359,"106":3360,"Ġmagnetic":3361,"Ġcub":3362,"ires":3363,"iginal":3364,"Ġenter":3365,"ĠArr":3366,"arry":3367,"ĠWrite":3368,"Ġbouquet":3369,"orphic":3370,"Ġinside":3371,"aps":3372,"'ve":3373,"Ġ000":3374,"âĢĿ":3375,"non":3376,"orts":3377,"ounter":3378,"thew":3379,"aj":3380,"Ġstore":3381,"plied":3382,"Ġexam":3383,"ĠThus":3384,"Ġblocks":3385,"Ġpaper":3386,"plication":3387,"Ġadditional":3388,"representing":3389,"abab":3390,"Ġeasy":3391,"Ġflower":3392,"erved":3393,"Ġplaced":3394,"Ġarrange":3395,"Ġmultiply":3396,"tv":3397,"ization":3398,"},{":3399,"86":3400,"Ġvari":3401,"Ġcomplet":3402,"rating":3403,"arl":3404,"ĠMath":3405,"120":3406,"Ġsatisfied":3407,"tunately":3408,"43":3409,"plane":3410,"levator":3411,"bl":3412,"Make":3413,"piles":3414,"ails":3415,")(":3416,"aight":3417,"Ġboolean":3418,"umping":3419,"Ġkatas":3420,"Ġrotate":3421,"Ġstacks":3422,"come":3423,"Ġstraight":3424,"~\\":3425,"ished":3426,"Ġanimal":3427,"ĠTri":3428,"ids":3429,"âĢ¦":3430,"da":3431,"Ġapp":3432,"|=":3433,"Ġidentical":3434,"itch":3435,"**.":3436,"=====":3437,"LD":3438,"ting":3439,"ords":3440,"omb":3441,"47":3442,"Sim":3443,"Ġmer":3444,"Ġarbit":3445,"Ġwhites":3446,"Ġsimply":3447,"ny":3448,"cons":3449,"flo":3450,"ĠNO":3451,"Ġapple":3452,"ders":3453,"OK":3454,"will":3455,"Ġworking":3456,".`":3457,"\"].":3458,"squ":3459,"What":3460,"Ġegg":3461,"Ġfamily":3462,"ky":3463,"Ġfore":3464,"Ġfield":3465,"Ġchain":3466,"ha":3467,"Ġfil":3468,"cf":3469,"ifts":3470,"ries":3471,"andy":3472,"iel":3473,"ĠLee":3474,"63":3475,"check":3476,"ĠSum":3477,"requency":3478,"chool":3479,"Ġcare":3480,"Ġnecessarily":3481,"Ġslices":3482,"Ġending":3483,"ĠÃĹ":3484,"Ġdog":3485,"Ġnews":3486,"573":3487,"Ġranges":3488,"One":3489,"ient":3490,"Ġcars":3491,"NOT":3492,"Ġtriplet":3493,"Ġ45":3494,"Ġrains":3495,"ried":3496,"AC":3497,"Ġfinally":3498,"Ġunivers":3499,"Some":3500,"Ġsquared":3501,"Ġstamp":3502,"654":3503,"ware":3504,"Ġalphabetic":3505,"Ġfive":3506,"Ġactiv":3507,"Ġminimal":3508,"ius":3509,"Ġing":3510,"Consider":3511,"_**.":3512,"ĠEvery":3513,"Ġextra":3514,"ĠSub":3515,"ined":3516,"600":3517,"ctor":3518,"perm":3519,"Ġreaches":3520,"fuel":3521,"arg":3522,"Ġthings":3523,"mon":3524,"Ġhence":3525,"Ġmarks":3526,"alent":3527,"Ġbelong":3528,"XX":3529,"iver":3530,"orld":3531,"Ġappro":3532,"inclusive":3533,"âĻ":3534,"Ġcross":3535,"etition":3536,"plain":3537,"plist":3538,"Ġtemper":3539,"iness":3540,"tract":3541,"ences":3542,"Ġbracket":3543,"Ġdeleting":3544,"ountain":3545,"572":3546,"Ġur":3547,"Ġprede":3548,"ae":3549,"Ġhold":3550,"Ġcalls":3551,"False":3552,"Ġnice":3553,"Ġregular":3554,"Ġshows":3555,"Ġinters":3556,"!!\"":3557,"Ġsubm":3558,"Ġvowels":3559,"Ġcourse":3560,"10101":3561,"Ġtrain":3562,"posite":3563,"Ġtrying":3564,"Ġ92":3565,"Ġcombination":3566,"ĠArray":3567,"rec":3568,"ane":3569,"Ġsoldiers":3570,"pie":3571,"**,":3572,"cessor":3573,")```":3574,"uming":3575,"Ġanything":3576,"upper":3577,"`[":3578,"ource":3579,"characters":3580,"Ġign":3581,"ĠminSize":3582,"mer":3583,"Ġconst":3584,"ĠstartTime":3585,"Ġoutside":3586,"Ġaddress":3587,"Ġmembers":3588,"utom":3589,"Ġscenario":3590,"Ġwriting":3591,"Ġchanging":3592,"oded":3593,"possibly":3594,"ĠÂłĠĊ":3595,"300":3596,"atives":3597,"Ġ70":3598,"Ġticket":3599,"Ġ----":3600,"Ġ\"/":3601,"ĠĠĠĠĠĠĠĠĠĠĠĠĠĠĠ":3602,"Ġpict":3603,"appy":3604,"ailable":3605,"Ġvar":3606,"Ġdisplay":3607,"EN":3608,"Ġsell":3609,"iew":3610,"Ġdishes":3611,"attle":3612,"Ġpredecessor":3613,"ĠRe":3614,"109":3615,"DD":3616,"binom":3617,"ĠOnly":3618,"Ġlabelled":3619,"08":3620,"AS":3621,"Ġ35":3622,"Ġjo":3623,"commended":3624,"Ġexponent":3625,"Ġrotation":3626,"Ġingred":3627,"digit":3628,"dbinom":3629,"Ġgreat":3630,"Ġque":3631,")\"":3632,"Ġ120":3633,"6666":3634,"ĠRs":3635,"67890":3636,"...,":3637,"Ġsubordinates":3638,"122":3639,"With":3640,"ster":3641,"Ġyen":3642,"Ġsymbol":3643,"Ġoccurrences":3644,"Ġarbitrary":3645,"-)":3646,"wards":3647,"textrm":3648,"Map":3649,"ties":3650,"ĠCA":3651,"Ġchanged":3652,"Ġ80":3653,"Ġtowns":3654,"Ġtherefore":3655,"Ġdirectly":3656,"49":3657,"]`.":3658,"finition":3659,"Ġchocolates":3660,"fortunately":3661,"Ġrelative":3662,"ral":3663,"asha":3664,"Ġsix":3665,"ĠSnuke":3666,"Ġcircle":3667,"Ġfif":3668,"ised":3669,"then":3670,"Ġinclude":3671,"'],":3672,"DE":3673,"Wh":3674,"ok":3675,"Ġnatural":3676,"3333":3677,"ĠjobDifficulty":3678,")\",\"":3679,"fe":3680,"umpy":3681,"mod":3682,"oplus":3683,"Ġtasks":3684,"Ġoldest":3685,"Ġdistribute":3686,"eting":3687,"integers":3688,"izza":3689,"*(":3690,"Ġreceives":3691,"Ġmoving":3692,"Ġ150":3693,"\").":3694,"down":3695,"Ġlearn":3696,"first":3697,"Ġvertically":3698,"Ġstatus":3699,"ĠInitially":3700,"limit":3701,"Ġplays":3702,"Ġrule":3703,"Ġ61":3704,"ern":3705,"kiplist":3706,"Ġcarry":3707,"endent":3708,"]).":3709,"ĠPolycarp":3710,"productOfNumbers":3711,"Ġpassengers":3712,"has":3713,"abac":3714,"Ġreceived":3715,"cur":3716,"digits":3717,"function":3718,"Ġmain":3719,"ivalent":3720,"Ġvac":3721,"Ġtemperature":3722,"Ġweek":3723,"abb":3724,"Ġthus":3725,"***":3726,"su":3727,"Have":3728,"Ġnone":3729,"Ġleave":3730,"dis":3731,"}`":3732,"ardless":3733,"Ġerror":3734,"HE":3735,"Ġeating":3736,"Ġorange":3737,"ĠkeyName":3738,"yes":3739,"Ġdenomin":3740,"Ġpaths":3741,"ailing":3742,"mtv":3743,"Ġorders":3744,"Ġknown":3745,"eter":3746,"Ġhorizontally":3747,"Ġdogs":3748,"Ġoverlap":3749,"zan":3750,"Ġlakes":3751,"Ġhero":3752,"Ġbitwise":3753,"othes":3754,"Ġavailable":3755,"ĠOriginal":3756,"only":3757,"Ġpost":3758,"ccessor":3759,"Ġschool":3760,"Ġturned":3761,"Ġhorizontal":3762,"ĠCAPS":3763,"Ġmatches":3764,"Ġgift":3765,"Ġguess":3766,"Ġselected":3767,"Recall":3768,"each":3769,"ules":3770,"Ġborder":3771,"uration":3772,"Ġforming":3773,"]);":3774,"Ġtoday":3775,"img":3776,"Image":3777,"571":3778,"Ġswaps":3779,"Ġtransactions":3780,"Ġserving":3781,"Ġ55":3782,"fected":3783,"ĠSystem":3784,"Ġelim":3785,"ruby":3786,"atin":3787,"Ġspecific":3788,"Ġdislikes":3789,"Pro":3790,"Ġ$-":3791,"Ġbigg":3792,"Ġsentence":3793,"Ġpuzzle":3794,"Ġremains":3795,"Ġminim":3796,"eterm":3797,"ĠDon":3798,"Ġduplicates":3799,"(),":3800,"Ġnothing":3801,"Ġrectangular":3802,"Ġdistances":3803,"Ġattack":3804,"Ġrecommended":3805,"Two":3806,"Ġfruit":3807,"ideos":3808,"Ġlog":3809,"requests":3810,"Ġmoment":3811,"ĠType":3812,"weets":3813,"rectangleQueries":3814,"dog":3815,"achine":3816,"oot":3817,"Ġgave":3818,"Ġ\"\"":3819,"Letters":3820,"nil":3821,"\\,":3822,"Ġloves":3823,"Ġxor":3824,"ĠOR":3825,"cor":3826,"width":3827,"ont":3828,"Ġconf":3829,"ĠDes":3830,"Ġrestaur":3831,"lass":3832,"ested":3833,"Ġiter":3834,"ken":3835,"Ġindexes":3836,"Ġlose":3837,"Ġenjoy":3838,"osh":3839,"umer":3840,"Ġsigned":3841,"size":3842,"ĠRuby":3843,"[]":3844,"Ġsqrt":3845,"Ġfifth":3846,"ĠReg":3847,"Formally":3848,"001":3849,"Ġpackages":3850,"Ġ101":3851,"this":3852,"Ġreplaced":3853,"Ġhappen":3854,"Assume":3855,"arest":3856,"Ġgenerated":3857,"data":3858,"Ġroads":3859,"speed":3860,"total":3861,"Ġgrade":3862,"uff":3863,"place":3864,"Ġarranged":3865,"olog":3866,"core":3867,"........":3868,"sp":3869,"Ġ..":3870,"Bill":3871,"Ġperforming":3872,"def":3873,"Math":3874,"world":3875,"Ġnecessary":3876,"tree":3877,"reverse":3878,"Ġnearest":3879,"JS":3880,"Ġindep":3881,"ron":3882,"ric":3883,"Ġhttps":3884,"Ġpicture":3885,"Ġpaid":3886,"acher":3887,"Ġpainted":3888,".*":3889,"Ġload":3890,"Ġdouble":3891,"Ġmill":3892,"Ġdisc":3893,"99999999":3894,"df":3895,"ev":3896,"Ġperformed":3897,"Ġsegments":3898,"00100":3899,"Ġdivision":3900,"hip":3901,"NA":3902,"quent":3903,"ĠmaxLetters":3904,"âĸ¡":3905,"500":3906,"back":3907,"how":3908,"lu":3909,"urther":3910,"portant":3911,"Code":3912,"How":3913,"sequence":3914,"atures":3915,"sensitive":3916,"Ġmaximize":3917,"road":3918,"ething":3919,"Ġproperties":3920,"Ġmem":3921,"Ġrotations":3922,"Ġmatter":3923,"Ġcomes":3924,"piece":3925,"ears":3926,"Ġproducts":3927,"Ġidea":3928,"Ġinfected":3929,"Ġsatisfying":3930,"nn":3931,"ĠTake":3932,"Hi":3933,"Ġstay":3934,"Ġcoe":3935,"Right":3936,"soci":3937,"Ġ:)":3938,"Ġconstant":3939,"itting":3940,"Child":3941,"Ġparenthes":3942,"Ġgirl":3943,"ape":3944,"ison":3945,"________":3946,"Ġ75":3947,"ĠâĢľ":3948,"}~":3949,"Ġmovement":3950,"ilt":3951,"contiguous":3952,"ĠCat":3953,"Ġreversed":3954,"ug":3955,"Ġlittle":3956,"alindrom":3957,"she":3958,"stand":3959,"ĠTr":3960,"Ġgames":3961,"html":3962,"Ġrequire":3963,"\\_":3964,"Ġreally":3965,"Ġanagram":3966,"Ġequivalent":3967,"Ġdrink":3968,"94":3969,"Add":3970,"CII":3971,"Ġtour":3972,"Int":3973,"sel":3974,"Ġhappy":3975,"`).":3976,"distinct":3977,"Ġsw":3978,"Ġstick":3979,"Ġloses":3980,"Ġshare":3981,"Ġ===":3982,"Ġfixed":3983,"({":3984,"Ġassoci":3985,"Ġfood":3986,"Ġeval":3987,"letter":3988,"Ġnet":3989,"Ġforget":3990,"FF":3991,"tan":3992,"Ġqual":3993,"hattan":3994,"Ġcorresponds":3995,"Ġplant":3996,"tem":3997,"Ġproduce":3998,"Ġarrangement":3999,"date":4000,"âĶ":4001,"else":4002,"Ġ$\\{":4003,"07":4004,"Can":4005,"weight":4006,"ience":4007,"imilar":4008,"ffect":4009,"Ġmodify":4010,".,":4011,"Ġbattle":4012,"286":4013,"Speed":4014,"ĠBasic":4015,"medi":4016,"Ġwhitespace":4017,"Ġsuff":4018,"Ġopposite":4019,"Ġproperty":4020,"Ġfibonacci":4021,"Ġbor":4022,"ĠTe":4023,"Ġplacing":4024,"grees":4025,"105105":4026,"96":4027,"Ġdrop":4028,"=>":4029,"nth":4030,"Ġpizza":4031,"See":4032,"ention":4033,"Ġperformance":4034,"ted":4035,"custom":4036,"8888":4037,"dom":4038,"ka":4039,"Ġcompleted":4040,"oper":4041,"ĠMax":4042,"Ġ[\"#\",\"":4043,"Double":4044,"alex":4045,"Ġself":4046,"gress":4047,"oving":4048,"Ġsorting":4049,"alculate":4050,"ĠJS":4051,"Ġspecified":4052,"Ġdestination":4053,"RR":4054,"Ġdegrees":4055,"ĠendTime":4056,"ision":4057,"ĠSome":4058,"51":4059,"Ġworks":4060,"Ġrecord":4061,"Ġhttp":4062,"46":4063,"velo":4064,"Ġ``":4065,"getBill":4066,"Simple":4067,"Ġinstance":4068,"Ġprices":4069,"cles":4070,"Ġready":4071,"oder":4072,"Ġsuccess":4073,"Ġneg":4074,"othing":4075,"Ġpalindrom":4076,"point":4077,"Ġlock":4078,"Ġ\\{":4079,"Ġstops":4080,"RE":4081,"Ġsit":4082,"Ġinheritance":4083,"ĠchildName":4084,"Ġinsert":4085,"Ġclean":4086,"ority":4087,"bf":4088,"Ġ615088":4089,"ference":4090,"Ġ615088286":4091,"Ġ{'":4092,"Ġtrailing":4093,"Ġzeroes":4094,"Ġcuts":4095,"Ġdoing":4096,"Ġfactors":4097,"Words":4098,"io":4099,"ribute":4100,"aniel":4101,"Ġsomething":4102,"Ġandy":4103,"Ġnewest":4104,"ĠSuccessor":4105,")=":4106,"Ġformula":4107,"Ġconve":4108,"Ġboys":4109,"ators":4110,"rior":4111,"positive":4112,"xyz":4113,"Ġentire":4114,"ra":4115,"Ġcle":4116,"ĠâĪ":4117,"men":4118,"ĠLuck":4119,"Ġeats":4120,"etermine":4121,"pass":4122,"Ġstrongest":4123,"]```":4124,"equ":4125,"Ġconver":4126,"Ġunderstand":4127,"0011":4128,"Ġconnects":4129,"72":4130,"sk":4131,"Ġmaking":4132,"Ġsheep":4133,"625":4134,"katas":4135,"Ġcat":4136,"()```":4137,"Ġduplicate":4138,"Ġguard":4139,"Ġterms":4140,"Ġ56":4141,"Ġadding":4142,"Ġcountry":4143,"Ġvertical":4144,"Ġinteresting":4145,"ife":4146,"getValue":4147,"Ġplane":4148,"fold":4149,"Ġfar":4150,"tained":4151,"Ġoutputs":4152,"Ġstock":4153,":*,":4154,"Ġblocked":4155,"net":4156,"Ġbag":4157,"agonal":4158,"Ġsal":4159,"Ġmaximal":4160,"Ġrestaurant":4161,"Ġprimes":4162,"Ġdepth":4163,"();":4164,"Ġsection":4165,"Ġbuilt":4166,"Ġreport":4167,"mathrm":4168,"uts":4169,"Ġwinning":4170,"Ġtransaction":4171,"04":4172,"And":4173,"rit":4174,"rone":4175,"Ġgiving":4176,"Ġteacher":4177,"Ġparticipants":4178,"jo":4179,"cret":4180,"allel":4181,"Ġbuilding":4182,"Ġdelta":4183,"Next":4184,"ister":4185,"ĠPick":4186,"Ġhandle":4187,"ĠLeft":4188,"$:":4189,"hor":4190,"ency":4191,"never":4192,"Ġtraversable":4193,"However":4194,"ĠPet":4195,"kv":4196,"ze":4197,"Ġscre":4198,"ĠEat":4199,"solution":4200,"Ġappend":4201,"Ġreached":4202,"mo":4203,"Ġimportant":4204,"Altern":4205,"Ġcertainty":4206,"erc":4207,"Ġdecreasing":4208,"Ġcounter":4209,"ĠCons":4210,"Ġchallenge":4211,"Swap":4212,"getProduct":4213,"Ġsufficient":4214,"Ġxj":4215,"Ġdecrease":4216,"Ġneighboring":4217,"Ġsticks":4218,"Java":4219,"^^":4220,"ssuer":4221,"ntax":4222,"Ġ43":4223,"Ġstreet":4224,"shouldBe":4225,"Per":4226,"inate":4227,"Ġskill":4228,"Ġxi":4229,"!)":4230,"pper":4231,"Returns":4232,"omet":4233,"ocs":4234,"Ġfactorial":4235,"Ġregardless":4236,"Ġdiagram":4237,"Ġskills":4238,"ĠRegular":4239,"Ġcommands":4240,"âī¦":4241,"Tr":4242,"ĠAss":4243,"Ġexpress":4244,"good":4245,"ÂłÂł":4246,"onepiece":4247,"#\",\"#\",\"#\",\"#\",\"":4248,"typei":4249,"und":4250,"ĠâĪĴ":4251,"Ġsuffix":4252,"Ġrad":4253,"version":4254,"Ġbreaks":4255,"view":4256,"\"])":4257,"ĠNot":4258,"olid":4259,"ĠPart":4260,"drink":4261,"mag":4262,"Ġlooking":4263,"83":4264,"Ġaw":4265,"remove":4266,"arth":4267,"Ġlove":4268,"ĠIncrement":4269,"Ġbegins":4270,"Ġcompletely":4271,"Ġ'-":4272,"Ġcalculated":4273,"abcdef":4274,"Ġmachine":4275,"matrix":4276,"Ġhill":4277,"inc":4278,"loaded":4279,"![":4280,"Ġeveryone":4281,"ĠExpression":4282,"onus":4283,"ump":4284,"after":4285,"Ġpolygon":4286,"52":4287,"cular":4288,"plex":4289,"Ġexit":4290,"nop":4291,"Ġmist":4292,"Ġfraction":4293,"ification":4294,"Ġmet":4295,"ĠAS":4296,"log":4297,"abcde":4298,"ĠAND":4299,"Ġpays":4300,"ĠRemove":4301,"directed":4302,"could":4303,"Ġspend":4304,"aves":4305,"Ġfloat":4306,"ubl":4307,"800":4308,"oe":4309,"ĠPro":4310,"cap":4311,"den":4312,"Ġgas":4313,"ĠBBB":4314,"Ġwatch":4315,"Ġmult":4316,"Choose":4317,"ĠĠĠĠĠĠĊ":4318,"eb":4319,"full":4320,"yi":4321,"--------------------------------":4322,".'":4323,"pattern":4324,"ys":4325,"owser":4326,"'`,":4327,"Ġcounted":4328,"Ġparallel":4329,"âĨ":4330,"Ġfunctions":4331,"itted":4332,"js":4333,"ks":4334,"Ġnor":4335,"diff":4336,"Ġseats":4337,"Tri":4338,"xj":4339,"Ġdimensions":4340,"urs":4341,"_***":4342,"Ġâīł":4343,"MM":4344,"Ġpot":4345,"Ġrolls":4346,"ĠĠĠĠĠĠĠĠĊ":4347,"Ġindependent":4348,"there":4349,"Ġpun":4350,"aaa":4351,"Ġinterested":4352,"Ġcovered":4353,"asya":4354,"Ġtrips":4355,"ashier":4356,"ijkl":4357,"456":4358,"Ġclothes":4359,"clare":4360,"Ġimage":4361,"Ġlocation":4362,"Python":4363,"cba":4364,"ief":4365,"ĠInteg":4366,"Ġlucky":4367,"ĠWhe":4368,"Ġquick":4369,"Ġdescending":4370,"Ġener":4371,"Ġclosed":4372,"78":4373,"node":4374,"Ġson":4375,"eded":4376,"Ġencrypt":4377,"reg":4378,"ute":4379,"Ġequation":4380,"Ġincrement":4381,"ĠAny":4382,"Ġcontinue":4383,"Ġmanhattan":4384,"Ġdirections":4385,"Ġ4000000":4386,"Ġjoin":4387,"bca":4388,"Ġbasic":4389,"Ġ72":4390,"Ġimmedi":4391,"hood":4392,"sets":4393,"Ġpas":4394,"Ġhit":4395,"Ġsecret":4396,"Ġreserved":4397,"ĠCode":4398,"Ġprinted":4399,"Ġbank":4400,"Ġstations":4401,"oday":4402,"ĠConstruct":4403,"multiply":4404,"73":4405,"Ġbob":4406,"TweetCounts":4407,"}}":4408,"ĠTwo":4409,",\"":4410,"ien":4411,"Ġstrength":4412,"Ġignore":4413,"ulation":4414,"ĠHis":4415,"Ġcombinations":4416,"Rem":4417,"Ġrequires":4418,"Ġdirected":4419,"isc":4420,"Sh":4421,"ecut":4422,"ement":4423,"uppose":4424,"Ġsets":4425,"ĠNode":4426,"ĠOb":4427,"came":4428,"Ġcents":4429,"Ġsomeone":4430,"Issuer":4431,"Ġsong":4432,"Ġ47":4433,"00000000":4434,"Ġstandard":4435,"Ġbeh":4436,"Ġ64":4437,"ano":4438,"Ġworry":4439,"Ġagainst":4440,"ULL":4441,"Ġmine":4442,"Ġyoung":4443,"Ġmeet":4444,"Ġtreat":4445,"position":4446,"High":4447,"Ġhowever":4448,"Ġheads":4449,"Ġundirected":4450,"irection":4451,"John":4452,"bac":4453,"herine":4454,"actly":4455,"Ġcompress":4456,"matthew":4457,"catherine":4458,"ĠSecond":4459,"InheritanceOrder":4460,"roneInheritance":4461,"Alex":4462,"ering":4463,"ĠHaskell":4464,"Ġ30000":4465,"ĠCol":4466,"Ġseparate":4467,"Ġshifts":4468,"abcabc":4469,"Ġfront":4470,"61":4471,"Ġtoi":4472,"olf":4473,"Ġgravel":4474,"ĠWhat":4475,"formula":4476,"light":4477,"Ġgap":4478,"ĠTest":4479,"Ġnotice":4480,"Ġsen":4481,"atched":4482,"1001":4483,"Ġnegatives":4484,"93":4485,"ĉĉ":4486,"initial":4487,"Ġeverything":4488,"+-":4489,"Ġ103":4490,"ipher":4491,"Ġevalu":4492,"Ġdry":4493,"-----+":4494,"last":4495,"yy":4496,"daniel":4497,"Ġlight":4498,"Ġenergy":4499,"BA":4500,"ear":4501,"ĠWorld":4502,"ew":4503,"1024":4504,"Ġscreen":4505,"Ġpush":4506,"Ġsoon":4507,"ormal":4508,"under":4509,"ikipedia":4510,"call":4511,"Ġintrodu":4512,"ational":4513,"Ġsumming":4514,"During":4515,"ault":4516,"Ġchocolate":4517,"Ġten":4518,"Ġcame":4519,"Ġtip":4520,"maximum":4521,"ber":4522,"power":4523,"Ġgrow":4524,"uppercase":4525,"ĠDescription":4526,"Ġbring":4527,"Ġshop":4528,"ĠWarm":4529,"lapping":4530,"Highly":4531,"px":4532,"Ġshape":4533,"docs":4534,"Ġrace":4535,"php":4536,"uplications":4537,"Points":4538,"fully":4539,"body":4540,"Ġpercent":4541,"Ġprogramming":4542,"hil":4543,"Ġ`$":4544,"gap":4545,"Ġdate":4546,"ÂłĠĠĠĠĠĠĠĠĠĠĠĠ":4547,"Ġthough":4548,"Ġshuff":4549,"skills":4550,"213":4551,"Ġbid":4552,"nas":4553,"Ġmember":4554,"Ġwond":4555,"Count":4556,"Ġbad":4557,"Ġexerc":4558,"Ġforms":4559,"mnop":4560,"ock":4561,"arre":4562,"Ġvote":4563,"ads":4564,"ilter":4565,"++++++++++++++++++++++++++++++++++++++++++++++++++++++++++++++++":4566,"Ġtournam":4567,"53":4568,"final":4569,"ten":4570,"Ġcomponent":4571,"ĠASCII":4572,"Cuts":4573,"omial":4574,"Ġ31":4575,"aged":4576,"((":4577,"ients":4578,"|$":4579,"Ġvector":4580,"Ġ--->":4581,"floor":4582,"But":4583,"target":4584,"Ġda":4585,"ctuation":4586,"Ġobjective":4587,"========":4588,"Ġbulbs":4589,"];":4590,"Ġbonus":4591,"Ġ([":4592,"Ġ\"\",":4593,"ĠAp":4594,"icken":4595,"Ġdeck":4596,"Ġdeath":4597,"tran":4598,"Ġwhy":4599,"Ġtook":4600,"NOTE":4601,"Ġcomplex":4602,"Ġsnake":4603,"Ġpurch":4604,"Ġtap":4605,"Ġmountain":4606,"ĠFormat":4607,"Ad":4608,"esome":4609,"Ġadds":4610,"Ġremainder":4611,"Ar":4612,"Take":4613,"nel":4614,"Ġeasily":4615,"Ġpixel":4616,")==":4617,"30000":4618,"ĠThese":4619,"problem":4620,"654321":4621,"imgur":4622,"req":4623,"ĠHow":4624,"Ġlevels":4625,"Ġrobots":4626,"Ġbooks":4627,"clockwise":4628,"ĠTV":4629,"Ġmatching":4630,"selves":4631,"ĠMaximum":4632,"LE":4633,"Ġbalanced":4634,"Ġoffice":4635,"05":4636,"mong":4637,"Ġvi":4638,"CC":4639,"History":4640,"owserHistory":4641,"\"]);":4642,"ĠGe":4643,"Ġlabels":4644,"Ġapplying":4645,"Ġengine":4646,"white":4647,"yor":4648,"oto":4649,"overlapping":4650,"Ġconveyor":4651,"leg":4652,"ĠTests":4653,"trong":4654,"pes":4655,"Ġelevator":4656,"ulia":4657,"ands":4658,"Ġgetting":4659,"TimeMap":4660,"Ġpressed":4661,"aff":4662,"go":4663,"}$,":4664,"ĠCase":4665,"ixed":4666,"Ġobstacle":4667,"Len":4668,"ength":4669,"ĠConstructor":4670,"ho":4671,"41":4672,"Ġ[\"/":4673,"Ġslice":4674,"Ġspread":4675,"defined":4676,"Â£":4677,"atter":4678,"Ġsymbols":4679,"ĠMr":4680,"Ġvariable":4681,"Ġspecif":4682,"Ġobstacles":4683,"US":4684,"ĠFibonacci":4685,"Ġlonger":4686,"Ġpunctuation":4687,"ĠExplanation":4688,"Ġcit":4689,"ĠarrLen":4690,"bda":4691,"['":4692,"cb":4693,"same":4694,"Ġfast":4695,"ĠstreamChecker":4696,"Ġplus":4697,"Ġbidirection":4698,"Even":4699,"mov":4700,"Ġthief":4701,"Reference":4702,"HP":4703,"Ġes":4704,"ĠLatin":4705,"getIssuer":4706,"Ġcalculates":4707,"issuer":4708,"ISA":4709,"manager":4710,"double":4711,"Ġbelt":4712,"400":4713,"bed":4714,"Ġtested":4715,"Ġmultiples":4716,"Ġgenerates":4717,"Ġinstructions":4718,"Ġmultis":4719,"ĠSort":4720,"roken":4721,"OS":4722,"Wel":4723,"gent":4724,"Ġthing":4725,"Ġdidn":4726,"---------------":4727,"Do":4728,"Ġrecently":4729,"Ġmap":4730,"Ġdoor":4731,"Ġmultiplication":4732,"ogn":4733,"Ġcontinues":4734,"wano":4735,"00101":4736,"Ġtriangles":4737,"95":4738,"ĠPHP":4739,"Ġ:-)":4740,"Ġfinished":4741,"Ġencoded":4742,"ĠConsider":4743,"Ġtiles":4744,"Ġtournament":4745,"vis":4746,"Ġ81":4747,"Ġmonths":4748,"]=[\"":4749,"troduction":4750,"super":4751,"Ġ38":4752,"Ġdecode":4753,"ĠcontainedBoxes":4754,"'`.":4755,"Ġ@":4756,"Ġvisited":4757,"more":4758,"uv":4759,"Ġclear":4760,"repe":4761,"Ġ110":4762,"Ġreason":4763,"Ġstri":4764,"Ġ46":4765,"Ġsafely":4766,"Ġever":4767,"riday":4768,"Ġdescribe":4769,"dimens":4770,"sq":4771,"ĠĠĠĠĠĠĠĠĠĠĠĠĠĠĠĠĠ":4772,"ĠĠĠĠĠĠĠĠĠĠĠĠĠĠĠĠĠĠ":4773,"Ġcreating":4774,"Ġow":4775,"divisible":4776,"Ġconverts":4777,"ja":4778,"Ġcoefficient":4779,"omen":4780,"Ġwrote":4781,"Ġladd":4782,"ĠĠĠĠĠĠĠĠĠĠĠĠĠĠĠĠĠĠĠ":4783,"Ġsubsequent":4784,"ĠâĢ¦":4785,"Ġminimize":4786,"oup":4787,"Ġ((":4788,"Ġhu":4789,"unc":4790,"ypher":4791,"Ġhats":4792,"ĠUse":4793,"Ġchoosing":4794,"Ġexecut":4795,"riend":4796,"Ġindexed":4797,"Ġ![":4798,"roll":4799,"--\"":4800,"Ġindicated":4801,"Ġheights":4802,"Ġstudy":4803,"Ġnil":4804,"Ġfalling":4805,"Ġpositives":4806,"Ġthemselves":4807,"Ġsubmiss":4808,"Ġnetwork":4809,"Ġtow":4810,"Ġstrate":4811,"Seats":4812,"Ġlitre":4813,"Alternating":4814,"011":4815,"Ġhex":4816,"peaks":4817,"Ġkill":4818,"ĠDo":4819,"Ġdescribes":4820,"AlternatingCase":4821,"ners":4822,"Ġfill":4823,"Ġui":4824,"ĠRick":4825,"Ġ1234567890":4826,"AL":4827,"new":4828,"Ġenem":4829,"ĠVal":4830,"ĠJavaScript":4831,"81":4832,"seven":4833,"Ġinvent":4834,"Ġmillim":4835,"pon":4836,"Ġparentheses":4837,"Ġ42":4838,"exactly":4839,"162":4840,"kk":4841,"mirror":4842,"rors":4843,"Ġmen":4844,"Ġder":4845,"Ġtrip":4846,"ĠPrint":4847,"Ġintegral":4848,"fficiency":4849,"Ġalphabetically":4850,"Ġawesome":4851,"My":4852,"Ġ`+":4853,"Ġarrives":4854,"Ġworkers":4855,"Ġbusy":4856,"triang":4857,"Ġsupport":4858,"nasm":4859,"dimensional":4860,"]],[":4861,"Ġsource":4862,"Ġface":4863,"Ġreq":4864,"actor":4865,"Ġsolving":4866,"[-":4867,"bine":4868,"elons":4869,"ĠGo":4870,"Ġmemory":4871,"Haskell":4872,"Ġfurther":4873,"Ġang":4874,"1200":4875,"Ġqueue":4876,"Initially":4877,"Ġchars":4878,"izarre":4879,"Ġbottle":4880,"Ġages":4881,"aul":4882,"_**,":4883,"Ġurgent":4884,"na":4885,"Ġ33":4886,"Ġsinger":4887,"ixir":4888,"Ġoccup":4889,"Ġ83":4890,"Ġ63":4891,"Ġcows":4892,"Task":4893,"test":4894,"ĠĠĠĠĠĊ":4895,"inner":4896,"Ġincreases":4897,"ĠUnfortunately":4898,"Ġstrategy":4899,"ickens":4900,"magnetic":4901,"ĠPl":4902,"AtStack":4903,"ler":4904,"pi":4905,"Ġquite":4906,"sold":4907,"tty":4908,"oned":4909,"111111111111":4910,"**:":4911,"iding":4912,"invert":4913,"Ġability":4914,"Ġacross":4915,"Ġtold":4916,"Ġseven":4917,"ipes":4918,"Ġdetails":4919,"lie":4920,"ection":4921,"Ġref":4922,"Ġformally":4923,"Ġbloomed":4924,"atherine":4925,"Ġinstruction":4926,"Ġcounterclockwise":4927,"oM":4928,"Ġcatherine":4929,"utomorphic":4930,"mation":4931,"Ġactions":4932,"Ġ65":4933,"Ġgram":4934,"Ġpassw":4935,"NULL":4936,"Ġtweet":4937,"Ġsend":4938,"Ġmil":4939,"ivid":4940,"Ġquant":4941,"Ġ180":4942,"Any":4943,"Ġcookie":4944,"177":4945,"Ġca":4946,"Ġvict":4947,"Ġtuple":4948,"rices":4949,"tains":4950,"Ġbought":4951,"Ġbuttons":4952,"Ġdecreases":4953,"idy":4954,"Ġjud":4955,"findDigit":4956,"TR":4957,"Ġmiles":4958,"three":4959,"10111":4960,"Ġobjects":4961,"ublic":4962,"Ġduration":4963,"Ġvideos":4964,"ved":4965,"ited":4966,"Ġgrand":4967,"prod":4968,"differ":4969,"Ġdue":4970,"Ġlost":4971,"********":4972,"Ġrearrange":4973,"`\"":4974,"Ġscript":4975,"Ġsigns":4976,"Ġwatched":4977,"amma":4978,"Ġ67":4979,"Frequency":4980,"Ġant":4981,"ordTweet":4982,"Ġ#=>":4983,"owercase":4984,"recordTweet":4985,"PerFrequency":4986,"TweetCountsPerFrequency":4987,"imak":4988,"Ġfinds":4989,"ĠLIS":4990,"Ġothers":4991,"soldiers":4992,"ĠDr":4993,"Alan":4994,"Ġaccount":4995,"Ġingredients":4996,"||":4997,"ĢâĶ":4998,"Ġearl":4999,"Ġnotes":5000,"Ġpretty":5001,"Ġdistribution":5002,"Ġangle":5003,"Ġpage":5004,"]$;":5005,"91":5006,"bu":5007,"Ġ1000000":5008,"BC":5009,"Ġmut":5010,"------":5011,"jumping":5012,"Ġcloned":5013,"`/`$":5014,"Ġindicating":5015,",...,":5016,"yellow":5017,"eric":5018,"comp":5019,"Ġpixels":5020,"98":5021,"hips":5022,"Therefore":5023,"Ġimmediately":5024,"Rob":5025,"second":5026,"ĠMove":5027,"ĠIntroduction":5028,"Player":5029,"Ġcoll":5030,"oops":5031,"correct":5032,"Function":5033,"Ġfoo":5034,"Ġlitres":5035,"Ġserver":5036,"Jack":5037,"olang":5038,"ĠInd":5039,"Ġrepeat":5040,"kaid":5041,"Ġscar":5042,"Ġendi":5043,"starti":5044,"kaido":5045,"Ġinsensitive":5046,"Ġneighborhood":5047,"Ġpalindromes":5048,"ĠĠĠĠĠĠĠĠĠĠĠĠĠĠĠĠĠĠĠĠĠĠĠĠĠĠĠĠĠĠĠĠĠĠĠĠĠĠĠĠĠ":5049,"Ġreference":5050,")`,":5051,"`;":5052,"based":5053,"Ġ123":5054,"282":5055,"Ġruns":5056,"Ġerrors":5057,"people":5058,"Ġdead":5059,"Remember":5060,"enn":5061,"see":5062,"ĠAdd":5063,"Ġordering":5064,"Ġindivid":5065,"Thus":5066,"Ġdiagonal":5067,"ought":5068,"atic":5069,"Ġdomin":5070,"---------":5071,"Ġ68":5072,"By":5073,"cpp":5074,"Ġseat":5075,"overed":5076,"]-":5077,"Ġcodes":5078,"Ġart":5079,"iled":5080,"Ġpassword":5081,"Ġsays":5082,"Ġpi":5083,"Ġexcluding":5084,"chn":5085,"Ġislands":5086,"Ġbidirectional":5087,"though":5088,"leslie":5089,"findElements":5090,"keyName":5091,"luis":5092,"Otherwise":5093,"Ġconsecutively":5094,"Ġterminal":5095,"lip":5096,"orter":5097,"Ġpossibly":5098,"ĠĠĠĠĠĠĠĠĠĠĠĠĠĠĠĠĠĠĠĠĠ":5099,"Ġfinding":5100,"grade":5101,"Ġflips":5102,"87654321":5103,"Ġactual":5104,"subrectangleQueries":5105,"ident":5106,"Ġanywhere":5107,"(['":5108,"ĠNotice":5109,"447":5110,"oki":5111,"alt":5112,"ube":5113,"Ġwealth":5114,"âĸ¡âĸ¡":5115,"Ġsubtract":5116,"swer":5117,"ĠGood":5118,"Ġforever":5119,"pecial":5120,"\"](":5121,"AM":5122,"Ġeast":5123,"Ġefficiency":5124,"Ġcontr":5125,"ney":5126,"Ġavoid":5127,"Ġprefer":5128,"ifying":5129,"Ġvarious":5130,"Ġdescribing":5131,"JavaScript":5132,"hot":5133,"Ġmind":5134,"Ġ400":5135,"ĠAd":5136,"ĠTaking":5137,"Ġpointer":5138,"toAlternatingCase":5139,"Ġdestroyed":5140,"OO":5141,"These":5142,"iche":5143,"Ġunlock":5144,"pha":5145,"010":5146,"ponent":5147,"Ġleaves":5148,"prime":5149,"abers":5150,"Ġobvious":5151,"anks":5152,"Ġsupports":5153,"sqrt":5154,"Ġnotation":5155,"startTime":5156,"Ġrelations":5157,"Ġcircular":5158,"Ġconcatenation":5159,"orityChecker":5160,"Ġowner":5161,"Part":5162,"uits":5163,"ĠĠĠĠĠĠĠĠĠĠĠĠĠĠĠĠĠĠĠĠĠĠĠ":5164,"ĠGr":5165,"Ġacid":5166,"Ġscarf":5167,"').":5168,"$\\":5169,"ishes":5170,"Ġnested":5171,"Ġmovements":5172,"ĠStay":5173,"999":5174,"Ġstronger":5175,"Ġextended":5176,"'->":5177,"GC":5178,"Ġ48":5179,"Ġdifficult":5180,"Ġanimals":5181,"Ġtie":5182,"Ġconson":5183,")*":5184,"sy":5185,"height":5186,"Ġhealth":5187,"Ġtuples":5188,"Ġquickly":5189,"sql":5190,"Ġnewly":5191,"62":5192,"0001":5193,"cedure":5194,"ĠDefinition":5195,"|.":5196,"Ġoffer":5197,"plicity":5198,"Ġrespective":5199,"db":5200,"iar":5201,"Ġreci":5202,"ĠEarth":5203,"grad":5204,"phabet":5205,"1234":5206,"equal":5207,"Ġrecipe":5208,"Ġexplain":5209,"Ġdefault":5210,"argin":5211,"Ġsle":5212,"Ġeg":5213,"Ġ'(":5214,"price":5215,"Ġreading":5216,"477":5217,"ER":5218,"|âĸłâĸł":5219,"ĠCent":5220,"pto":5221,"ground":5222,"ĠcardPoints":5223,"Ġliter":5224,"divide":5225,"Ġreduced":5226,"consist":5227,"part":5228,"ĠVasya":5229,"ym":5230,"Ġie":5231,"Ġeventually":5232,"denotes":5233,"flow":5234,"Ġnth":5235,"Ġiss":5236,"Ġrepeats":5237,"Ġopening":5238,"anies":5239,"Ġcompanies":5240,"Ġrandomly":5241,"cannot":5242,"ises":5243,"Ġ111":5244,"choose":5245,"Ġreads":5246,"pperCase":5247,"atz":5248,"Ġfall":5249,"Ġgamma":5250,"Ġver":5251,"Ġreturning":5252,"Ġprocedure":5253,"Ġcycle":5254,"Ġapproach":5255,"Ġcitiz":5256,"Ġpages":5257,"Ġassuming":5258,"Ġoriginally":5259,"Fin":5260,"eff":5261,"john":5262,"ĠRam":5263,"aim":5264,"ÂłĠĠĠĠĠĠĠĠĠĠĠĠĠĠĠĠĠĠĠĠĠĠĠĠĠĠĠĠĠĠĠĠĠĠĠĠĠĠĠĠĠ":5265,"Ġconverted":5266,"Ġinvented":5267,"Ġ76":5268,"straint":5269,"ĠRoad":5270,"Ġrecurs":5271,"Ġclosing":5272,"Where":5273,"ĠYES":5274,"xxxx":5275,"Ġpurpose":5276,"Ġprepared":5277,"hem":5278,"args":5279,"Ġgrumpy":5280,"\"`/`":5281,"nodes":5282,"Ġfrequency":5283,"Ġpad":5284,"Ġcomposed":5285,"180":5286,"Ġinterpre":5287,"Ġwalking":5288,"Ġmarked":5289,"squares":5290,"Ġ00":5291,"10100":5292,"Ġboards":5293,"100000":5294,"Ġevents":5295,"Ġenemy":5296,"ope":5297,"Ġattem":5298,"obtained":5299,"Ġrooms":5300,"Automorphic":5301,"reud":5302,"Ġmang":5303,"lement":5304,"Ġcopy":5305,"Ġ-->>":5306,"autoM":5307,"jumpingNumber":5308,"autoMorphic":5309,"Path":5310,"Ġfat":5311,"Ġchrom":5312,"ĠSee":5313,"Ġrod":5314,"secutive":5315,"Ġcontinuous":5316,"black":5317,"gan":5318,"erial":5319,"ĠCl":5320,"Ġcomputer":5321,"bdca":5322,"Ġcenter":5323,"Ġsimpl":5324,"Ġrecogn":5325,"Ġoccurrence":5326,"balanced":5327,"ĠRust":5328,"Ġshowing":5329,"Ġland":5330,"thur":5331,"Ġcounting":5332,"Ġbirthday":5333,"ĠPetya":5334,"wr":5335,"Ġfiles":5336,"Ġphoto":5337,"Ġchromos":5338,"anc":5339,"ĠDay":5340,"Ġmodified":5341,"print":5342,"Ġprepare":5343,"Ġmultiplying":5344,"Ġmaterial":5345,"ABC":5346,"veloper":5347,"every":5348,"atab":5349,"alance":5350,"Ġbrother":5351,"ramid":5352,"ris":5353,"Ġpasses":5354,"ĠinitialBoxes":5355,"Ġnumerical":5356,"vi":5357,"Ġleg":5358,"Ġkids":5359,"Ġpairwise":5360,"while":5361,"Happy":5362,"gree":5363,"Ġcompar":5364,"nother":5365,"tweetCounts":5366,"Ġexper":5367,"ĠFormally":5368,"Ġclockwise":5369,"Ġ94":5370,"353":5371,")[":5372,"List":5373,"Ġdam":5374,"fgh":5375,"ina":5376,"Don":5377,"upy":5378,"axis":5379,"Ġoccupy":5380,"357":5381,"parent":5382,"ĠChicken":5383,"Ġalternating":5384,"atabase":5385,"Enjoy":5386,"VISA":5387,"uth":5388,"Ġleap":5389,"uler":5390,"Ġmultiplied":5391,"returns":5392,"Ġdeleted":5393,"Second":5394,"Ġreduces":5395,"astercard":5396,"Ġlay":5397,"Ġpresented":5398,"nomial":5399,"void":5400,"Ġtax":5401,"Ġlife":5402,"?`":5403,"Ġcup":5404,"example":5405,"Ġchose":5406,"Suppose":5407,"cir":5408,"vals":5409,"ĠChoose":5410,"Ġvice":5411,"textbf":5412,"Ġsupposed":5413,"Ġsperm":5414,"Ġhost":5415,"2015":5416,"ĠArthur":5417,"ĠSkiplist":5418,"Ġmonot":5419,"Ġgenerator":5420,"ling":5421,"Ġliving":5422,"Ġdiag":5423,"Ġbiggest":5424,"what":5425,"Ġ],":5426,"Ġmention":5427,"Ġconstraint":5428,"Ġseen":5429,"Ġneither":5430,"GG":5431,"wxyz":5432,"acker":5433,"Ġbricks":5434,"Ġmath":5435,"Ġ58":5436,"Maximum":5437,"7000":5438,"lowercase":5439,"anch":5440,"Ġbeta":5441,"Ġpow":5442,"illa":5443,"aught":5444,"Ġlocal":5445,"say":5446,"Ġorgan":5447,"ollatz":5448,"igned":5449,"Ġpast":5450,"plitting":5451,"Ġspan":5452,"Ġremember":5453,"Ġhuge":5454,"ĠBill":5455,"())":5456,"Ġkingdom":5457,"ĠparentName":5458,"customStack":5459,"Is":5460,"Ġprogress":5461,"ĠĠĠĠĠĠĠĠĠĠĠĠĠĠĠĠĠĠĠĠĠĠĠĠĠĠ":5462,"Ġodds":5463,"Ġexercise":5464,"Fried":5465,"IM":5466,"Ġ231":5467,"11101":5468,"ĠGezan":5469,"Ġmillimeters":5470,"PP":5471,"cab":5472,"palindrome":5473,"ccc":5474,"Hence":5475,"Hint":5476,"Sm":5477,"Ġ....":5478,"iter":5479,"Ġhistory":5480,"Ġconversion":5481,"Ġcompet":5482,"AAAA":5483,"Ġuniverse":5484,"\\*":5485,"ĠMay":5486,"pped":5487,"Ġprobably":5488,"That":5489,"cale":5490,"Ġkinds":5491,"Ġkil":5492,"ension":5493,"Ġchallenges":5494,"Ġalternate":5495,"Ġenjoyed":5496,"essi":5497,"because":5498,"sorted":5499,"smallest":5500,"Ġladdus":5501,"cr":5502,"Ġcypher":5503,"icle":5504,"cell":5505,"Ġcalculation":5506,"Ġpossib":5507,"ipal":5508,"incipal":5509,"haskell":5510,"Ġoften":5511,"arble":5512,"Ġlies":5513,"Ġcompare":5514,"Ġwrong":5515,"Ġwind":5516,"Ġvaul":5517,"Ġ{\"":5518,"598":5519,"Ġvaulter":5520,"water":5521,"Ġsweets":5522,"Ġann":5523,"Ġalloc":5524,"Ġquality":5525,"ĠObject":5526,"Ġkid":5527,"Ġate":5528,"Ġrearranged":5529,"Ġtower":5530,"dep":5531,"dict":5532,"Ind":5533,"nec":5534,"avi":5535,"Ġfilled":5536,"Ġdenominations":5537,"02":5538,"job":5539,"ĠSimilar":5540,"jecture":5541,"Ġflipped":5542,"Ġcast":5543,"ana":5544,"Ġdy":5545,"Ġswitch":5546,"Ġcompressed":5547,"'d":5548,"avour":5549,".\",\".\",\".\",\"":5550,"Calling":5551,"YY":5552,"codes":5553,"elevator":5554,"Ġ_**":5555,"Ġtum":5556,"ĠHi":5557,"getInheritanceOrder":5558,"Ġmatthew":5559,"Jumping":5560,"Ġport":5561,"Ġ[(":5562,"xture":5563,"Ġfeed":5564,"iam":5565,"ĠWh":5566,"Ġ```[":5567,"roak":5568,"basic":5569,"clo":5570,"Ġfan":5571,"ashes":5572,"Ġsyntax":5573,"Ġperfectly":5574,"579":5575,"Ġflight":5576,"CO":5577,"md":5578,"Ġ\\}$":5579,"passed":5580,"Ġoh":5581,"Ġyet":5582,"ĠSm":5583,"ĠFrom":5584,"contains":5585,"Ġvacation":5586,"Rep":5587,"fd":5588,"Ġband":5589,"Ġadv":5590,"Ġrepeatedly":5591,"ĠSimilarly":5592,"Ġvot":5593,"Ġworth":5594,"Ġrepeating":5595,"aws":5596,"Ġstair":5597,"Ġarmy":5598,"Ġcool":5599,"ilities":5600,"criptions":5601,"Ġfloors":5602,"ĠQu":5603,"AND":5604,"Ġmathematical":5605,"}\\":5606,"Ġplants":5607,"Ġspots":5608,"ĠInitial":5609,"Ġdrive":5610,"ĠRemember":5611,"Ġmultiset":5612,"269":5613,"Ġdecides":5614,"Ġaction":5615,"Ġmatched":5616,"Ġchecks":5617,"74":5618,"vil":5619,"Ġsuit":5620,"Ġequally":5621,"Ġusers":5622,"Ġpeaks":5623,"Ġyellow":5624,"Ġtrave":5625,"ĠKids":5626,"Ġ127":5627,"5728":5628,"Follow":5629,"IT":5630,"cs":5631,"julia":5632,"inated":5633,"onic":5634,"Ġpa":5635,"ĠSp":5636,"ĠID":5637,"Ġactivity":5638,"Ġbigger":5639,"grader":5640,"mit":5641,"Ġtill":5642,"Ġtweets":5643,"iform":5644,"ceil":5645,"format":5646,"ryosh":5647,"aneous":5648,"564":5649,"consecutive":5650,"Ġdeliv":5651,"Ġpy":5652,"Ġ999999999":5653,"Ġgenerate":5654,"Ġfamil":5655,"Ġintersect":5656,"Char":5657,"Years":5658,"ĠBur":5659,"Ġjour":5660,"apor":5661,"Ġ89":5662,"Ġupto":5663,"Height":5664,"Ġingredient":5665,"rollMax":5666,")/":5667,"50000":5668,"Div":5669,"des":5670,"luck":5671,"Ġtravels":5672,"Ġskip":5673,"Ġattempt":5674,"Ġohms":5675,"Determine":5676,"peat":5677,"Ġ}`":5678,"zilla":5679,"103":5680,"apse":5681,"Ġcoming":5682,"class":5683,"Web":5684,"developer":5685,"Ġcollection":5686,"ĠTriple":5687,"mozilla":5688,"ball":5689,"itor":5690,"âĢ¢":5691,"ĠâĢĵ":5692,"Ġclose":5693,"Ġangles":5694,"irt":5695,"129":5696,"Ġzomb":5697,"fess":5698,"Ġfits":5699,"Ġmass":5700,"Ġelect":5701,"ĠSw":5702,"Ġpopular":5703,"Ġarriving":5704,"ĠNor":5705,"107":5706,"ĠChange":5707,"dge":5708,"ung":5709,"Ġir":5710,"Ġbeads":5711,"Ġaren":5712,"ĠPi":5713,"ildren":5714,"ĠTim":5715,"ĠTime":5716,"oof":5717,"([-":5718,"update":5719,"Ġactually":5720,"lin":5721,"ĠÂ£":5722,"ET":5723,"`),":5724,"âĪ":5725,"Ġ54":5726,"inked":5727,"'),":5728,"high":5729,"types":5730,"win":5731,"ining":5732,"Ġappeared":5733,"replace":5734,"Ġsubtask":5735,"71":5736,"UpperCase":5737,"}+":5738,"Ġ\"-":5739,"ryst":5740,"popAtStack":5741,"off":5742,"Ġclasses":5743,"Ġmovie":5744,"\"`/`\"":5745,"Repetition":5746,"Ġmis":5747,"Ġdecl":5748,"Ġdenoted":5749,"Ġbeauty":5750,"square":5751,"Ġsixth":5752,"$(":5753,"Only":5754,"Ġtells":5755,"Ġsurv":5756,"Ġenglish":5757,"uman":5758,"Ġneighbors":5759,"Ġgirls":5760,"Ġcolours":5761,"Ġborn":5762,"Data":5763,"Ġquad":5764,"Ġwanted":5765,"10101010":5766,"ĠNOT":5767,"KLD":5768,"aac":5769,"filter":5770,"kom":5771,"margin":5772,"random":5773,"yz":5774,"umps":5775,"uri":5776,"Ġtrack":5777,"Ġmatryosh":5778,"131":5779,"Adjacent":5780,"KLDF":5781,"UT":5782,"Ġpract":5783,"ĠOrder":5784,"Ġconsidering":5785,"Ġbeac":5786,"Ġsuper":5787,"assuming":5788,"Ġvacc":5789,"Pe":5790,"Ġcow":5791,"Ġweap":5792,"Ġunknown":5793,"Ġguards":5794,"ĠDiv":5795,"lob":5796,"Ġiteration":5797,"Numer":5798,"arium":5799,"mixture":5800,"MakeNegative":5801,"ĠWheel":5802,"Ġfish":5803,"Ġdut":5804,"Ġwhenever":5805,"ĠOleg":5806,"minimum":5807,".:":5808,"Ġtyp":5809,"ĠEven":5810,"Ġquantity":5811,"uss":5812,"Ġhimself":5813,"Ġmerch":5814,"aram":5815,"imedia":5816,"person":5817,"Ġautom":5818,"Ġwage":5819,"ĠPattern":5820,"ĠDist":5821,"Ġcompetition":5822,"Ġarrow":5823,"getTweetCountsPerFrequency":5824,"FindElements":5825,"aze":5826,"Ġpopulation":5827,"Ġshipped":5828,"'m":5829,"Ġincorrect":5830,"Ġstated":5831,"Ġtrunc":5832,"Ġgreeting":5833,"Ġparticipant":5834,"Cev":5835,"Moving":5836,"Ġchromosome":5837,"}_**":5838,"quare":5839,"Ġ**_{":5840,"Ġreachable":5841,"**_(":5842,"Ġrecorded":5843,"---------------+":5844,"|âĸłâĸł|âĸłâĸł":5845,"#,":5846,"bi":5847,"ense":5848,"Ġ06":5849,"Ġleaving":5850,"Ġsex":5851,"ichik":5852,"ĠChefland":5853,"folder":5854,"Ġmode":5855,"pload":5856,"user":5857,"++,":5858,"Ġflood":5859,"Ġshorten":5860,"Ġregister":5861,"itive":5862,"Ġweb":5863,"Ġboss":5864,"Ġeliminate":5865,"03":5866,"Ġill":5867,"alware":5868,"strong":5869,"ĠRob":5870,"LLO":5871,"Ġrelated":5872,"Te":5873,"Subrectangle":5874,"ĠAssume":5875,"updateSubrectangle":5876,"HH":5877,"acement":5878,"Ġsubsets":5879,"trans":5880,"Ġphr":5881,"Ġindividual":5882,"Ġvotes":5883,"into":5884,"Gre":5885,"Palindrome":5886,"Ġtowards":5887,"ĠRules":5888,"Ġanagrams":5889,"Ġjudge":5890,")\"]":5891,"Ġchance":5892,"ability":5893,"#\",\"#\"],":5894,"rito":5895,"ĠBurrito":5896,"Ġjourney":5897,"Ceviche":5898,"End":5899,"Snuke":5900,"Ġminus":5901,"ĠRes":5902,"}(":5903,"Ġshorter":5904,"ĠStart":5905,"Ġsubmissions":5906,"Ġinvolv":5907,"Ġearlier":5908,"6000":5909,"Ġdatabase":5910,"Ġeight":5911,"Ġpolynomial":5912,"+-+-":5913,"ennial":5914,"ĠCentennial":5915,"3000":5916,"pg":5917,"inform":5918,"Ġber":5919,"Ġpartitioning":5920,"Ġnormal":5921,"Ġdot":5922,"Ġlater":5923,"result":5924,"ĠMedian":5925,"area":5926,"Ġsurface":5927,"Ġsolved":5928,"Span":5929,"Ġusual":5930,"typescript":5931,"otlin":5932,"Ġstored":5933,"ĠĠĠĠĠĠĠĠĠĠĊ":5934,"ongest":5935,"Ġkeycard":5936,"Ġmaxima":5937,"Ġmathematics":5938,"ibrary":5939,"ĠHello":5940,"444":5941,"Ġeaten":5942,"Ġderived":5943,"Or":5944,"ned":5945,"len":5946,"leaf":5947,"usc":5948,"traction":5949,"Ġentries":5950,"Ġ2615088":5951,"]|.":5952,"lucky":5953,"Ġ2615088300":5954,"hi":5955,"Ġbomb":5956,"ĠReplace":5957,"don":5958,"abca":5959,"Ġalive":5960,"ĠInter":5961,"ĠJavascript":5962,"Ġwaterm":5963,"????":5964,"ĠInteger":5965,"Ġexplained":5966,"ailed":5967,"fc":5968,"Ġfut":5969,"steps":5970,"imeter":5971,"Ġ900":5972,"Ġ86":5973,"tock":5974,"ameters":5975,"Ġproperly":5976,"Positive":5977,"ucle":5978,"Ġbody":5979,"amation":5980,"clamation":5981,"Ġleftmost":5982,"browserHistory":5983,"!'":5984,"upload":5985,"Ġrent":5986,"swers":5987,"ĠKing":5988,"elsius":5989,"Ġassociated":5990,"ĠPalindrome":5991,"137":5992,"ramble":5993,"mmet":5994,"Ġpowers":5995,"Spanner":5996,"tockSpanner":5997,"ged":5998,"search":5999,"esting":6000,"Ġ'#":6001,"ĠLike":6002,"Ġwondering":6003,"JP":6004,"^-":6005,"dJP":6006,"Â²":6007,"Ġsave":6008,"Ġ\"(":6009,"ĠJack":6010,"ĠJosh":6011,"Ġ![!":6012,"mdX":6013,"base":6014,"Ġmong":6015,"Ġhello":6016,"Ġobs":6017,"Ġcomplexity":6018,"oon":6019,"Ġaffect":6020,"ĠAda":6021,"ĠNothing":6022,"00007":6023,"Ġblank":6024,"ĠValue":6025,"Ġsizes":6026,"Ġ'.'":6027,"oys":6028,"direction":6029,"AD":6030,"Ġcipher":6031,"Ġ51":6032,"Ġdiffers":6033,"Ġclar":6034,"Testcase":6035,"Ġentered":6036,"Ġlogical":6037,"]],[[":6038,"Ġtou":6039,"Ġseem":6040,"Ġstatements":6041,"6006":6042,"Ġsongs":6043,"Ġfuture":6044,"amount":6045,"step":6046,"7777":6047,"Car":6048,"skiplist":6049,"Ġcakes":6050,"Ġalphabets":6051,"Ġdiscovered":6052,"Ġsleep":6053,"fo":6054,"Ġcine":6055,"Ġcounts":6056,"aries":6057,"Ġeffect":6058,"ĠEl":6059,"ĠState":6060,"Des":6061,"Ġsolid":6062,"Ġbored":6063,"Ġgain":6064,"ĠSte":6065,"678":6066,"Ġfewest":6067,"curity":6068,"Ġmentioned":6069,"4000":6070,"oman":6071,"Ġglass":6072,"ĠFr":6073,"Ġapplied":6074,"headID":6075,"informTime":6076,"reloaded":6077,"ese":6078,"Ġmarble":6079,"Ġsuppose":6080,"Ġwish":6081,"ennec":6082,"abbit":6083,"Ġjumping":6084,"Ġ'-',":6085,"Ġduty":6086,"opt":6087,"Ġmalware":6088,"Ġ3131":6089,"Ġ136006":6090,"Ġforest":6091,"Ġdiagaram":6092,"Ġ136006598":6093,"'])":6094,"Ġmuse":6095,"Ġearn":6096,"store":6097,"they":6098,"Ġsnakes":6099,"Ġmuseum":6100,"rust":6101,"uy":6102,"Ġaxes":6103,"Ġce":6104,"Ġip":6105,"Ġplate":6106,"ĠWikipedia":6107,"Ġyourself":6108,"ĠĠĠĠĠĠĠĠĠĠĠĠĠĠĠĠĠĠĠĠĠĠĠĠĠ":6109,"Ġbuses":6110,"Ġlinear":6111,"Ġabs":6112,")]":6113,"larg":6114,"sided":6115,"also":6116,"Ġhall":6117,"outh":6118,"Ġassignment":6119,"ĠPositive":6120,"Ġuniversal":6121,"Ġsituation":6122,"Ġcontrol":6123,",'":6124,"06":6125,"istic":6126,"Ġ97":6127,"ĠEn":6128,"570":6129,"Prob":6130,"Ġcorrectly":6131,"Ġideas":6132,".**":6133,"RG":6134,"onents":6135,"Ġsecurity":6136,"#####":6137,"Ġxy":6138,"Ġrupe":6139,"oured":6140,"Ġ[],":6141,"Ġforg":6142,"Ġfruits":6143,"128":6144,"coordin":6145,"Ġconstructed":6146,"names":6147,"Ġbalance":6148,"Ġra":6149,"Ġinsp":6150,"Leet":6151,"Today":6152,"Ġfire":6153,"Ġ74":6154,"Ġoperators":6155,"ĠOver":6156,"Ġmanner":6157,"Ġformatted":6158,"ĠZS":6159,"Ġfolders":6160,"prev":6161,"Repeat":6162,"Ġradius":6163,"Ġkit":6164,"Ġexplanation":6165,"poly":6166,"ĠUsing":6167,"Ġmaximally":6168,"Ġwarrior":6169,"ĠBecause":6170,"compare":6171,"cashier":6172,"Ġpan":6173,"Ġrate":6174,"Ġexpect":6175,"ĠOf":6176,"Ġreverses":6177,"ĠOnce":6178,"Ġdenominator":6179,"Ends":6180,"mic":6181,"They":6182,"Ġrather":6183,"ades":6184,"ĠIs":6185,"Ġdimension":6186,"Ġtag":6187,"react":6188,"ury":6189,"artment":6190,"Ġincludes":6191,"Ġpackage":6192,"Ġcinema":6193,"otot":6194,"Ġ\"()":6195,"quad":6196,"oop":6197,"except":6198,"wikimedia":6199,"Ġdefe":6200,"commons":6201,"Ġevaluate":6202,"Friday":6203,"Kok":6204,"Road":6205,"best":6206,"ĠLine":6207,"Ġimpress":6208,"163":6209,"acketed":6210,"Ġstands":6211,"bracketed":6212,"Ġbookstore":6213,"center":6214,"consists":6215,"Koko":6216,"Ada":6217,"Use":6218,"pairs":6219,"Ġ).":6220,"Ġmaj":6221,"Ġoverflow":6222,"uce":6223,"ĉĉĊ":6224,"rystal":6225,"ĠâĢĺ":6226,"ĠĠĠĠĠĠĠĠĠĠĠĠĠĠĠĠĠĠĠĠĠĠĠĠĠĠĠĠĠĠĠĠĠĠĠĠĠĠĠĠĠĠĠĠĠĠĠĠĠĠĠĠĠĠĠ":6227,"Ġcrossroad":6228,"Ġdies":6229,"Ġlegs":6230,"Ġdriver":6231,"Ġtechn":6232,"ĠAlan":6233,"Ġwatermelons":6234,"lee":6235,"endi":6236,",âĢ¦":6237,"=\"":6238,"Def":6239,"Ruby":6240,"Ġtail":6241,"Ġbroken":6242,"uni":6243,"Ġmoved":6244,"Valid":6245,"Assuming":6246,"Ġalphabetical":6247,"Ġconsonants":6248,"?\",":6249,"do":6250,"duplications":6251,"eled":6252,"Ġtern":6253,"lets":6254,"Ġcandid":6255,"âīº":6256,"ĢâĶĢâĶ":6257,"Ġternary":6258,"Ġmole":6259,"ĠFortran":6260,"Ġrightmost":6261,"Ġfeet":6262,"Ġ2500":6263,"Ġpassenger":6264,"Ġintersection":6265,"Ġdynam":6266,":`":6267,"?\"":6268,"Bl":6269,"Ġchessboard":6270,"bbbb":6271,"distance":6272,"Ġrequirements":6273,"big":6274,"Ġ:-----":6275,"Ġgifts":6276,"1011":6277,"ĠCheck":6278,"Ġpassing":6279,"Ġbug":6280,"Ġentry":6281,"Ġengineer":6282,"cest":6283,"ffees":6284,"uvwxyz":6285,"Balanced":6286,"ĠAb":6287,"lym":6288,"ĠOlym":6289,"Ġcomponents":6290,"333":6291,"Ġerase":6292,"reactjs":6293,"file":6294,"lope":6295,"needed":6296,"Ġindicates":6297,"Numerical":6298,"'].":6299,")*(":6300,"page":6301,"Ġdefinition":6302,"Ġedi":6303,"eef":6304,"Ġprovide":6305,"Ġfilter":6306,"Ġholds":6307,"curren":6308,"Ġom":6309,"igue":6310,"Ġstarti":6311,"':'":6312,"Ġencoding":6313,"Sizes":6314,"change":6315,"Ġdetermines":6316,"Ġtraveled":6317,"Water":6318,"ĠEdge":6319,"ridge":6320,"interpre":6321,"Ġeggs":6322,"rank":6323,"ety":6324,"---|":6325,"82":6326,"IP":6327,"Ġhappens":6328,"lobal":6329,"FE":6330,"Increment":6331,")`.":6332,"chef":6333,"Ġperforms":6334,"Plates":6335,"Alarm":6336,"whose":6337,"Subarray":6338,"Ġmistakes":6339,"Ġdaily":6340,"innerPlates":6341,"astya":6342,"top":6343,"poses":6344,"ĠtreeNode":6345,"bra":6346,"Decreasing":6347,"ĠreservedSeats":6348,"Move":6349,"chen":6350,"ĠCO":6351,"riors":6352,"Ġurl":6353,"Ġoccupied":6354,"Ġkitchen":6355,"Another":6356,"UR":6357,"hib":6358,"185":6359,"ĠĠĠĠĠĠĠĊ":6360,"Ġ`[]`":6361,"walk":6362,"Inter":6363,"ĠAoki":6364,"Ġunlucky":6365,"otherwise":6366,"dious":6367,"TheRoad":6368,"Ġprojects":6369,"ĠBalanced":6370,"ĠFreud":6371,"maxNumber":6372,"overTheRoad":6373,"ĠdesiredHeight":6374,"ĠBefore":6375,"hotpo":6376,"Ġmangoes":6377,"aporator":6378,"adjacent":6379,"Left":6380,"Mirror":6381,"itle":6382,"starting":6383,"Ġwelcome":6384,"Ġserve":6385,"Ġonto":6386,"Ġsubtree":6387,"Ġduplications":6388,"Ġconfig":6389,"Person":6390,"}`.":6391,"Ġancest":6392,"rror":6393,"Ġinspired":6394,"map":6395,"tidy":6396,"Ġbmi":6397,"arithmetic":6398,"Ġly":6399,"ĠStrong":6400,"Ġsoft":6401,"Ġrecipes":6402,"Ġfigures":6403,"Ġlearned":6404,"iscover":6405,"tidyNumber":6406,"\\}$":6407,"rel":6408,"Ġmid":6409,"children":6410,"Ġ84":6411,"ĠDNA":6412,"-------------+":6413,"244":6414,"box":6415,"Ġpyramid":6416,"ii":6417,"Ġfine":6418,"ifications":6419,")_":6420,"987":6421,"just":6422,"-->":6423,"Ġencounter":6424,"ĠRemote":6425,"olish":6426,"Ġ73":6427,"Ġsatisfaction":6428,"Ġexpressed":6429,"Videos":6430,"Ġ_{":6431,"Ġpet":6432,"Ġmirror":6433,"que":6434,"ceed":6435,"Ġratings":6436,"Ġbarcodes":6437,"ĠPartridge":6438,"Ġfatigue":6439,"!\")":6440,")^":6441,"SI":6442,"Ġocurren":6443,"Ġsun":6444,"Ġtrick":6445,"Ġcomb":6446,"underline":6447,"Ġocurrences":6448,"]),":6449,"Ġwide":6450,"ĠSc":6451,"Ġpersons":6452,"Ġcomma":6453,"Ġfewer":6454,"young":6455,"factor":6456,"Ġconjecture":6457,"^{-":6458,"Ġcuboid":6459,"+---------------+":6460,"Both":6461,"Mastercard":6462,"_:":6463,"fb":6464,"Ġsweet":6465,"ÂłÂłĊ":6466,"Ġ```\"":6467,"Unknown":6468,"piad":6469,"Divis":6470,"ĠOlympiad":6471,"+---------------+-------------+":6472,"Ġai":6473,"Ġdots":6474,"ĠSuch":6475,"ĠJust":6476,"gment":6477,"ĠBl":6478,"extr":6479,"----------":6480,"Ġcircles":6481,"pow":6482,"Ġaward":6483,"Ġ':":6484,"emale":6485,"Ġspot":6486,"Ġspent":6487,"agine":6488,"Ġwashing":6489,"represents":6490,"Digital":6491,"Ġmilk":6492,"ffeescript":6493,"TM":6494,"fl":6495,"Ġdescriptions":6496,"Ġachieved":6497,"Ġmeaning":6498,"Ġconstructor":6499,"5000":6500,"811":6501,"days":6502,"Ġalex":6503,"Ġintern":6504,"ulations":6505,"abs":6506,"Ġ[\"#\",\"#\",\"#\",\"#\",\"":6507,"~~~~":6508,".\",\"#\"],":6509,"ThroneInheritance":6510,"ĠThroneInheritance":6511,"Ġroadwork":6512,"ĠkingName":6513,"|,|":6514,"Problem":6515,"MJ":6516,"cimal":6517,"fuck":6518,"{\"":6519,"ĠĠĠĠĠĠĠĠĠĠĠĠĠĠĠĠĠĠĠĠĠĠĠĠĠĠĠ":6520,"Ġmerge":6521,"/\"":6522,"797":6523,"Our":6524,"Ġ41":6525,"Ġweighted":6526,"izontal":6527,"rounded":6528,"Ġpreferred":6529,"Ġfromi":6530,"Ġ::":6531,"Ġliters":6532,"fromi":6533,"Ġintroduced":6534,"Ġdelivery":6535,"/)":6536,"World":6537,"Ġreduce":6538,"Ġancestor":6539,"city":6540,"ĠAmong":6541,"Ġalert":6542,"Ġimg":6543,"maxProduct":6544,"Ġtreated":6545,"Ġpainting":6546,"Ġ({-":6547,"Ġtraining":6548,"Ġexpressions":6549,"year":6550,"Ġbur":6551,"Ġprim":6552,"Ġcreatures":6553,"depending":6554,"Ġholid":6555,"Peak":6556,"Sy":6557,"Ġlive":6558,"Ġcontests":6559,"Store":6560,"Ġsomet":6561,"Cor":6562,"arrior":6563,"ifiers":6564,"their":6565,"Without":6566,"Ġautomat":6567,"780":6568,"split":6569,"Ġconven":6570,"Ġarrows":6571,"ĠTozan":6572,"ĠâĪĻ":6573,"Ġstrip":6574,"MJt":6575,"favor":6576,"Ġfoot":6577,"icates":6578,"Ġexhib":6579,"ician":6580,"Ġcurious":6581,"Welcome":6582,"favorite":6583,"binary":6584,"erg":6585,"ĠrightChild":6586,"Ġwalks":6587,"8685":6588,"Will":6589,"bers":6590,"miss":6591,"ustr":6592,"xim":6593,"lling":6594,"Ġrestr":6595,"oosing":6596,"Ġscored":6597,"Ġmagic":6598,"Ġmission":6599,"Unfortunately":6600,"Ai":6601,"hh":6602,"}([":6603,"ork":6604,"Ġgal":6605,"Ġ87":6606,"Ġcalculating":6607,"Ġasking":6608,"Ġputs":6609,"Ġparticipating":6610,"Ġ-------":6611,"Ġhappened":6612,"ĠStockSpanner":6613,"ĠLimak":6614,"201":6615,"aabb":6616,"Ġbillboard":6617,"Ġsoup":6618,"Ġburn":6619,"Ġcham":6620,"aval":6621,"qrst":6622,"2000":6623,"ascending":6624,"Ġrounding":6625,"ributing":6626,"Ġcollecting":6627,")-":6628,"used":6629,"appe":6630,"Ġrock":6631,"ĠPolycarpus":6632,"711":6633,"Dis":6634,"Tie":6635,"Ġkee":6636,"ababc":6637,"Ġpredict":6638,"Ġsymmet":6639,"ald":6640,"stones":6641,"ĠSample":6642,"Ġshoot":6643,"anger":6644,"los":6645,"Other":6646,"ups":6647,"Ġsimplified":6648,"Error":6649,"initially":6650,"aroo":6651,"ival":6652,"Ġkang":6653,"Ġcreates":6654,"undant":6655,"Ġspecifically":6656,"Ġphrase":6657,"che":6658,"plies":6659,"obody":6660,"5732":6661,"Ġmonotone":6662,"Global":6663,"ai":6664,"Ġefficient":6665,"Ġ59":6666,"ipuri":6667,"Ġlexicographical":6668,"Objects":6669,"Ġsalary":6670,"Ġmistake":6671,"Triang":6672,"Ġquadr":6673,",\\,":6674,"En":6675,"Nothing":6676,"Ġ4000":6677,"Ġrain":6678,"comes":6679,"Ġdifferences":6680,"Ġworm":6681,"ereja":6682,"Ġincreased":6683,"123456":6684,"Ġsubtasks":6685,"rew":6686,"ĠMin":6687,"Ġknights":6688,"ferences":6689,"cer":6690,"Ġpres":6691,"ĠMort":6692,"beg":6693,"Ġcareful":6694,"Ġ123456789012345":6695,"Ġwindow":6696,"Ġfamiliar":6697,"ED":6698,"iger":6699,"ĠMessi":6700,"ĠUs":6701,"Alphabet":6702,"Ġfavorites":6703,"Level":6704,"*\"":6705,":__":6706,"ural":6707,"Ġbecame":6708,"site":6709,"Ġsheet":6710,"Ġvisits":6711,"blue":6712,"sheep":6713,"ĠĠÂł":6714,"izing":6715,"uckoo":6716,"hand":6717,"range":6718,"rows":6719,"stead":6720,"ĠBy":6721,"Ġcomment":6722,"Ġversa":6723,"She":6724,"Ġexclamation":6725,"5555":6726,"Ġpercentage":6727,"visit":6728,"ĠInitializes":6729,"Ġkangaroo":6730,"Special":6731,"cing":6732,"ga":6733,"}$)":6734,"amer":6735,"ĠToday":6736,"ĠMary":6737,"ĠLength":6738,"Ġoptional":6739,"Ġdropped":6740,"Ġsometimes":6741,"AG":6742,"Par":6743,"QA":6744,"Ġclock":6745,"Ġweighti":6746,"Ġregion":6747,"ĠSequence":6748,"UN":6749,"Using":6750,"Ġair":6751,"Ġanal":6752,"ifier":6753,"ĠAM":6754,"ĠGre":6755,"Ġaccess":6756,"ributes":6757,"Ġpreviously":6758,"ĠRemoving":6759,"Ġfrequ":6760,"always":6761,"Ġgun":6762,"Ġgone":6763,"Ġlisted":6764,"Ġ1234":6765,"ightsabers":6766,"Ġbullets":6767,"Table":6768,"Ġtired":6769,"Ġ`,":6770,"Ġboat":6771,"ĠFix":6772,"erman":6773,"Ġguid":6774,"]$[":6775,"Ġdeletion":6776,"ĠSubstring":6777,"Partial":6778,"free":6779,"erge":6780,"ĠtoL":6781,"_____":6782,"Ġclaim":6783,"Ġcontent":6784,"!'.":6785,"paper":6786,"Ġaut":6787,"Ġcatch":6788,"iring":6789,"Ġ01":6790,"ultaneous":6791,"Ġouter":6792,"Ġsimultaneous":6793,"10987654321":6794,"undred":6795,"Ġsimultaneously":6796,",[":6797,"Round":6798,"Ġfarm":6799,"Ġ250":6800,"Ġ88":6801,"Ġappre":6802,"Ġpreloaded":6803,"\\\\\\":6804,"vu":6805,"Ġ###":6806,"Ġfather":6807,"Ġhits":6808,"Ġchamp":6809,"Ġ78":6810,"Ġbusiness":6811,"Answers":6812,"LR":6813,"Length":6814,"bonacci":6815,"reed":6816,"Ġsor":6817,"Ġcou":6818,"Ġstates":6819,"Stay":6820,"ESS":6821,"concat":6822,"dogs":6823,"AR":6824,"Ġ-----":6825,"Ġsplitting":6826,"utch":6827,"arly":6828,"Ġdeal":6829,"forward":6830,"([])":6831,"Ġens":6832,"Ġcitizens":6833,"Ġpus":6834,"Ġstairs":6835,"2019":6836,"^(-":6837,".\",\".\",\".\",\".\",\"":6838,"divisors":6839,"small":6840,"ASM":6841,"HELLO":6842,"ĠCoder":6843,"777":6844,"ĠIntegers":6845,"SA":6846,"Ġpython":6847,"Ġ222":6848,"Ġthought":6849,"ĠRed":6850,"ova":6851,")$(":6852,"ponential":6853,"lined":6854,"method":6855,"sor":6856,"Ġfaster":6857,"Ġbills":6858,"Prime":6859,"Ġplanning":6860,"levant":6861,"close":6862,"611":6863,"Beef":6864,"isPalindrome":6865,"Ġinner":6866,"color":6867,"matrices":6868,"Ġranking":6869,"Ġthinks":6870,"scramble":6871,"Arithmetic":6872,"Smallest":6873,"Ġmatryoshka":6874,"Ġpanipuri":6875,"fam":6876,"lection":6877,"ĠHo":6878,"187":6879,"Ġencrypted":6880,"250":6881,"moves":6882,"Ġ\"{":6883,"Ġ52":6884,"abba":6885,"maxim":6886,"PI":6887,"Rick":6888,"ĠChem":6889,"arsh":6890,"Ġevenly":6891,"Once":6892,"Ġextension":6893,"Oh":6894,"Ġaver":6895,"onds":6896,"5733":6897,")$;":6898,"Ġtickets":6899,"$);":6900,"Say":6901,"Ġfail":6902,"Define":6903,"isk":6904,"Except":6905,"Ġstage":6906,"Ġke":6907,"ĠBer":6908,"ĠDuring":6909,"231":6910,"Ġ144":6911,"Ġbuying":6912,"Ġcapitalization":6913,"aeb":6914,"487":6915,"ea":6916,"elements":6917,"Ġfountain":6918,"stract":6919,"ĠSoflo":6920,"8954":6921,"Polycarp":6922,"Ġneighborhoods":6923,"ĠMorty":6924,"ĠChemical":6925,"oring":6926,"Ġmale":6927,"Ġlie":6928,"ĠSwap":6929,"Ġsimplicity":6930,"path":6931,"Ġcamer":6932,"Ġdashes":6933,"Ġgoals":6934,"ĠĠĠĠĠĠĠĠĠĠĠĠĠĠĠĠĠĠĠĠ":6935,"ultiple":6936,"Ġest":6937,"Ġbark":6938,"Ġliqu":6939,"Ġpoison":6940,"ential":6941,"ĠMouse":6942,"ĠHero":6943,"minute":6944,"cfml":6945,"âĨĳ":6946,"Ġautomatically":6947,"tu":6948,"Ġ***":6949,"Ġdevelo":6950,"ĠMy":6951,"222":6952,">=":6953,"allon":6954,"Ġtram":6955,"Ġdev":6956,"ĠEvil":6957,"ĠPIN":6958,"5720":6959,"plaination":6960,"Ġsalo":6961,"ĠÎ":6962,"Ġleaf":6963,"undefined":6964,"Ġheard":6965,"ificant":6966,"Possible":6967,"ĠDelete":6968,"Ġpen":6969,"Explaination":6970,"loor":6971,"238":6972,"Ġranked":6973,"Ġinterpreter":6974,"Ġguidel":6975,"hicle":6976,"ising":6977,"Ġfancy":6978,"System":6979,"dce":6980,"series":6981,"wolf":6982,"Ġ140":6983,"Ġ[{":6984,"Ġpolice":6985,"Ġvill":6986,"ptr":6987,"ondition":6988,"Ġcolored":6989,"arks":6990,"ledge":6991,"Ġinstances":6992,"ĠSelect":6993,"Ġvictory":6994,"ĠLikewise":6995,"bing":6996,"eal":6997,"fib":6998,"Ġfing":6999,"Ġpure":7000,"Ġlibrary":7001,"iders":7002,"ĠSpec":7003,"Ġ167":7004,")=(":7005,"ĠSorting":7006,"Ġholiday":7007,"Ġaverages":7008,"cher":7009,"Ġlik":7010,"Ġfinite":7011,"Ġprogrammer":7012,"Ġreplaces":7013,"Ġlabeled":7014,"Ġpossibilities":7015,"557":7016,"CD":7017,"ĠPress":7018,"ession":7019,"Ġpurposes":7020,"zech":7021,"begin":7022,"OL":7023,"aef":7024,"cum":7025,"linked":7026,"enough":7027,"Ġ(?":7028,"ĠScore":7029,".....":7030,"abcc":7031,"5730":7032,"5722":7033,"5721":7034,"ĠUnlock":7035,"81185":7036,"$=":7037,"ui":7038,"vent":7039,"ĠPreloaded":7040,"Ġclick":7041,"sorting":7042,"Ġsweetness":7043,"Si":7044,"inue":7045,"Ġju":7046,"ĠKn":7047,"eeing":7048,"Ġimpr":7049,"Ġmagical":7050,"Ġseparating":7051,"ajorityChecker":7052,"++++++++++++++++++++++++++++++++++++++++++++++++++++++++++++++++++++++++++++++++++++++++++++++++":7053,"aabc":7054,"similar":7055,"item":7056,"among":7057,"Ġstays":7058,"000000":7059,"ĠHer":7060,"Ġduplicated":7061,"ING":7062,"Ġwarriors":7063,"Ġapproxim":7064,"Ġposts":7065,"Trans":7066,"pen":7067,"Ġâĸ":7068,"Ġboun":7069,"aye":7070,"Ġshall":7071,"Ġjew":7072,"Ġresist":7073,"Ġ:=":7074,"Ġpicked":7075,"Ġflipping":7076,"ometimes":7077,"Ġpractice":7078,"ued":7079,"itches":7080,"Ġkeyword":7081,"Ġuseful":7082,"Ġbuck":7083,"Ġfrogs":7084,"ĠTriplet":7085,"Triplet":7086,"Finally":7087,"ĠTriplets":7088,"Ġappreci":7089,"Boolean":7090,"Bizarre":7091,"bizarre":7092,"crypt":7093,"Ġslow":7094,"Ġbors":7095,"Exam":7096,"Ġhash":7097,"ccording":7098,"Ġprec":7099,"numeric":7100,"ToNumber":7101,"locity":7102,"Ġvelocity":7103,"ĠDistributing":7104,"Ġborsch":7105,"\"```":7106,"}]":7107,"anagram":7108,"Ġ\",":7109,"ĠĠĠĠĠĠĠĠĠĊ":7110,"actors":7111,"setAlarm":7112,"bcbc":7113,"ections":7114,"mang":7115,"Ġsch":7116,"Ġbow":7117,"alter":7118,"olars":7119,"Ġ')":7120,"Ġroots":7121,"169":7122,"Ġtemple":7123,"Ġscholars":7124,"aA":7125,"iest":7126,"your":7127,"het":7128,"Ġlayer":7129,"Their":7130,"Ġplans":7131,"cribed":7132,"Ġmeas":7133,"phan":7134,"Recently":7135,"Ġbelongs":7136,"Ġcause":7137,"Score":7138,"Ġbear":7139,"Ġ108":7140,"Ġmolec":7141,"Bien":7142,"Boys":7143,"Calculate":7144,"Dr":7145,"SKLDF":7146,"mater":7147,"nba":7148,"nijkl":7149,"erve":7150,"answer":7151,"Ġbumps":7152,"Ġdates":7153,"igator":7154,"ulator":7155,"nefgh":7156,"ĠOdious":7157,"Ġworms":7158,"ĠSoint":7159,"upSpeed":7160,":**,":7161,"Ġbanjo":7162,"Ġwidths":7163,"@@@@":7164,"nthSmallest":7165,"umanYears":7166,"extrap":7167,"Bienven":7168,"SKLDFJS":7169,"material":7170,"/'":7171,"=\\":7172,"acy":7173,"ĠSquare":7174,"]])":7175,"Ġgraphs":7176,"Ġgeneral":7177,"bx":7178,"cal":7179,"Ġice":7180,"Ġfac":7181,"edish":7182,"0010":7183,"Ġtesting":7184,"Ġ999":7185,"shift":7186,"Ġdepends":7187,"Ġverify":7188,"ergey":7189,"jin":7190,"Ġcaught":7191,"Ġspaced":7192,"ĠInt":7193,"ĠGame":7194,"Ġvehicle":7195,"Ġcupc":7196,"Ġfeedback":7197,"Strong":7198,"VEN":7199,"vl":7200,"Ġsi":7201,"Ġrat":7202,"entation":7203,"notes":7204,"ĠOper":7205,"stringToNumber":7206,"nullptr":7207,"summation":7208,"Ġ!!\"":7209,"roundIt":7210,"checkExam":7211,"fessor":7212,",âĢ¦,":7213,"rest":7214,"algorithm":7215,"Ġvalidate":7216,"ĠSubarrays":7217,"abbits":7218,"FG":7219,"Rules":7220,"xin":7221,"unnel":7222,"Ġchips":7223,"Ġusually":7224,"Ġpositioned":7225,"Ġshelf":7226,"Ġsignificant":7227,"azy":7228,"ĠWhile":7229,"directionally":7230,"jinxin":7231,"fif":7232,"Ġtile":7233,"ĠColumn":7234,"ponse":7235,"Speak":7236,"jure":7237,"Ġsubsegment":7238,"ĠVAT":7239,"Ġstopped":7240,"Ġignored":7241,"Ġbehind":7242,"ĠtweetName":7243,"ĠwatchedVideos":7244,"ArithmeticFunction":7245,",\\":7246,"since":7247,"source":7248,"Ġtast":7249,"ĠCollatz":7250,"Ġflask":7251,"phabetic":7252,"Ġmaximized":7253,"Ġactivities":7254,"amongst":7255,"OT":7256,"esolang":7257,"Ġnucle":7258,"seq":7259,"Ġray":7260,"Ġposs":7261,"Ġ98":7262,"areny":7263,"ĠleftChild":7264,"ightseeing":7265,"ushky":7266,"idden":7267,"jobDifficulty":7268,"ĠOverview":7269,"Ġgalushky":7270,"Ġquadratic":7271,"arenyky":7272,"616":7273,"Ab":7274,"using":7275,"Ġdemon":7276,"ikhil":7277,"Ġ---":7278,"Ġapplication":7279,"Ġpreced":7280,"Steps":7281,"ogical":7282,"anya":7283,"Because":7284,"Ġowns":7285,"Ġsuccessfully":7286,"Ġrelationships":7287,"4111111111111":7288,"5105105":7289,"Odd":7290,"Ġ),":7291,"ĠCreate":7292,"Ġchop":7293,"ender":7294,"Ġdesign":7295,"\"`)":7296,"Alive":7297,"Ġstatementb":7298,"bbb":7299,"ological":7300,"hilip":7301,"Ġrefers":7302,"5105105105105":7303,"none":7304,"Ġworkout":7305,"ĠĠĠĠĠĠĠĠĠĠĠĠĠĠĠĠĠĠĠĠĠĠĠĠĠĠĠĠĠĠĠĠĠĠĠĠĠĠĠĠĠĠ":7306,"Ġ;-)":7307,"Ġliquid":7308,"225":7309,"Flip":7310,"ĠCalculate":7311,"Ġshouldn":7312,"soft":7313,"404":7314,"Ġdemonstr":7315,"Ġbi":7316,"arter":7317,"amps":7318,"Ġoccure":7319,"695":7320,"umeric":7321,"Ġallocated":7322,"ĠStatement":7323,"Ġsoftware":7324,"#\"]]":7325,"UD":7326,"ĉĊ":7327,"Ġwent":7328,"Ġbary":7329,"ester":7330,"\",\"#\"],":7331,"Ġnotifications":7332,"chars":7333,"arten":7334,"arying":7335,"myjinxin":7336,"Ġ[[\"#\",\"#\",\"#\",\"#\",\"":7337,"Ġbounds":7338,"avalon":7339,"Exception":7340,"fifa":7341,"Ġbarycenter":7342,"loops":7343,"ops":7344,"}^{":7345,"Ġ?":7346,"Ġfare":7347,"Ġ$$":7348,"Ġhyp":7349,"iced":7350,"ĠIm":7351,"exp":7352,"ĠRight":7353,"Ġbackward":7354,"Ġmovies":7355,"Ġrecognition":7356,"\"),":7357,"Ki":7358,"element":7359,"Ġ1100":7360,"ÂłĠĠĠĠĠĠĠĠĠĠĠ":7361,"ĠPoints":7362,"Ġproduces":7363,"problems":7364,"Ġexecute":7365,"!`":7366,"eel":7367,"wel":7368,"atus":7369,"Ġrelevant":7370,"Ġcoach":7371,"Ġpuzzles":7372,"Ġconcatenated":7373,"Ġmutate":7374,"ĠTimmy":7375,")!":7376,"Multiple":7377,"baa":7378,"cx":7379,"sim":7380,"_{{":7381,"Ġvisual":7382,"ribution":7383,"ORLD":7384,"ĠComput":7385,"Ġcubes":7386,"Ġrequirement":7387,"ĠBBBA":7388,"Lead":7389,"pad":7390,"aining":7391,"Ġkm":7392,"Ġalphan":7393,"fina":7394,"Ġconfiguration":7395,"Ġsic":7396,"Ġwest":7397,"Ġyield":7398,"apers":7399,"Ġmeets":7400,"Ġwrap":7401,"304":7402,"Ġshuffled":7403,"Ġdamage":7404,"ĠElixir":7405,"().":7406,"inating":7407,"reme":7408,"Ġstrange":7409,"1808":7410,"gument":7411,"Ġfees":7412,"Ġinvite":7413,"abcdefgh":7414,"ĠWhenever":7415,"Zag":7416,"gu":7417,"gith":7418,"hole":7419,"Ġcurren":7420,"Ġpadd":7421,"Ġ44":7422,"igZag":7423,"Ġproject":7424,"rosoft":7425,"Ġknowledge":7426,"Ġlikely":7427,"Ġinformed":7428,"github":7429,"20000":7430,"560":7431,"_)":7432,"inote":7433,"alpha":7434,"Ġrede":7435,"Ġ`\\":7436,"Ġvarenyky":7437,"ĠNew":7438,"ĠSn":7439,"ooses":7440,"Ġunable":7441,"Ġunread":7442,"fortran":7443,"Ġ```(":7444,"Ġprepar":7445,"fficients":7446,"Ġattend":7447,"Ġvariables":7448,"Ġgrams":7449,"Ġiron":7450,"inotega":7451,"Ġredeem":7452,"Well":7453,"paces":7454,"si":7455,"sert":7456,"edd":7457,"Ġdanger":7458,"Ġshot":7459,"Ġ85":7460,"ĠDetermine":7461,"Ġ...)":7462,"Ġguest":7463,"Ġlesson":7464,"Ġoffic":7465,"Ġbuildings":7466,"coffeescript":7467,"Ġextreme":7468,"horizontal":7469,"\";":7470,"some":7471,"Ġmor":7472,"Ġmixed":7473,"ometers":7474,"Ġge":7475,"Ġminister":7476,"Ġwhereas":7477,"ighth":7478,"Ġ`[\"":7479,"Ġcommit":7480,"Ġevil":7481,"Ġcurrency":7482,"Ġnine":7483,"otate":7484,"Ġsug":7485,"ĠRNA":7486,"25000":7487,"adecimal":7488,"Ġpurchased":7489,"ĠResult":7490,"KiTe":7491,"ĠCiel":7492,"ĠList":7493,"cient":7494,"Ġdetermined":7495,")*.":7496,"Run":7497,"yam":7498,"Ġfights":7499,"Ġhar":7500,"Ġrespond":7501,"Ġcrimes":7502,"Ġcoinc":7503,"coordinate":7504,"Ġlives":7505,"irs":7506,"orders":7507,"125":7508,"ĠYears":7509,"Ġparticipate":7510,"ĠNorris":7511,"Ġmodel":7512,"favoriteCompanies":7513,"86850000":7514,"180824":7515,"bou":7516,"happy":7517,"many":7518,"rist":7519,"Ġfacing":7520,"Ġ(_":7521,"ĠTerm":7522,"Ġ''":7523,"again":7524,"ĠYear":7525,"Ġparticles":7526,"direct":7527,"Ġpalindromic":7528,"Ġberries":7529,"Ġtouch":7530,"Ġchamber":7531,"Ġcoder":7532,"ĠĠĠĠĠĠĠĠĠĠĠĠĠĠĠĠĠĠĠĠĠĠ":7533,"ĠChefu":7534,"Ġclim":7535,"Index":7536,"does":7537,"Ġaster":7538,"Ġsand":7539,"Ġinvest":7540,"789":7541,"van":7542,"altern":7543,"ĠNth":7544,"Ġgray":7545,"ĠHave":7546,"Ġdoors":7547,"Ġdiscard":7548,"Ġpicks":7549,"Ġcoefficients":7550,"Ġrods":7551,"Ġtruncated":7552,"ototype":7553,"Ġcandidate":7554,"tes":7555,"Ġ(=":7556,"Ġri":7557,"unknown":7558,"Ġuniform":7559,"ĠFin":7560,"Ġmeant":7561,"Ġfloats":7562,"1939":7563,"Ġmaintain":7564,"566":7565,"LIS":7566,"calcul":7567,"ogram":7568,"urope":7569,"cells":7570,"Word":7571,"ï¼":7572,"Ġoct":7573,"Ġseason":7574,"gex":7575,"Ġjavascript":7576,"olution":7577,"eek":7578,"[[\"":7579,"Ġsystems":7580,"Ġtelling":7581,"Ġexception":7582,"âĨĴ":7583,"!).":7584,"junction":7585,"ĠCell":7586,"Ġwrites":7587,"Ġdeletions":7588,"consisting":7589,"Ġsorcer":7590,"313":7591,"CL":7592,"iou":7593,"Ġmaster":7594,"alal":7595,"Ġonline":7596,"Ġ57":7597,"Ġprincipal":7598,"ĠSU":7599,"Ġnotification":7600,"chickens":7601,"aren":7602,"Ġteach":7603,"Ġ255":7604,"Ġenters":7605,"allenge":7606,"transpose":7607,"Syntax":7608,"Ġaim":7609,"Ġcats":7610,"Ġfly":7611,"ĠCelsius":7612,"obstac":7613,"ĠHint":7614,"Similar":7615,"Ġvictim":7616,"ergarten":7617,"<<":7618,"HT":7619,"average":7620,"ji":7621,"lit":7622,"Ġstream":7623,"Ġlen":7624,"olt":7625,"Ġallows":7626,"ĠĠĠĠĠĠĠĠĠĠĠĠĠĠĠĠĠĠĠĠĠĠĠĠ":7627,"aeiou":7628,"Ġillustr":7629,"Res":7630,"cost":7631,"uly":7632,"Ġ]`":7633,"unit":7634,"Ġexc":7635,"ĠMe":7636,"ĠRound":7637,"130":7638,"fractions":7639,"Ġattribute":7640,"maj":7641,"ĠverticalCuts":7642,"WW":7643,"rain":7644,"Ġ[[],[\"":7645,"cribe":7646,"Ġconsistent":7647,"Ġbranch":7648,"ALID":7649,"ĠPlayer":7650,"ĠTimeMap":7651,"Ġalphanumeric":7652,"Fixed":7653,"ona":7654,"Ġep":7655,"Ġ$+":7656,"Ġ66":7657,"Ġsmart":7658,"^^^^":7659,"Ġkept":7660,"Due":7661,"ST":7662,"ael":7663,"field":7664,"given":7665,"kell":7666,"status":7667,"Ġbears":7668,"00002":7669,"Ġhaskell":7670,"ĠLittle":7671,"root":7672,"Ġtargets":7673,"Ġoutcome":7674,"139":7675,"1337":7676,"Ġcommun":7677,"viously":7678,"AAB":7679,"Ġtraversal":7680,"Ġpresses":7681,"________________":7682,"gener":7683,"Ġath":7684,"Ġconcept":7685,"134":7686,"Ġdecoded":7687,"letters":7688,"Ġswapping":7689,"Ġ..,":7690,"uropean":7691,"ADD":7692,"ĠIgor":7693,"Ġperimeter":7694,"ĠCheffina":7695,"213123":7696,"Ġmenus":7697,"Ġkeeps":7698,"Line":7699,"calculate":7700,"least":7701,"alphabetic":7702,"parse":7703,"rench":7704,"pecific":7705,"Ġobviously":7706,"BRG":7707,"Reg":7708,"table":7709,"Ġties":7710,"Ġay":7711,"Ġcate":7712,"Ġfair":7713,"Ġ333":7714,"Ġchickens":7715,"abstract":7716,"ĠĠĠĠĠĠĠĠĠĠĠĠĠĠĠĠĠĠĠĠĠĠĠĠĠĠĠĠ":7717,"ĠJinotega":7718,"Ġlitter":7719,"Ġsnack":7720,"\\\\\\\\":7721,"Ġselects":7722,"Ġiterations":7723,"Ġqualifying":7724,"ÂłÂłÂłÂł":7725,"-----------------------------------------":7726,"Su":7727,"Series":7728,"mult":7729,"Ġ`.":7730,"plify":7731,"Ġ\\%":7732,"sition":7733,"ĠRec":7734,"Ġrepair":7735,"ĠUp":7736,"primes":7737,"divisor":7738,"Ġlegend":7739,"Ġcupcakes":7740,"eed":7741,"ging":7742,"pick":7743,"}_{":7744,"Invalid":7745,"ĠTotal":7746,"Ġtruth":7747,"!!!":7748,"Ġmonster":7749,"Ġreplacement":7750,"atten":7751,"Ġwhitespaces":7752,"ĠTravel":7753,"Among":7754,"Grid":7755,"coll":7756,"Ġreorder":7757,"ima":7758,"Ġarrived":7759,"ĠCount":7760,"112":7761,"ĠRead":7762,"try":7763,"Ġ130":7764,"ĠStory":7765,"Ġtextbook":7766,"Ġhands":7767,"Ġkilometers":7768,"hy":7769,"Ġ53":7770,"pted":7771,"ameter":7772,"Ġmessages":7773,"Ġvaccines":7774,"Ġextremely":7775,"Ġepis":7776,"rics":7777,"oud":7778,"Ġseper":7779,"Ġproceed":7780,"Ġjava":7781,"ĠMan":7782,"Ġendpoints":7783,"pressions":7784,"0110":7785,"Ġguests":7786,"ĠShyam":7787,"ĠTriang":7788,"Ġbehavi":7789,"Ġgrowing":7790,"ĠQuery":7791,"Ġensure":7792,"'_":7793,"much":7794,"level":7795,"Ġsees":7796,"104":7797,"],[]],":7798,"Ġ[[],[],[":7799,"Ġ165":7800,"subarray":7801,"Ġattributes":7802,"functions":7803,"Ġstaircase":7804,"Ġwolf":7805,"Integ":7806,"Ġsubst":7807,"Ġ1000000007":7808,"struction":7809,"SE":7810,"hail":7811,"nment":7812,"atulations":7813,"Ġans":7814,"Ġpresents":7815,"Ġexpl":7816,"ĠIN":7817,"Ġdecom":7818,"Ġdeep":7819,"outube":7820,"6667":7821,"Ġvisible":7822,"Ġbuys":7823,"Ġbags":7824,"capital":7825,"832":7826,"`!":7827,"Ġmatrices":7828,"Ġinterle":7829,"Ġserved":7830,"great":7831,"appear":7832,"ynn":7833,"inos":7834,"Ġpts":7835,"ulus":7836,"Ġshots":7837,"ĠFennec":7838,"Ġâī¥":7839,"aaaaaaaa":7840,"ijing":7841,"Ġcapitalized":7842,"33333333":7843,"Ġpipe":7844,"Ġmorning":7845,"inosaur":7846,"Ġwomen":7847,"Ġelev":7848,"Ġthick":7849,"Ġ\\*":7850,"Ġcontainers":7851,"ady":7852,"reserved":7853,"ffee":7854,"999999":7855,"Ġinfinitely":7856,"\"(":7857,".\"],":7858,"game":7859,"pies":7860,"ton":7861,"lebr":7862,"Ġmaze":7863,"Ġ'$":7864,"1100":7865,"Ġtransformation":7866,"abacaba":7867,")).":7868,"FO":7869,"Red":7870,"fill":7871,"have":7872,"Ġgaps":7873,"Ġstuck":7874,"ĠNASM":7875,"ĠHappy":7876,"ĠLu":7877,"Ġcycl":7878,"Ġvariation":7879,"\"**":7880,"854":7881,"VALID":7882,"Ġconc":7883,"Ġ477":7884,"Ġ'/'":7885,"Ġboats":7886,"324":7887,"Ġcontents":7888,"Ġnumeral":7889,"ĠFindElements":7890,"intervals":7891,"Which":7892,"operations":7893,"ĠPiper":7894,"linkedin":7895,"Ġtastiness":7896,"collapse":7897,"reservedSeats":7898,"car":7899,"Ġml":7900,"Ġmix":7901,"team":7902,"vertical":7903,"Ġrestore":7904,"clean":7905,"Ġpackets":7906,"ĠProduct":7907,"Ġelimination":7908,"Ġpotat":7909,"Ġcastle":7910,"632":7911,"Tak":7912,"lot":7913,"|-":7914,"ĠKotlin":7915,"Ġ```'":7916,"profit":7917,"Ġloops":7918,"================":7919,"ĠSmith":7920,"Fail":7921,"bmod":7922,"lt":7923,"long":7924,"ucl":7925,"}).":7926,"Ġtaps":7927,"Ġnobody":7928,"ache":7929,"otu":7930,"Ġrice":7931,"Ġprove":7932,"5725":7933,"Ġ($\\":7934,"Ġago":7935,"Ġmarket":7936,"Ġlimited":7937,"While":7938,"+------":7939,">,":7940,"esian":7941,"edge":7942,"Ġjar":7943,"artesian":7944,"Ġdividing":7945,"Ġdetect":7946,"ĠTeam":7947,"Rs":7948,"uu":7949,"until":7950,"herlock":7951,"ĠIP":7952,"([[":7953,"Ġcooking":7954,"Ġsensitive":7955,"Ġdynamically":7956,"tuple":7957,"Ġgeomet":7958,"IC":7959,"Ow":7960,"{\\":7961,"Ġ},":7962,"enance":7963,"Ġgem":7964,"Ġview":7965,"////":7966,"ĠIts":7967,"1221":7968,"death":7969,"Ġsimulator":7970,"beijing":7971,"aintenance":7972,"cfc":7973,"Ġdisplayed":7974,"joint":7975,"Ġbringing":7976,"''":7977,"qq":7978,"eds":7979,"Ġhat":7980,"Ġ**(":7981,"Ġalien":7982,"ĠMik":7983,"Ġfloating":7984,"Ġdriving":7985,"address":7986,"Ġdiam":7987,"Ġleader":7988,"Ġcru":7989,"Ġcomparison":7990,"Ġprimary":7991,"!\",":7992,"Gr":7993,"bug":7994,"Ġpars":7995,"Ġhundred":7996,"Ġfractions":7997,"ĠSasha":7998,"Ġwhis":7999,"oole":8000,"perial":8001,"ĠFriday":8002,"Ġworst":8003,"Ġfeel":8004,"Ġbackground":8005,"Ġchem":8006,"],[],[],[],[":8007,"Ġregularly":8008,"66666666":8009,"0101":8010,"cub":8011,"dir":8012,"ger":8013,"Ġfd":8014,"Ġfemale":8015,"Ġdom":8016,"arranged":8017,"ĠPer":8018,"rop":8019,"884":8020,"ElementsProduct":8021,"Ġcube":8022,"Ġparenthesis":8023,"adjacentElementsProduct":8024,"Ġauthor":8025,"Ġ222616":8026,"Ġ222616187":8027,"Class":8028,"Ġrefuel":8029,"âĢĤ":8030,"trim":8031,"Never":8032,"................":8033,"Ġweapons":8034,"abcdefghijkl":8035,"'-":8036,"Prec":8037,"leph":8038,"Ġdare":8039,"Ġrabbits":8040,"ĠCould":8041,"ĠTom":8042,"Ġanyone":8043,"Ġequations":8044,"toFixed":8045,"6064":8046,"BBB":8047,"Ġservice":8048,"Ġsense":8049,"Precision":8050,"POS":8051,"UU":8052,"Exponential":8053,"ichael":8054,"Ġcosm":8055,"ĠRock":8056,"127":8057,"finished":8058,"Ġ181":8059,"Ġspecifier":8060,"Ġwormhole":8061,"erald":8062,"Ġsou":8063,"Ġincome":8064,"Ġregex":8065,"combine":8066,"Ġupdate":8067,"leting":8068,"Ġcheap":8069,"division":8070,"Ġcollected":8071,"Ġspreading":8072,"\"\"":8073,"ulate":8074,"Ġsingers":8075,"Ġspeak":8076,"olders":8077,"Ġemployed":8078,"Ġflavour":8079,"ahub":8080,"Ġhappiness":8081,"Ġattacking":8082,"Ġliked":8083,"914":8084,"Buzz":8085,"BLE":8086,"Min":8087,"Ġtails":8088,"Ġsound":8089,"oul":8090,"Ġarch":8091,"ĠSi":8092,"Ġ'+":8093,"Ġcloser":8094,"ĠJohnny":8095,"6584":8096,"raft":8097,"Ġmerchant":8098,"SIBLE":8099,"xis":8100,"Ġmaintenance":8101,"Ġasha":8102,"ĠCuckoo":8103,"elixir":8104,"ĠMag":8105,"ĠgetInheritanceOrder":8106,"ĠDis":8107,"akesh":8108,"arrayLead":8109,"cially":8110,"Ġreplacing":8111,")_**.":8112,"Ġhighway":8113,"ĠIndicates":8114,"parentName":8115,"Ġfrequent":8116,"arrayLeaders":8117,"QL":8118,"croak":8119,"Ġwire":8120,"Ġvide":8121,"Ġsequent":8122,"gebra":8123,"ackground":8124,"ĠKeep":8125,"roid":8126,"lfriend":8127,"Ġcomputed":8128,"Query":8129,"Ġgirlfriend":8130,"Ġcapitalize":8131,"Ġfilters":8132,"Ġzombies":8133,"Ġsleeping":8134,"Transl":8135,"Ġvideo":8136,"HI":8137,"Limak":8138,"Ġful":8139,"Ġfib":8140,"Ġpublic":8141,"pecially":8142,"ooby":8143,"ship":8144,"-----------------":8145,"mnopqrst":8146,"Ġcouple":8147,"ooleans":8148,"Date":8149,"Look":8150,"utation":8151,"anish":8152,"Ġhack":8153,"group":8154,"Ġmaybe":8155,"Weights":8156,"Ġkindergarten":8157,"Ġfractional":8158,"977":8159,"ior":8160,"mates":8161,"uan":8162,"Ġyes":8163,"object":8164,"ĠPM":8165,"230":8166,"Ġgrouped":8167,"Ġacceptable":8168,"Ġseparately":8169,"Ġofficial":8170,"asy":8171,"asically":8172,"Ġ1024":8173,"âĢ²":8174,"Arrow":8175,"Ġtraveler":8176,"Ġdependent":8177,")))":8178,"Ġindicate":8179,"Ġvarum":8180,"Ġunderstanding":8181,"Ġrelationship":8182,"Ġpsy":8183,"aring":8184,"Ġdinosaur":8185,"Ġremote":8186,"205":8187,"Ġpersonal":8188,"Ġcheat":8189,"ohit":8190,"proper":8191,"123456789":8192,"Ġsupply":8193,"operator":8194,"POSSIBLE":8195,"Ġcosmic":8196,"9000":8197,"bcd":8198,"dam":8199,"fusc":8200,"youtube":8201,"Ġ928":8202,"Ġcomplic":8203,"Ġresponse":8204,"agues":8205,"atson":8206,"gging":8207,"Ġslight":8208,"Ġfinger":8209,"Me":8210,"Many":8211,"rfloor":8212,"zbd":8213,"Ġsightseeing":8214,"owels":8215,"Ġ`#":8216,"Ġring":8217,"Ġchairs":8218,"arrot":8219,"Ġminions":8220,"reek":8221,"ĠJob":8222,"lfloor":8223,"Ġsupplied":8224,"Ġimprove":8225,"obstacle":8226,"write":8227,"Ġgallon":8228,"Ġ360":8229,"Ġtrouble":8230,"Ġtriples":8231,"Ġcurve":8232,"Ġ;)":8233,"microsoft":8234,"Yell":8235,"Ġcod":8236,"Ġrays":8237,"Ġdegree":8238,"Ġcombine":8239,"forces":8240,"])`":8241,"ĠgroupSizes":8242,"########":8243,"score":8244,"triplet":8245,"ĠAssuming":8246,"wrap":8247,"Ġmisinterpre":8248,"YellOw":8249,"broken":8250,"oss":8251,"rem":8252,"Ġslope":8253,"Ġhop":8254,"Ġstable":8255,"irty":8256,"expressions":8257,"ĠLast":8258,"Ġreports":8259,"anted":8260,"Ġ202":8261,"ĠUpper":8262,"Ġprocessing":8263,"Ġseller":8264,"Ġeliminating":8265,"nodejs":8266,"movie":8267,"algorithms":8268,")âĨĴ":8269,"145":8270,"bba":8271,"five":8272,"oScript":8273,"vy":8274,"Ġpitches":8275,"ĠNe":8276,"Ġproven":8277,"ĠMad":8278,"anta":8279,"create":8280,"Ġsche":8281,"Ġapplic":8282,"bool":8283,"Ġfamous":8284,"green":8285,"chess":8286,")âĨĴ(":8287,"Fe":8288,"TS":8289,"kji":8290,"ĠMind":8291,"ĠMike":8292,"swift":8293,"Ġthanks":8294,"Ġdisjoint":8295,"Ġexceeds":8296,"Ġuniversity":8297,"Ġwebsite":8298,"Ġcameras":8299,"._":8300,"8244":8301,"house":8302,"ley":8303,"Ġ77":8304,"abir":8305,"ĠCont":8306,"Ġintended":8307,"ĠhorizontalCuts":8308,"Ġmuseums":8309,"Blue":8310,"maximize":8311,"Ġinvestig":8312,"900":8313,"ranges":8314,"Ġtheory":8315,"ĠtoPrecision":8316,"ĠtoExponential":8317,"Ġlift":8318,"\",\".\",\".\",\"":8319,"000611":8320,"Ġflights":8321,"363":8322,"856584":8323,"Ġbelie":8324,"Ġbarri":8325,"Ġcollects":8326,"47000611":8327,"calls":8328,"Ġrecursive":8329,"Ġbeacon":8330,"Ġdevice":8331,"57256064":8332,"57256064856584":8333,"CS":8334,"Filter":8335,"Hot":8336,"Ġants":8337,"Ġ\"+":8338,"Ġrational":8339,"rian":8340,"lojure":8341,"ĠRakesh":8342,"anguage":8343,"Ġnumerals":8344,"Ġcontinued":8345,"Ġ281":8346,"$$$$":8347,"Ġmarbles":8348,"TML":8349,"Similarly":8350,"DinnerPlates":8351,"freq":8352,"}_":8353,"Ġwikipedia":8354,"Ġtoken":8355,"Ġsugg":8356,"Ġplates":8357,"ĠĠĠĠĠĠĠĠĠĠĠĠĠÂłĠĠĠĠĠĠĠĠĠĠĠĠĠĠĠĠĠĠĠĠĠĠĠĠĠĠĠĠĠĠĠĠĠĠĠĠĠĠĠĠĠ":8358,"Who":8359,"Ġlayers":8360,")].":8361,"637":8362,"DS":8363,"Mon":8364,"fto":8365,"Ġfence":8366,"ensitive":8367,"Ġlefto":8368,"Ġ+=":8369,"aby":8370,"comput":8371,"Ġrepet":8372,"Ġcomplicated":8373,"$`":8374,")),":8375,"4321":8376,"Discover":8377,"Sort":8378,"made":8379,"when":8380,"Ġ\\\\":8381,"Ġkth":8382,"ĠCir":8383,"].)":8384,"ĠInformat":8385,"atively":8386,"âĢľ":8387,"Ġkeyboard":8388,"Ġmultiplicity":8389,"140":8390,"Ġunderlined":8391,"Ġsurpr":8392,"ACK":8393,"Ġhexadecimal":8394,"Ġpetals":8395,"ĠInformatics":8396,")![":8397,"*!":8398,":*\"":8399,"Matter":8400,"Ptotal":8401,"Random":8402,"RESS":8403,"VO":8404,"fct":8405,"gfe":8406,"ĠÐ":8407,"Ġscale":8408,"lld":8409,"Ġmelons":8410,"Ġhills":8411,"Ġvs":8412,"Ġsubject":8413,"abode":8414,"derive":8415,"Ġ818":8416,"Ġquiver":8417,"clothes":8418,"Ġpassage":8419,"Start":8420,"ĠSoints":8421,"ĠdownSpeed":8422,"maxMultiple":8423,"findSum":8424,"Ġcursor":8425,"Ġevaporator":8426,"Ġfunnel":8427,"FromBoys":8428,"menFromBoys":8429,"umphet":8430,"ĠProblem":8431,"lastPlayer":8432,"ĠDrumphet":8433,"Robot":8434,"ĠBilly":8435,"\\*\\*":8436,"Ġmongooses":8437,"Ġexhibitions":8438,"QAQ":8439,"ĠTerminal":8440,"ADDRESS":8441,"capitalize":8442,"âĢ²[":8443,"Ġmisinterpreted":8444,"expressionsMatter":8445,"reason":8446,"Ġcamp":8447,"icode":8448,"ĠWo":8449,"189":8450,"Ġhighlight":8451,"Ġattacks":8452,"Ġpaired":8453,"Ġcheapest":8454,"son":8455,"Ġtur":8456,"Ġtiger":8457,"rees":8458,"Ġancient":8459,"Ġ$`":8460,"Ġhon":8461,"Ġ\"!":8462,"ĠRi":8463,"ĠWell":8464,"665":8465,"Ġclassic":8466,"Ġvisiting":8467,"Ġaccur":8468,"interval":8469,"ĠGrade":8470,"ĠSUP":8471,"Ġdomain":8472,"mnopqrstuvwxyz":8473,"'[":8474,"TT":8475,"goose":8476,"must":8477,"uled":8478,"Ġaxis":8479,"Ġ(+":8480,"irus":8481,"geese":8482,"Ġunless":8483,"minSum":8484,"ToDate":8485,"player":8486,"Ġscheduled":8487,"rowWeights":8488,"mean":8489,"Ġpawn":8490,"ĠshortenToDate":8491,"Ġhallo":8492,"Disarium":8493,"aec":8494,"sabers":8495,"Ġlatin":8496,"Ġ720":8497,"ĠEucl":8498,"agons":8499,"otten":8500,"274":8501,"Ġzombie":8502,"Ġfootball":8503,"?\".":8504,"Em":8505,"STR":8506,"dest":8507,"atm":8508,"ican":8509,"2017":8510,"Ġapart":8511,"versions":8512,"Ġoption":8513,"XXX":8514,"Carlos":8515,"!',":8516,"::":8517,"ism":8518,"Ġfreq":8519,"Ġfavour":8520,"alive":8521,"Ġ3000":8522,"url":8523,"Ġusage":8524,"Ġdifferents":8525,"Ġ160":8526,"Ġgunners":8527,"iu":8528,"aser":8529,"Ġtoy":8530,"0009":8531,"Ġdiagon":8532,"Ġstatic":8533,"Ġboring":8534,"ĠSwift":8535,"Ġawarded":8536,"Yellow":8537,"note":8538,"Ġsite":8539,"Ġbases":8540,"ĠFolders":8541,"insensitive":8542,"Ġeditor":8543,"essage":8544,"ulent":8545,"folders":8546,"wolfram":8547,"ĠFinally":8548,")+":8549,"Ho":8550,"mes":8551,"occ":8552,"Ġlearning":8553,"Ġatleast":8554,"ĠBug":8555,"ĠBuy":8556,"riends":8557,"idean":8558,"Ġmeeting":8559,"itionally":8560,"Ġoverall":8561,"Ġtopics":8562,"Ġstatementa":8563,"domain":8564,"Ġintroduce":8565,"superSize":8566,"AMEX":8567,"Ġissuer":8568,"Ġseems":8569,"557101":8570,",...":8571,"/\\\\\\":8572,"`(":8573,"kh":8574,"sn":8575,"vin":8576,"âĬ":8577,"Ġaud":8578,"Ġsaw":8579,"Ġsale":8580,"oooo":8581,"Ġxx":8582,"ĠRS":8583,"ources":8584,"(\"!":8585,"246":8586,"Ġcalculations":8587,"Ġproved":8588,"attribute":8589,"Ġannoun":8590,"8244353":8591,"quets":8592,"ĠEuler":8593,"Ġ^(":8594,"Ġassist":8595,"Ġharder":8596,"Ite":8597,"Little":8598,"\\},":8599,"bulent":8600,"puzz":8601,"ruct":8602,"yx":8603,"{'":8604,"{}$":8605,"\",\".\",\"#\"],":8606,"adian":8607,"Ġ'$\\":8608,"Ġsubs":8609,"oopy":8610,"ĠPhilip":8611,"ĠWaff":8612,"ĠFour":8613,"Ġformul":8614,"Ġindexing":8615,"#\",\"#\"]]":8616,"Namei":8617,"Ġcarries":8618,"Answer":8619,"mber":8620,"Ġthinking":8621,"Ġreferring":8622,"Canadian":8623,"Ġ[\"#\",\".\",\".\",\".\",\"":8624,"Ġcelebr":8625,"Ġdefeated":8626,"Ġ[\"#\",\"#\",\"#\",\"#\",\"#\",\"#\"]]":8627,"Ġ[[\"#\",\"#\",\"#\",\"#\",\"#\",\"#\"],":8628,"Ġturbulent":8629,"ĠSUPW":8630,"Itemi":8631,"{}$'":8632,"ĠWaffles":8633,"VE":8634,"bott":8635,"imits":8636,"ifically":8637,"cel":8638,"Ġ564":8639,"chain":8640,"Ġsocc":8641,"ĠFlip":8642,"Ġloss":8643,"Ġdecimals":8644,"LEET":8645,"Ġsoccer":8646,"Get":8647,"RL":8648,"sr":8649,"Ġpull":8650,"Ġgym":8651,"Ġexclusive":8652,"ionship":8653,"Ġamounts":8654,"ĠThanks":8655,"xxx":8656,"Ġcycles":8657,"Ġraised":8658,"Ġdangerous":8659,"Ġwires":8660,"amming":8661,"ĠABA":8662,"Ġlect":8663,"ptions":8664,"arded":8665,"ĠPat":8666,"ĠRay":8667,"aven":8668,"minValue":8669,"Ġ(`\"":8670,"subsequence":8671,"zeros":8672,"ĠBBBAAAA":8673,"Vasya":8674,"awn":8675,"cities":8676,"asas":8677,"Ġ200000":8678,"stone":8679,"Ġ39":8680,"idge":8681,"ĠClojure":8682,"Ġtimer":8683,"ĠMat":8684,"ĠChoosing":8685,"Ġplanet":8686,"Ġplanned":8687,"Ġachiev":8688,"Ġversions":8689,"Ġdecrement":8690,"Ġmathematician":8691,"dislikes":8692,"bacd":8693,"CG":8694,"LY":8695,"Median":8696,"friend":8697,"Ġna":8698,"Ġtotally":8699,"stery":8700,"ayers":8701,"Ġcontext":8702,"estions":8703,"ĠFunction":8704,"ector":8705,"Needed":8706,"4444":8707,"Ġliteral":8708,"=$":8709,">`":8710,"Sing":8711,"rac":8712,"rons":8713,"rotate":8714,"init":8715,"Ġnumpy":8716,"Ġsec":8717,"Ġframe":8718,"ĠSame":8719,"111111":8720,"ĠZigZag":8721,"Ġrecover":8722,"Ġterminate":8723,"Ġterminated":8724,"[[[-":8725,"Ġdecomposition":8726,"Ġslightly":8727,"ament":8728,"Ġmed":8729,"ĠSuppose":8730,"adc":8731,"ĠInputs":8732,"parate":8733,"Ġranks":8734,"Ġpotential":8735,"Ġmeasure":8736,"Base":8737,"Pet":8738,"ooth":8739,"rowserHistory":8740,"ä¸":8741,"Ġsake":8742,"Ġbin":8743,"orge":8744,"ĠBackground":8745,"onday":8746,"ĠWORLD":8747,"ĠĠĠĠĠĠĠĠĠĠĠĠĠĠĠĠĠĠĠĠĠĠĠĠĠĠĠĠĠĠ":8748,"ĠOkk":8749,"Ġmeal":8750,"Ġimagine":8751,"234":8752,"Ġassumed":8753,"Ġdrops":8754,"âĸłâĸłâĸłâĸł":8755,"Ġdominoes":8756,"written":8757,"esolangs":8758,"arents":8759,"âĬķ":8760,"Col":8761,"Ġdirty":8762,"ĠSim":8763,"perform":8764,"Ġ82":8765,"Ġdollar":8766,"break":8767,"gn":8768,"heat":8769,"icles":8770,"Ġasse":8771,"]]]":8772,"ĠDoof":8773,"233":8774,"Att":8775,"Ġcomparing":8776,"Ġsuitable":8777,"ĠDivision":8778,"Ġthickness":8779,"lephant":8780,"RF":8781,"Ã©":8782,"Ġais":8783,"onal":8784,"Ġ69":8785,"ĠMake":8786,"ĠContain":8787,"ĠâĨĳ":8788,"Ġimplementing":8789,"permark":8790,"Parameters":8791,"oci":8792,"Ġpain":8793,"vector":8794,"icip":8795,"htag":8796,"450":8797,"olded":8798,"Ġacqu":8799,"Ġdrives":8800,"Ġgrowth":8801,"Ġscarfs":8802,"unge":8803,"PeakData":8804,"Stores":8805,"permarket":8806,")\".":8807,"Cred":8808,"IO":8809,"iation":8810,"Ġnumbering":8811,"Ġprod":8812,"akra":8813,"ĠNastya":8814,"Ġchakra":8815,"Ġgrades":8816,"ĠPaint":8817,"ustomStack":8818,"ĠDigits":8819,"ĠThree":8820,"Ġimplementation":8821,"ASCII":8822,"Ġbanknotes":8823,"Ġbandwidth":8824,"Ġbeacons":8825,"arshad":8826,"Credits":8827,"!](":8828,"Bolded":8829,"ait":8830,"Ġpaying":8831,"aca":8832,"Ġarm":8833,"Ġ\\_":8834,"atever":8835,"ishop":8836,"ĠOther":8837,"icket":8838,"ĠZach":8839,"Ġparticle":8840,"Ġleads":8841,"Ġsimilarly":8842,"customers":8843,"larger":8844,"Ġrupee":8845,"ĠBerland":8846,"Ġjewel":8847,"Are":8848,"SY":8849,"mble":8850,"orse":8851,"Ġmus":8852,"Ġ1076":8853,"ĠBi":8854,"Ġunc":8855,"venirs":8856,"Ġencode":8857,"142":8858,"ucket":8859,"convert":8860,"Ġappearance":8861,"Ġsubordination":8862,"Ġaddresses":8863,"Ġcitizen":8864,"Ġsurvive":8865,"Ġomitted":8866,"Ġsouvenirs":8867,"Ġformulas":8868,"567":8869,"kady":8870,"message":8871,"pri":8872,"orial":8873,"Ġmedia":8874,"icious":8875,"Ġsubtraction":8876,"combin":8877,"perience":8878,"Ġupon":8879,"Ġended":8880,"Ġclips":8881,"378":8882,"Ġsurrounded":8883,"ï¼¿":8884,"EL":8885,"`'":8886,"Ġinverse":8887,"Ġeighth":8888,"idence":8889,"ĠNikhil":8890,"ĠPe":8891,"Ġtransformations":8892,"65432":8893,"Ġweapon":8894,"Ġprecise":8895,"Hard":8896,"por":8897,"public":8898,"spe":8899,"solang":8900,"Ġ199":8901,"static":8902,"Ġthous":8903,"Ġhire":8904,"unique":8905,"ĠinputArray":8906,"emo":8907,"Ġspends":8908,"()```,":8909,"Ġpartitions":8910,"Ġbugs":8911,"numer":8912,"Testing":8913,"1234567890":8914,"Ġcourt":8915,"Ġcentre":8916,"Ġassociation":8917,"Ġrecursion":8918,"ĠMaybe":8919,"Ġharv":8920,"'(":8921,"Sn":8922,"Try":8923,"follow":8924,"wanted":8925,"ĠÂ·":8926,"Ġnesting":8927,"-------":8928,"oteric":8929,"ĠKim":8930,"ĠDel":8931,"!!!\"":8932,"Ġhelps":8933,"CM":8934,"[(":8935,"pm":8936,"erts":8937,"Ġduck":8938,"Ġpok":8939,"102":8940,"Ġ'.":8941,"ably":8942,"ĠgetProduct":8943,"`,`":8944,"ĠGerald":8945,"Ġoffers":8946,"703":8947,"character":8948,"ĠStrings":8949,"ProductOfNumbers":8950,"Ġinserting":8951,"ymine":8952,"ĠProductOfNumbers":8953,"']]":8954,"borg":8955,"bloom":8956,"zag":8957,"owel":8958,"Ġ_]":8959,"ĠAlthough":8960,"Ġcrash":8961,"ĠShould":8962,"Ġsubmission":8963,"bouquets":8964,"bloomDay":8965,"650":8966,"XOR":8967,"tcode":8968,"Ġpipes":8969,"sters":8970,"ĠPolish":8971,"ĠWatson":8972,"ĠcharCode":8973,"Ġmodern":8974,"shish":8975,"HEF":8976,"Ġcollapse":8977,"Ġdomino":8978,"Ġlayout":8979,"missing":8980,"!```":8981,"!**":8982,"iq":8983,"Ġfleet":8984,"Ġmouth":8985,"Ġstaff":8986,"Ġheld":8987,"Ġweird":8988,"0004":8989,"Ġplural":8990,"Ġworked":8991,"2500":8992,"ĠChar":8993,"ĠSebi":8994,"ĠShell":8995,"88888888":8996,"Ġvoters":8997,"largest":8998,"8000":8999,"craft":9000,"mas":9001,"rict":9002,"uput":9003,"Ġpoor":9004,"Ġsupermarket":9005,"ĠSir":9006,"Ġ777":9007,"Ġsummer":9008,"ackdown":9009,"ĠJon":9010,"ĠSeriesSum":9011,"redict":9012,"azing":9013,"continue":9014,"Everybody":9015,"offee":9016,"abcdefghijklmnopqrstuvwxyz":9017,"Features":9018,"ĠEuclidean":9019,"199":9020,"264":9021,"Ġfans":9022,"Ġmur":9023,"imate":9024,"Ġ\"*":9025,"Ġ`*":9026,"\"]`":9027,"Ġ1600":9028,"aturally":9029,"Ġissue":9030,"ackerrank":9031,"Ġrupees":9032,"Ġconcern":9033,"dff":9034,"father":9035,"gcd":9036,"kb":9037,"Ġ\"#":9038,"olmes":9039,"Ġnoticed":9040,"Ġtricks":9041,"ĠBo":9042,"ĠElephant":9043,"emon":9044,"ĠHolmes":9045,"Ġprevent":9046,"cluded":9047,"2844":9048,"______":9049,"ĠThird":9050,"Ġlexicographic":9051,"Position":9052,"Ġclarity":9053,"Description":9054,"Ġsubstit":9055,"BF":9056,"cial":9057,"453":9058,"Ġinterview":9059,"ĠZero":9060,"375":9061,"common":9062,"ĠDevu":9063,"Ġconcatenate":9064,"OP":9065,"PUT":9066,"--|":9067,"Ġlate":9068,"Ġconcent":9069,"Ġ1018":9070,"ĠPairs":9071,"Ġze":9072,"879":9073,"âĶĢâĶĢâĶ":9074,"Ġyoungest":9075,"âĶĢâĶĢâĶĢâĶ":9076,"033":9077,"Factors":9078,"Most":9079,"cats":9080,"rout":9081,"Ġsens":9082,"ĠTry":9083,"deleting":9084,"Ġcaps":9085,"Ġbuyer":9086,"Ġtranslation":9087,"Ġvictims":9088,"Week":9089,"XO":9090,"_.":9091,"dcab":9092,"lr":9093,"was":9094,"utes":9095,"Ġmother":9096,"edle":9097,"ctors":9098,"Ġanymore":9099,"ddy":9100,"Ġrepresentations":9101,"662":9102,"Ġoptions":9103,"bcad":9104,"merge":9105,"Ġqueen":9106,"Ġoverlapping":9107,"Ġlocked":9108,"ĠPete":9109,"Ġexercises":9110,"Ġprogression":9111,"Correct":9112,"Ġ[[],[],[]],":9113,"Ġfavourite":9114,"med":9115,"Ġ\".\"":9116,"0002":9117,"parity":9118,"Ġfunny":9119,"Ġcollege":9120,"Robin":9121,"Ġinvolved":9122,"Ġ'#'":9123,"CON":9124,"ered":9125,"Ġbasically":9126,"comb":9127,"Ġfinishes":9128,"255":9129,"Ġcalculator":9130,"âĸĩ":9131,"ĠLeet":9132,"fruit":9133,"Ġcriter":9134,"Last":9135,"slice":9136,"itary":9137,"Ġhaven":9138,"ĠSereja":9139,"Ġalpha":9140,"]]`":9141,"Ġparity":9142,"}$).":9143,"ogs":9144,"reduce":9145,"273":9146,"11011":9147,"Ġcentury":9148,"Ġsubmitted":9149,"nnnn":9150,"Ġmongoose":9151,"Ġrestrict":9152,"416":9153,"Go":9154,"Just":9155,"warrior":9156,"Ġware":9157,"Ġwood":9158,"ingu":9159,"almon":9160,"Ġhates":9161,"Ġstars":9162,"Ġ500000":9163,"Ġ'?":9164,"1232":9165,"Ġzoo":9166,"603":9167,"ĠCodewars":9168,"Ġportion":9169,"]].":9170,"Ġtall":9171,"Ġtex":9172,"Ġorbit":9173,"unk":9174,"Ġtries":9175,"olly":9176,"Ġundefined":9177,"cape":9178,"Ġswapped":9179,"circular":9180,"Ġmajor":9181,"ĠÎĶ":9182,"Ġtexts":9183,"CV":9184,"Ġcis":9185,"Ġegress":9186,"acb":9187,"than":9188,"unch":9189,"Ġreserv":9190,"ĠfindElements":9191,"()()":9192,"Ġ2015":9193,"short":9194,"Ġobtaining":9195,"592":9196,"igital":9197,"Ġinvited":9198,"mathworld":9199,"Ġselector":9200,"Ġfalls":9201,"operatorname":9202,"Ġaisle":9203,"Ġegresso":9204,"'}":9205,"uto":9206,"Ġ107":9207,"..,":9208,"Ġunsorted":9209,"toString":9210,"203":9211,"ĠJoe":9212,"essie":9213,"panish":9214,"Ġboundary":9215,"Ġcleaning":9216,"Ġtenth":9217,"hoen":9218,"ĠDivide":9219,"Ġbehaviour":9220,"948":9221,"wb":9222,"zuy":9223,"umentation":9224,"++)":9225,"++.)":9226,"ondon":9227,"Convert":9228,"Ġwash":9229,"efa":9230,"ocumentation":9231,"ĠTaka":9232,"zej":9233,"useri":9234,"Ġlying":9235,"ĠSofloat":9236,"Ġâĸł":9237,"ĠSiruseri":9238,"zuyu":9239,"210":9240,"384":9241,"AH":9242,"Fib":9243,"Sometimes":9244,"Ġblog":9245,"Ġhom":9246,"anded":9247,"ndar":9248,"ĠDima":9249,"153":9250,"157":9251,"Ġpermute":9252,"679":9253,"ĠThymine":9254,"Ġneighbour":9255,"izzas":9256,"!\"`":9257,"*:":9258,"837":9259,"838":9260,"AW":9261,"Zach":9262,"mers":9263,"Ġpand":9264,"Ġmask":9265,"Ġhier":9266,"Ġstory":9267,"Ġric":9268,"Ġramp":9269,"idx":9270,"ĠSergey":9271,"\",\"\",\"":9272,"Ġattract":9273,"ĠLongest":9274,"ĠFurther":9275,"associ":9276,"Ġcols":9277,"ĠGener":9278,"54321":9279,"ĠChallenge":9280,"ĠĠĠĠĠĠĠĠĠĠĠĠĊ":9281,"Ġwalls":9282,"Before":9283,"Ġdistributed":9284,"olved":9285,"Ġweeks":9286,"ricts":9287,"Ġmillion":9288,"Ġdifficulties":9289,"Adapted":9290,"Ġhierarch":9291,"host":9292,"iable":9293,"uild":9294,"0013":9295,"omas":9296,"Exp":9297,"ivek":9298,"cha":9299,"ĠMEX":9300,"ĠPres":9301,"ilver":9302,"Ġconsiders":9303,"Ġabcd":9304,"Ġscan":9305,"ĠGreg":9306,"ĠĠĠĠĠĠĠĠĠĠĠĊ":9307,"keys":9308,"793":9309,"multiple":9310,"Ġ'#',":9311,"ĠCOV":9312,"Ġhyphen":9313,"514":9314,"812":9315,"ME":9316,"cand":9317,"indi":9318,"ĠMajorityChecker":9319,"ĠHTML":9320,"ccProb":9321,"Ġdecrypt":9322,"Ġdivisions":9323,"versa":9324,"ĠYes":9325,"single":9326,"tvkb":9327,"Ġoccupies":9328,"ĠSpecifically":9329,"ristmas":9330,"majorityChecker":9331,"Ġcommunic":9332,"Ġcriteria":9333,"varying":9334,"Ġtough":9335,"hering":9336,"igible":9337,"ĠSherlock":9338,"ĠSanta":9339,"Ġalthough":9340,"ĠminDigit":9341,"ĠmaxDigit":9342,"1296":9343,"avid":9344,"235":9345,"Ġreaching":9346,"Ġfinishing":9347,"Ġmarkers":9348,"rupt":9349,"Ġdamaged":9350,"ĠFixing":9351,")|":9352,"Tree":9353,"boy":9354,"boolean":9355,"mark":9356,"isit":9357,"seats":9358,"Ġ55555":9359,"ĠSam":9360,"iler":9361,"Ġdistricts":9362,"Ġembed":9363,"Ġclues":9364,"ĠVova":9365,"Ġalgorithms":9366,"Ġaccordingly":9367,"INT":9368,"Ġburles":9369,"Ġchampionship":9370,"Ġteaching":9371,"Ġwarehouse":9372,"(`":9373,"hal":9374,"jec":9375,"ica":9376,"teuler":9377,"Ġnear":9378,"Ġ'('":9379,"Ġsocial":9380,"ĠWhere":9381,"Ġtravelled":9382,"Ġtermin":9383,"Ġexams":9384,"Ġselling":9385,"Draw":9386,"Month":9387,"jecteuler":9388,"James":9389,"Ġinc":9390,"Ġspans":9391,"Ġincred":9392,"issors":9393,"ONG":9394,"101010":9395,"*****":9396,"aaaaa":9397,"coring":9398,"Ġnorth":9399,"Ġinvolves":9400,"Ġceil":9401,"Ġvillage":9402,"Ġratio":9403,"Ġpossession":9404,"hoenix":9405,"485":9406,"LF":9407,"night":9408,"anja":9409,"uniform":9410,"Ġkills":9411,"Ġexposed":9412,"ĠIII":9413,"Ġdefin":9414,"arrots":9415,"121":9416,"ĠForm":9417,"Ġcorners":9418,"Ġgreet":9419,"Ġpowerful":9420,"Ġbullet":9421,"Ġcompression":9422,"Bart":9423,"Co":9424,"Documentation":9425,"Keep":9426,"Men":9427,"TH":9428,"bus":9429,"jpg":9430,"oi":9431,"rad":9432,"Ġ0000":9433,"Ġ@@":9434,"Ġcred":9435,"Ġfusc":9436,"ara":9437,"Ġmile":9438,"ĠAPI":9439,"Ġcannon":9440,"ĠâĶ":9441,"Ġdeque":9442,"weedle":9443,"ĠHashi":9444,"ĠJeff":9445,"Ġmonsters":9446,"Ġnumerator":9447,"Ġconverting":9448,"Ġtransformed":9449,"Ġcyborg":9450,"NOTES":9451,"Ġ------>":9452,"Should":9453,"Ġexperience":9454,"Ġattempting":9455,"Ġbombarded":9456,"ĠInterpre":9457,"Ġdevelop":9458,"Translations":9459,"'('":9460,"+-----+":9461,"predict":9462,"Ġ113":9463,"Ġinvert":9464,"orage":9465,"iment":9466,"plate":9467,"Ġrich":9468,"Ġ011":9469,"000075":9470,"app":9471,"Ġequil":9472,"Ġplaylist":9473,"Ġdivides":9474,"ĠGru":9475,"Ġ`[[":9476,"atory":9477,"->...":9478,"Ġcaptain":9479,"......":9480,"subtract":9481,"Ġtemplate":9482,"ababccc":9483,"ĠTrave":9484,"repeats":9485,"Ġseventh":9486,"Design":9487,"Ġrichest":9488,")}":9489,"games":9490,"amas":9491,"Ġtriv":9492,"Ġprofessor":9493,"ĠData":9494,"Ġapplies":9495,"Ġcorre":9496,"])=[":9497,"Ġbright":9498,"addition":9499,"Ġbackwards":9500,"ĠAttem":9501,"aturday":9502,"Ġlyrics":9503,"ĠKnights":9504,".```":9505,"IG":9506,"friends":9507,"Ġwars":9508,"iton":9509,"Ġfee":9510,"Ġmedi":9511,"Ġded":9512,"cii":9513,"Encode":9514,"ealous":9515,"Ġslowly":9516,"Ġ\"+\"":9517,"Ġconcentr":9518,"ĠPresident":9519,"Give":9520,"NN":9521,"cdd":9522,"ei":9523,"eta":9524,"sequences":9525,"elle":9526,"Ġbold":9527,"colored":9528,"_______":9529,"Ġ256":9530,"EST":9531,"Ġappropri":9532,"[]\"":9533,"spread":9534,"ĠApplication":9535,"repeat":9536,"Ġpsycho":9537,"232":9538,"432":9539,"access":9540,"**)":9541,"istics":9542,"ĠCa":9543,"obile":9544,"ĠRacket":9545,"Ġabca":9546,"ĠDON":9547,"Ġschem":9548,"2345":9549,"cience":9550,"ĠConvert":9551,"Ġpartitioned":9552,"Ġengineers":9553,"bugging":9554,"Ġtypically":9555,"Ġpoliceman":9556,"Ġcategor":9557,"Ġschemes":9558,"Greek":9559,"Solve":9560,"\\}$.":9561,"ban":9562,"efficient":9563,"lat":9564,"ino":9565,"endTime":9566,"ĠXP":9567,"Ġrooted":9568,"leftChild":9569,"Ġidentify":9570,"structions":9571,"contest":9572,"Ġescap":9573,"Ġhighlighted":9574,"Ġabcazbd":9575,"Nor":9576,"cube":9577,"ama":9578,"Ġtool":9579,"Ġlazy":9580,"ĠTable":9581,"ĠWalter":9582,"Ġlover":9583,"means":9584,"draw":9585,"Ġtracks":9586,"366":9587,"AU":9588,"Ġ])":9589,"increasing":9590,"Ġcroak":9591,"Ġfreed":9592,"Ġ366":9593,"Ġ570":9594,"Format":9595,"Ġweak":9596,"Ġ800":9597,"Ġabc":9598,"values":9599,"Ġeveryday":9600,"lexicograph":9601,"351":9602,"3628":9603,"Ġcreature":9604,"Ġeasier":9605,"augh":9606,"Ġcookies":9607,"SubrectangleQueries":9608,"ĠSuper":9609,"ĠApple":9610,"ABCDE":9611,"Triangular":9612,"Ġjuice":9613,"Ġrepetitions":9614,"associative":9615,"del":9616,"Â³":9617,"Ġ})":9618,"ories":9619,"umul":9620,"iki":9621,"aved":9622,"Ġeligible":9623,"Ġpressure":9624,"tune":9625,"ĠArkady":9626,"Ġactivate":9627,"Ġmultisets":9628,"Ġgrandfather":9629,"Ġoffered":9630,"EE":9631,"\\;":9632,"special":9633,"yond":9634,"Ġbeyond":9635,"threshold":9636,"ĠAB":9637,"changed":9638,"Ġ**\"":9639,"creation":9640,"16000075":9641,"ciety":9642,"ierre":9643,"Ġtriangular":9644,"Ġoffset":9645,"gggg":9646,"Ġcircul":9647,"Alternate":9648,"Ġelectrons":9649,"Ġpreparing":9650,"iant":9651,"}^":9652,"Ġtitle":9653,"Ġgat":9654,"Ġ385":9655,"uru":9656,"Ġstorage":9657,"Ġjealous":9658,"hered":9659,"555":9660,"alendar":9661,"cards":9662,"Ġhomepage":9663,"Ġstores":9664,"Ġappended":9665,"Ġintersections":9666,"fection":9667,"Ġsymmetry":9668,"Integer":9669,"Ġpaints":9670,"routes":9671,"ĠTravelling":9672,"Cashier":9673,"Days":9674,"Dee":9675,"HQ":9676,"WA":9677,"nh":9678,"Ġsons":9679,"oda":9680,"ĠMulti":9681,"Ġ121":9682,"Ġtasked":9683,"dec":9684,"ensions":9685,"rossed":9686,"ĠPrincipal":9687,"Ġserves":9688,"content":9689,"Ġpadding":9690,"Ġsorcerer":9691,"Ġbarriers":9692,"Ġuncrossed":9693,"ĠAttempts":9694,"bt":9695,"health":9696,"reat":9697,"Ġsitting":9698,"Ġsummation":9699,"ĠMotu":9700,"Ġafterno":9701,"Ġconsideration":9702,"Ġidx":9703,"Ġcheckpoints":9704,"Ġtopic":9705,"efgh":9706,"Project":9707,"ĠColor":9708,"Ġshuffle":9709,"Ġshortened":9710,"!`,":9711,"Coffee":9712,"Ell":9713,"biguous":9714,"kens":9715,"media":9716,"spl":9717,"Ġints":9718,"Ġ<<":9719,"Ġneck":9720,"Ġchron":9721,"Ġtruly":9722,"elow":9723,"Ġ93":9724,"emic":9725,"2048":9726,"Ġ2016":9727,"Ġmodifiers":9728,"abcb":9729,"Ġoccurring":9730,"afc":9731,"Ġbeginner":9732,"projecteuler":9733,"295":9734,"Ġdeliver":9735,"Ġconvex":9736,"ĠBlack":9737,"Ġpushed":9738,"Ġdiamonds":9739,"Ġchemical":9740,"Ġchronological":9741,"048":9742,"500000":9743,"SVO":9744,"coding":9745,"years":9746,"Ġcert":9747,"isions":9748,"Ġbeast":9749,"ĠKabir":9750,"owerCase":9751,"ĠLDS":9752,"Ġrotated":9753,"Ġscient":9754,"Ġmanip":9755,"shirt":9756,"beast":9757,"Ġtraverse":9758,"ificate":9759,"xxyy":9760,"hoon":9761,"Ġ![](":9762,"|âĸłâĸł|âĸłâĸł|âĸłâĸł|âĸłâĸł":9763,"Ġburner":9764,"Ġfountains":9765,"Ġicecream":9766,"30418":9767,"Ġsnacks":9768,"Ġpotatoes":9769,"Ġcertificate":9770,"$\",":9771,"626":9772,"half":9773,"Ġpubl":9774,"acc":9775,"ĠFull":9776,"ryPartial":9777,"ĠVisit":9778,"Ġfeast":9779,"Comput":9780,"Ġmarking":9781,"Ġmagn":9782,"Ġshifting":9783,"Ġ372":9784,"Ġindepend":9785,"ysis":9786,"ĠTomu":9787,"Ġneckl":9788,"Ġpublished":9789,"Cities":9790,"Specific":9791,"iet":9792,"implement":9793,"Ġ\")":9794,"Ġ95":9795,"itect":9796,"()```.":9797,"ros":9798,"Ġscience":9799,"ables":9800,"iques":9801,"indexOf":9802,"--------------":9803,"Ġfields":9804,"distanceThreshold":9805,"aughter":9806,"Lightsabers":9807,"Own":9808,"]+":9809,"Ġlightsabers":9810,"Ġlimits":9811,"ĠTheir":9812,"YouOwn":9813,"ĠCy":9814,"Ġalarm":9815,"avy":9816,"gratulations":9817,"Ġscr":9818,"Ġknock":9819,"1567":9820,"5729":9821,"Ġfriendly":9822,"283":9823,"produ":9824,"3975":9825,"Ġcrime":9826,"4380":9827,"modulo":9828,"DoYouOwn":9829,"ManyLightsabers":9830,"ĠCOVID":9831,"Ġincredible":9832,"ManyLightsabersDoYouOwn":9833,"420":9834,"]*":9835,"dcba":9836,"Ġsad":9837,"```)":9838,"igning":9839,"Ġ102":9840,"Ġtrains":9841,"1123":9842,"coming":9843,"Ġplot":9844,"ĠRoman":9845,"ĠFriend":9846,"avanya":9847,"ĠDue":9848,"ĠGau":9849,"Ġdonation":9850,"Ġreceiving":9851,"Ġcarried":9852,"Ġreversing":9853,"*.*.":9854,"Ġmainly":9855,"Ġ'-'":9856,"ĠClick":9857,"Ġencountered":9858,"abccba":9859,"Ġappreciate":9860,"Ġepisode":9861,"Ġcirculation":9862,"(?":9863,"Flo":9864,"Lynn":9865,"XY":9866,"wall":9867,"|\",":9868,"Ġtank":9869,"increment":9870,"leport":9871,"Ġparents":9872,"Ġdou":9873,"Ġlvl":9874,"Ġ4444":9875,"ido":9876,"inecraft":9877,"Ġ700":9878,"ĠMc":9879,"ĠMarks":9880,"ĠPur":9881,"ĠPierre":9882,"++++++++++++":9883,"147":9884,"Ġconduct":9885,"666":9886,"Ġcandles":9887,"Ġbrought":9888,"Ġstopping":9889,"926":9890,"-------------------":9891,"AAA":9892,"subpattern":9893,"ĠExt":9894,"12345678":9895,"0987":9896,"ENT":9897,"Ġpotions":9898,"Adam":9899,"triangle":9900,"Ġmilitary":9901,"Ġdecline":9902,"Ġaudience":9903,"ĠâĶĤ":9904,"Li":9905,"Much":9906,"Wo":9907,"cies":9908,"dig":9909,"vdots":9910,"Ġspl":9911,"Ġfailed":9912,"Ġbird":9913,"Ġbatter":9914,"Ġbaby":9915,"Ġreven":9916,"Ġconqu":9917,"ĠNi":9918,"oli":9919,"113":9920,"Ġsubmatrices":9921,"Ġgrad":9922,"Ġcoffee":9923,"Ġmines":9924,"ictly":9925,"afia":9926,"Three":9927,"Ġrelation":9928,"ĠPossible":9929,"References":9930,"Ġboundaries":9931,"Ġfastest":9932,"Probability":9933,"($":9934,"CHEF":9935,"Vel":9936,"due":9937,"home":9938,"lic":9939,"Ġast":9940,"edo":9941,"Ġearly":9942,"Ġhy":9943,"Ġ456":9944,"Ġprote":9945,"ĠBF":9946,"Ġgrains":9947,"Ġresid":9948,"ĠOut":9949,"Ġimperial":9950,"Ġremoval":9951,"Ġ196":9952,"Ġarticle":9953,"ĠObjective":9954,"ĠScenario":9955,"Ġguidelines":9956,"ĠSnackdown":9957,"Ġ\"*\",":9958,")**":9959,"001000":9960,"ĠEm":9961,"ĠHood":9962,"created":9963,"who":9964,"Ġassigns":9965,"Ġsubmit":9966,"Ġcompetitive":9967,"Ġpossibility":9968,"Ġconcerned":9969,"Ġafternoon":9970,"'},":9971,"90011":9972,"ZZ":9973,"fde":9974,"takes":9975,"isArray":9976,"ĠtoString":9977,"align":9978,"acre":9979,"Ġ\"[]\"":9980,"ĠCo":9981,"ĠCases":9982,"ĠCondition":9983,"ĠSing":9984,"ĠTweedle":9985,"Ġ600":9986,"eliod":9987,"Ġuncolored":9988,"switch":9989,"ĠYoung":9990,"Ġsomebody":9991,"2054":9992,"Ġdessert":9993,"eec":9994,"ffa":9995,"Ġmodule":9996,"Ġthrows":9997,"Ġbrown":9998,"responding":9999,"Ġdetermining":10000,"Numberi":10001,"39313":10002,"Ġcomputing":10003,"keyboard":10004,"38366":10005,"7969":10006,"arla":10007,"60014":10008,"Ġdrinks":10009,"ĠfoodItemi":10010,"Ġencryption":10011,"Ġmassacre":10012,"ĠtoLowerCase":10013,"RegExp":10014,"ï¼¿âĸĩ":10015,"Ġreservo":10016,"eliodas":10017,"3836660014":10018,"dm":10019,"space":10020,"}\"":10021,"Ġsaf":10022,"itz":10023,"Ġseq":10024,"ĠTem":10025,"Ġwhatever":10026,"Congratulations":10027,"Ġclassmates":10028,"Ġdragons":10029,"Ġtopmost":10030,"Ġ;)*":10031,"PLE":10032,"???":10033,"interesting":10034,"Ġcompletes":10035,"Ġassistant":10036,"Ġcredit":10037,"6200":10038,"ADE":10039,"four":10040,"ws":10041,"yle":10042,"inci":10043,"ĠaN":10044,"leased":10045,"unday":10046,"Ġprinci":10047,"ĠNatural":10048,"ĠSplitting":10049,"Ġbyte":10050,"ĠMachine":10051,"ĠChefina":10052,"5735":10053,"193":10054,"1236":10055,"5583":10056,"9793":10057,"rectangular":10058,"4562":10059,"71194":10060,"Ġclimb":10061,"Ġparses":10062,"156709":10063,"!_":10064,")}{":10065,"papers":10066,"safe":10067,"Ġcin":10068,"edcb":10069,"state":10070,"Ġ321":10071,"term":10072,"ĠIahub":10073,"abled":10074,"ffff":10075,"Ġhelper":10076,"minutes":10077,"submatrices":10078,"Ġbillion":10079,"ology":10080,"regular":10081,"Ġcapt":10082,"difference":10083,"Ġathlete":10084,"Ġarchitect":10085,"#.":10086,"Hero":10087,"bark":10088,"oons":10089,"|`":10090,"Ġahead":10091,"Ġcontainer":10092,"Ġchip":10093,"Ġ'@":10094,"apper":10095,"wwww":10096,"ĠWill":10097,"ĠLi":10098,"Ġquot":10099,"Ġmanaged":10100,"Ġencount":10101,"Ġballoons":10102,"Ġcouldn":10103,"bcdd":10104,"Ġdimensional":10105,"Ġmountains":10106,"Ġtechnique":10107,"Ġencounters":10108,"Sw":10109,"eo":10110,"wrr":10111,"yt":10112,"erase":10113,"seud":10114,"ĠPair":10115,"ĠFizz":10116,"241":10117,"Ġregions":10118,"Ġalternately":10119,"Ġrestriction":10120,"Ġclaims":10121,"esterday":10122,"produces":10123,"'```.":10124,"Duplications":10125,"FC":10126,"Four":10127,"Land":10128,"Over":10129,"nin":10130,"nish":10131,"Ġapo":10132,"onian":10133,"itam":10134,"anal":10135,"annel":10136,"Ġpump":10137,"Ġdict":10138,"Ġ[('":10139,"Ġgender":10140,"Ġ-=":10141,"ĠAccording":10142,"Ġvia":10143,"Ġseed":10144,"ĠNon":10145,"Ġchannel":10146,"ĠSQL":10147,"Ġnoted":10148,"apol":10149,"elvin":10150,"Ġsociety":10151,"ĠHole":10152,"ĠKo":10153,"ovichik":10154,"\")`":10155,"4012":10156,"1769":10157,"english":10158,"Health":10159,"Separate":10160,"Ġextrapol":10161,"Ġrearranging":10162,"multiples":10163,"FFFF":10164,"camel":10165,"Ġpurchase":10166,"Ġpurchases":10167,"ĠGeorge":10168,"âĸ¡âĸ¡âĸ¡âĸ¡":10169,"CODE":10170,"yzyz":10171,"Intervals":10172,"Ġpushes":10173,"++++++++++++++++++++++++++++++++++++++++++++++++++++++++++++++++++++++++++++++++++++++++++++++++++++++++++++":10174,"ayeon":10175,"alalovichik":10176,"itamy":10177,"584":10178,"aN":10179,"gain":10180,"oz":10181,"reet":10182,"Ġinfo":10183,"Ġeuropean":10184,"Ġ$\"":10185,"Ġ`.`":10186,"\",[":10187,"Ġexchange":10188,"ĠTzuyu":10189,"Ġhears":10190,"Ġ71":10191,"Ġcoprime":10192,"Ġcomplement":10193,"Ġunbroken":10194,"ĠRo":10195,"ĠLogical":10196,"():":10197,"ĠtargetGrid":10198,"Ġ163":10199,"1415":10200,"Ġolder":10201,"ordered":10202,"Ġwatching":10203,"Ġconsonant":10204,"Ġdemonstrated":10205,"Ġhierarchy":10206,"Ġsplits":10207,"\"}":10208,"7162":10209,"Ac":10210,"Afr":10211,"Sally":10212,"cup":10213,"nl":10214,"Ġok":10215,"lent":10216,"Ġbooleans":10217,"alary":10218,"sticks":10219,"Ġhum":10220,"Ġ\"????":10221,"Ġrid":10222,"bles":10223,"ĠCL":10224,"ĠCrystal":10225,"ĠSplit":10226,"Ġhasn":10227,"Ġunicode":10228,"ĠWin":10229,"urred":10230,"Ġ,`":10231,"!!!!\"":10232,"Ġdepart":10233,"Ġspeeds":10234,"Ġproduced":10235,"2009":10236,"Ġ123456789":10237,"âĻĻ":10238,"âĻŁ":10239,"curryPartial":10240,"7389":10241,"ancing":10242,"98764":10243,"Ġresistor":10244,"Ġapplications":10245,"CoffeeScript":10246,"!`.":10247,"Ġsorts":10248,"ams":10249,"Ġdream":10250,"Initial":10251,"formance":10252,"finity":10253,"Ġinscribe":10254,"keep":10255,"Ġopened":10256,"ĠParty":10257,"Ġearliest":10258,"Ġcollisions":10259,"GCD":10260,"ĠStep":10261,"Ġscholarship":10262,"calculator":10263,"ĠMean":10264,"Ġcoders":10265,")](":10266,"0600":10267,"0351":10268,"3201":10269,"51000":10270,":),":10271,"=)":10272,"Katas":10273,"QR":10274,"Up":10275,"\\\"](":10276,"^\",\"":10277,"aft":10278,"cca":10279,"dc":10280,"ocale":10281,"speak":10282,"yg":10283,"}\"](":10284,"Ġtalk":10285,"--(?":10286,"onstruction":10287,"Ġcbr":10288,"Ġpitch":10289,"edea":10290,"Ġdinner":10291,"Ġ[]]":10292,"plier":10293,"ceaef":10294,"ĠfromChar":10295,"Ġsubstr":10296,"Ġjars":10297,"00031":10298,"00097":10299,"000999":10300,"000453":10301,"000837":10302,"000793":10303,"Ġunshift":10304,"Ġsingular":10305,"swap":10306,"ĠLand":10307,"toUpperCase":10308,"Ġcolon":10309,"ĠindexOf":10310,"ĠlastIndex":10311,"Ġoutcomes":10312,"5727":10313,"57353":10314,"57238":10315,"573975":10316,"eeper":10317,"4500031":10318,"Ġdeconstruction":10319,"aafb":10320,"1861":10321,"44001000":10322,"const":10323,"Ġtraveling":10324,"59564":10325,"Ġcargo":10326,"9223":10327,"693000":10328,"ĠĠĠĠĠĠĠĠĠĠĠĠĠĊ":10329,"Ġconditional":10330,"390011":10331,"charAt":10332,"9791":10333,"970002":10334,"Ġattention":10335,"ĠProlog":10336,"840004":10337,"4000010":10338,".\";":10339,"6831":10340,"680009":10341,"cfa":10342,"573156709":10343,"5731861":10344,"57359564":10345,"57216":10346,"57277":10347,"07363":10348,"51450":10349,"46128":10350,"46000793":10351,"!)](":10352,"Training":10353,"Ġimmediate":10354,"300001":10355,"4001236":10356,"--\"?\",":10357,"--\"|\",":10358,"--\"\\\"](":10359,"--\"^\",\"":10360,"effabb":10361,"7000603":10362,"57284":10363,"5728203":10364,"5728048":10365,"50000626":10366,"6000560":10367,"ĠhelloWorld":10368,"Ġ\"()\"](":10369,"500032":10370,"ĠreduceRight":10371,"71175":10372,"ĠtoLocale":10373,"Ġ\"{}\"](":10374,"âĨĳâĨĳ":10375,"57202":10376,"572059":10377,"dcec":10378,"dcebe":10379,"aefe":10380,"Ġ(?=)":10381,"Ġ(?!)](":10382,"573023":10383,"5730854":10384,"8118511":10385,"001012":10386,"9008":10387,"20173000":10388,"ĠâĨĳâĨĳâĨĳ":10389,"ĠcharCodeAt":10390,"8000564":10391,"2643628":10392,"dffc":10393,"03300101":10394,"416000999":10395,"514300001":10396,"812000837":10397,"485000453":10398,"splice":10399,"283129":10400,"900119":10401,"fdeb":10402,"ĠConditional":10403,"796914":10404,"6200162":10405,"0600107":10406,"ccaeb":10407,"--(?:),":10408,"Ġcbrt":10409,"ĠfromCharCode":10410,"000971":10411,"ĠlastIndexOf":10412,"57274562":10413,"693000139":10414,"39001173":10415,"84000429":10416,"5735956413":10417,"4612825000":10418,"--\"^\",\"$\",":10419,"57280481":10420,"ĠtoLocaleString":10421,"57308546":10422,"264362806":10423,",`":10424,"DM":10425,"TA":10426,"aabcabc":10427,"Ġ145":10428,"enery":10429,"Ġrese":10430,"ĠsuccProb":10431,"apan":10432,"ilson":10433,"Ġcharge":10434,"ĠCurrently":10435,"etspeak":10436,"327":10437,"column":10438,"12312":10439,"Thanks":10440,"âĢĻ,":10441,"Ġexisting":10442,"armot":10443,"aababca":10444,"ĠBeing":10445,"Ġsuccessive":10446,"Ġinserted":10447,"Ġfilling":10448,"rested":10449,"aabcabcab":10450,"aababcaab":10451,"0100":10452,"Fennec":10453,"Zonal":10454,"edoc":10455,"ifies":10456,"Ġleagues":10457,"ĠNov":10458,"Ġframes":10459,"changes":10460,"##.":10461,"ĠmaxCost":10462,"ĠFun":10463,"Ġdistrict":10464,"ateral":10465,"ccessive":10466,"location":10467,"ĠArgument":10468,"mbols":10469,"Ġmonotonic":10470,"Ġraise":10471,"Ġcombat":10472,"ĠComputing":10473,"Ġlegendary":10474,"ĠPeople":10475,"Dictionary":10476,"huv":10477,"ye":10478,"âĤ":10479,"Ġinf":10480,"007":10481,"Exclusive":10482,"Ġgate":10483,"ĠSpeed":10484,"ĠTweet":10485,"Ġ654321":10486,"roha":10487,"Ġpermiss":10488,"Ġchecked":10489,"ĠPoint":10490,"Ġamongst":10491,"brown":10492,"ombie":10493,"Ġdiscuss":10494,"operation":10495,"Ġescape":10496,"Ġclearly":10497,"Indian":10498,"manga":10499,"simplify":10500,"Takahashi":10501,"seudo":10502,"huvan":10503,"$\"":10504,"Aoki":10505,"Build":10506,"Ġfash":10507,"orious":10508,"icow":10509,"irk":10510,"Ġrisk":10511,"Ġ510":10512,"Ġtran":10513,"Ġsubmatrix":10514,"ckro":10515,"Ġ843":10516,"ĠDinnerPlates":10517,"Ġturning":10518,"ogam":10519,"leetmin":10520,"Ġdelicious":10521,"ĠpopAtStack":10522,"Ġdestroying":10523,"Ġservers":10524,"iamonds":10525,"ĠNorth":10526,"bcbcbc":10527,"ĠTriangular":10528,"Ġcyclic":10529,"damaged":10530,"Ġfashion":10531,"icowor":10532,"ckroach":10533,"leetminicowor":10534,"964":10535,"nb":10536,"Ġdull":10537,"ceo":10538,"ĠBan":10539,"Ġunfinished":10540,"Ġquarter":10541,"ĠDa":10542,"Ġturnover":10543,"Although":10544,"aabaa":10545,"ĠAndrew":10546,"mmm":10547,"Ġevaluates":10548,"Ġinternal":10549,"Ġrocks":10550,"Ġanaly":10551,"SAFE":10552,"Ġmolecule":10553,"alternating":10554,"Ġlectures":10555,"ALD":10556,"Ben":10557,"Cro":10558,"Fuel":10559,"Freq":10560,"Freud":10561,"Gaid":10562,"Id":10563,"Joe":10564,"Lau":10565,"Messi":10566,"Names":10567,"Sereja":10568,"Tere":10569,"Terv":10570,"Vite":10571,"Valk":10572,"Witamy":10573,"`^(":10574,"aBC":10575,"cxx":10576,"czech":10577,"dart":10578,"dish":10579,"dxx":10580,"flem":10581,"french":10582,"gcc":10583,"german":10584,"houses":10585,"haps":10586,"humanYears":10587,"jte":10588,"komen":10589,"lith":10590,"mole":10591,"nabcd":10592,"nmnop":10593,"npon":10594,"polish":10595,"tumb":10596,"vian":10597,"women":10598,"wait":10599,"Äħ":10600,"ÄĻ":10601,"ÅĤ":10602,"ÅĦ":10603,"heit":10604,"Ġcelsius":10605,"isUpperCase":10606,"eso":10607,"Ġppg":10608,"arren":10609,"ariton":10610,"Ġtoal":10611,"ommen":10612,"etulo":10613,"etris":10614,"Ġgim":10615,"ĠhumanYears":10616,"Ġbeat":10617,"Ġconfect":10618,"sex":10619,"irish":10620,"igs":10621,"estonian":10622,"olled":10623,"Ġchicken":10624,"ĠSaint":10625,"Ġalligator":10626,"Ġ'(-":10627,"gekomen":10628,"chases":10629,"__(":10630,"axx":10631,"perimeter":10632,"lemast":10633,"Ġ910":10634,"loss":10635,"ĠKefa":10636,"forth":10637,"Ġindeed":10638,"ĠLance":10639,"ĠDuplications":10640,"ĠupSpeed":10641,"venuto":10642,"Ġdesires":10643,"Ġcorrupt":10644,"ĠGu":10645,"ĠGCD":10646,"finnish":10647,"3284":10648,"Ġwouldn":10649,"Ġgroupings":10650,"deF":10651,"upcase":10652,"Ġdigitised":10653,"ĠUS":10654,"Ġrunway":10655,"Ġ3025":10656,"ifting":10657,"ĠConor":10658,"Ġmarker":10659,"Ġdefense":10660,"ahren":10661,"inputArray":10662,"ĠhorMirror":10663,"97632":10664,"kiamas":10665,"coins":10666,"italian":10667,"sortNumbers":10668,"INVALID":10669,"Ġtulemast":10670,"Ġcakewalk":10671,"Ġselecting":10672,"Ġnightly":10673,"Ġpaperwork":10674,"ACSKLDFJS":10675,"monkey":10676,"downSpeed":10677,"evaporator":10678,"howMuch":10679,"Welkom":10680,"Welgekomen":10681,"Ġunlocked":10682,"Ġmango":10683,"IsUpperCase":10684,"desired":10685,"komst":10686,"kommen":10687,"KLDFJ":10688,"Gregor":10689,"Ġrental":10690,"options":10691,"Ġipv":10692,"---|---":10693,"9873":10694,"Ġcuboids":10695,"Divisible":10696,"Willkommen":10697,"Ġguideline":10698,"Ġbuckets":10699,"mango":10700,"Ġmolecules":10701,"Bienvenue":10702,"Bienvenido":10703,"SKLDFJSKLDFJ":10704,"welsh":10705,"Ġyields":10706,"566797":10707,"litres":10708,"Ġelevators":10709,"Failte":10710,"+------|":10711,"Ġcruo":10712,"977665":10713,"uanian":10714,"Ġschema":10715,"63729":10716,"inguish":10717,"Ġpsychoanal":10718,"ĠDONALD":10719,"latvian":10720,"nhgfe":10721,"ĠMcGregor":10722,"ĠPurchases":10723,"Velkomst":10724,"17693284":10725,"nlkji":10726,"98764321":10727,"Benvenuto":10728,"Croeso":10729,"Gaidits":10730,"Laukiamas":10731,"Tervetulo":10732,"Vitejte":10733,"Valkommen":10734,"aBCdeF":10735,"flemish":10736,"lithuanian":10737,"nponm":10738,"tumblr":10739,"arrenhal":10740,"Ġgimme":10741,"ĠLancelot":10742,"ahrenheit":10743,"howMuchWater":10744,"Tervetuloa":10745,"*..":10746,"title":10747,"oting":10748,"impossible":10749,"entence":10750,"Ġalgebra":10751,"ĠON":10752,"Ġ122":10753,"âĢĵ":10754,"322":10755,"eads":10756,"ppend":10757,"Ġ365":10758,"Ġdistributions":10759,"going":10760,"Ġdefeat":10761,"ĠRecently":10762,"Ġassemble":10763,"360":10764,"989":10765,"BG":10766,"Crested":10767,"Dutch":10768,"Drop":10769,"Hook":10770,"Hindi":10771,"IRE":10772,"Mall":10773,"Pil":10774,"Richik":10775,"Toul":10776,"WU":10777,"rains":10778,"zona":10779,"}:":10780,"Ġczech":10781,"Ġtoddy":10782,"vernment":10783,"ĠBolt":10784,"abit":10785,"ĠII":10786,"rizona":10787,"Ġcoke":10788,"ĠMichael":10789,"Ġgovernment":10790,"Ġrepublic":10791,"grim":10792,"ĠJason":10793,"ĠVanja":10794,"beads":10795,"10005":10796,"ĠLetter":10797,"Ġ!!\"`":10798,"Ġ---->":10799,"disarium":10800,"ĠTeens":10801,"ĠAdults":10802,"anchor":10803,"ĠSwedish":10804,"uniTotal":10805,"ĠunluckyDays":10806,"generate":10807,"Ġtextbooks":10808,"ĠManhattan":10809,"Ġwhisky":10810,"Ġfulfill":10811,"Ġhonor":10812,"STRONG":10813,"Weekday":10814,"hostname":10815,"African":10816,"Mallard":10817,"Pilgrim":10818,"Toulouse":10819,"disariumNumber":10820,")],":10821,"OD":10822,"|----------------":10823,"Â°":10824,"Ġty":10825,"Ġter":10826,"Ġbot":10827,"Ġreleased":10828,"ĠAA":10829,"Ġruby":10830,"orem":10831,"rib":10832,"Ġdebug":10833,"aging":10834,"ĠInstead":10835,"Ġmanual":10836,"Ġchecking":10837,"Ġreversal":10838,"ĠĠĠĠĠĠĠĠĠĠĠĠĠĠĊ":10839,"BBBB":10840,"limited":10841,"affic":10842,"Ġforgotten":10843,"Peaks":10844,"pening":10845,"Ġoccurence":10846,"Ġcoincide":10847,"Ġasterisk":10848,"Aj":10849,"`?":10850,"bits":10851,"bag":10852,"nay":10853,"oard":10854,"pile":10855,"Ġhors":10856,"Ġroof":10857,"Ġrabbit":10858,"Ġtimbers":10859,"ĠgetTweetCountsPerFrequency":10860,"Ġaboard":10861,"toLeet":10862,"dden":10863,"Ġoperated":10864,"grou":10865,"Ġdragon":10866,"ĠupperCase":10867,"ĠLeetspeak":10868,"Ġprocessed":10869,"discount":10870,"ĠrecordTweet":10871,"different":10872,"Orld":10873,"Ġbucket":10874,"doesn":10875,"ĠLeetSpeak":10876,"Ġmedians":10877,"ĠTweetCounts":10878,"monkeyCount":10879,"Ġhorses":10880,"toLeetSpeak":10881,"According":10882,"KS":10883,"Man":10884,"life":10885,"wins":10886,"yu":10887,"Ġyard":10888,"Ġ010":10889,"Ġ528":10890,"ĠBrit":10891,"Ġsubway":10892,"Ġhashtag":10893,"Ġupv":10894,"Ġseeing":10895,"Ġprocesses":10896,"comma":10897,"Ġspells":10898,"Ġjoined":10899,"berry":10900,"Ġtowers":10901,"ĠIndex":10902,"LeetCode":10903,"'-'":10904,"ĠJobs":10905,"369":10906,"700":10907,"9111111111111":10908,"Zz":10909,"aiting":10910,"ggle":10911,"sale":10912,"Ġtunnel":10913,"Ġaware":10914,"utations":10915,"Ġfences":10916,"aste":10917,"Ġdart":10918,"Ġdaughter":10919,"Ġhidden":10920,"Ġ4884":10921,"ĠNational":10922,"strictly":10923,"Ġ726":10924,"ĠMastercard":10925,"ĠHill":10926,"ĠDiscover":10927,"CheckAlive":10928,"Ġ{[":10929,"1881":10930,"Ġevening":10931,"ĠVISA":10932,"407":10933,"2463":10934,"60111111111111":10935,"Imagine":10936,"Ġ`{\"":10937,"Ġ371":10938,"Ġ998244353":10939,"âĢĿ.":10940,"squared":10941,"checkAlive":10942,"display":10943,"\\_\\_":10944,"Ġborrow":10945,"iolet":10946,"ĠLuckily":10947,"Ġnormally":10948,"Ġwonders":10949,"****************":10950,"2822463":10951,"Ġforgot":10952,"ĠAMEX":10953,"4111111111111111":10954,"5105105105105100":10955,"5105105105105106":10956,"Ġ477557101":10957,"3782822463":10958,"888888881881":10959,"Ġdefinitions":10960,"xxyyzz":10961,"ADER":10962,"4012888888881881":10963,"mangaar":10964,"9111111111111111":10965,"6011111111111117":10966,"378282246310005":10967,"\"],[":10968,"\"...":10969,"Eat":10970,"Ġdark":10971,"ality":10972,"Ġlaser":10973,"Ġord":10974,"Ġsudden":10975,"00001":10976,"obby":10977,"gests":10978,"Ġconnections":10979,"Ġcontribute":10980,"ĠAnn":10981,"Ġactive":10982,"Ġidentifier":10983,"ĠâĪĪ":10984,"uniq":10985,"Ġsuggests":10986,"Starting":10987,"Ġappropriate":10988,"CI":10989,"Dum":10990,"JF":10991,"Out":10992,"RLD":10993,"UE":10994,"fs":10995,"nastya":10996,"rich":10997,"sas":10998,"}\\,":10999,"inav":11000,"Ġcure":11001,"Ġdoo":11002,"Ġgamet":11003,"Ġsharp":11004,"\",\"#\",\"#\",\"":11005,"exponent":11006,"Ġdosas":11007,"ĠLumpy":11008,"ĠFried":11009,"ĠĠĠĠĠĠĠĠĠĠĠĠĠĠĠĠĠĠĠĠĠĠĠĠĠĠĠĠĠ":11010,"ĠIntern":11011,"Ġscooby":11012,"Ġzyg":11013,"ĠJapan":11014,"2415":11015,"Ġbridge":11016,"Ġprogrammers":11017,"eading":11018,"547":11019,"Ġdepartment":11020,"Ġsnoopy":11021,"Ġserial":11022,"Ġcentroid":11023,"digitsum":11024,"Ġ[\"#\",\".\",\"":11025,"Ġ[\"#\",\".\",\".\",\"":11026,"Ġmajority":11027,"Ġpenal":11028,"ĠIPv":11029,"Ġjewelry":11030,"wbwb":11031,"ogametic":11032,"Ġgametes":11033,"\",\"#\",\"#\",\"#\",\"#\"],":11034,"ĠFriedrich":11035,"Ġzygote":11036,"Bit":11037,"Does":11038,"RA":11039,"block":11040,"edn":11041,"Ġconv":11042,"ĠABC":11043,"Ġlemon":11044,"ĠTHE":11045,"Ġcontact":11046,"Ġdrawn":11047,"Ġdiameter":11048,"corresponding":11049,"Ġshuffles":11050,"ĠCLOS":11051,"Condition":11052,"aB":11053,"dz":11054,"satisf":11055,"Ġcrystal":11056,"Ġpseudo":11057,"Ġmes":11058,"teen":11059,"Ġ\".":11060,"```[":11061,"ĠAshish":11062,"Ġrings":11063,"Ġascii":11064,"Ġchalk":11065,"allfuck":11066,"abr":11067,"exclusive":11068,"Ġvalidation":11069,"888":11070,"ĠChristmas":11071,"--------------------------":11072,"[['":11073,"Ġtimestamps":11074,"distribute":11075,"Ġpolydivisible":11076,"Ġ`-`":11077,"Ġsuccessful":11078,"Ġannual":11079,"Ġmaintaining":11080,"134679":11081,"535":11082,"Access":11083,"SP":11084,"hue":11085,"qz":11086,"Ġsaves":11087,"Ġbx":11088,"Ġdied":11089,"ĠNayeon":11090,"ĠCD":11091,"allow":11092,"ababa":11093,"ague":11094,"Ġemits":11095,"Ġresultum":11096,"---+":11097,"âĢĶâĢĶ":11098,"Ġrecords":11099,"Ġcorrespondingly":11100,"Ġmaximise":11101,"keyTime":11102,"Ġseverity":11103,"Ġvaro":11104,"Adds":11105,"ĠAbout":11106,"amentum":11107,"Ġsubstitut":11108,"Current":11109,"English":11110,"Ph":11111,"lar":11112,"take":11113,"Ġ--------------------------------":11114,"Ġhired":11115,"Ġhope":11116,"Ġsections":11117,"2311":11118,"ĠVector":11119,"Ġparking":11120,"Ġcomments":11121,"Ġfeature":11122,"ĠĠĠĠĠĠĠĠĠĠĠĠĠĠĠĠĠĠĠĠĠĠĠĠĠĠĠĠĠĠĠĠĠĠĠ":11123,"Tozan":11124,"Ġextract":11125,"ĠComplete":11126,"Ġrequested":11127,"Ġ.....":11128,"Ġdynamic":11129,"LIST":11130,"$%":11131,"called":11132,"pay":11133,"})$":11134,"Ġrecon":11135,"Ġwilling":11136,"ĠEng":11137,"()`.":11138,"Ġendpoint":11139,"Ġcompiler":11140,"Strings":11141,"Ġputting":11142,"mystery":11143,"although":11144,"Ġcarrying":11145,"Ġespecially":11146,"Ġobserved":11147,"bottom":11148,"Hare":11149,"Square":11150,"kas":11151,"kite":11152,"}|":11153,"Ġovers":11154,"Ġcups":11155,"ĠwOrld":11156,"Ġbisc":11157,"aration":11158,"ĠCost":11159,"ĠClass":11160,"Ġresp":11161,"Ġ2048":11162,"Ġmanage":11163,"Ġ...),":11164,"Ġworried":11165,"Ġcountries":11166,"ĠYalalovichik":11167,"LLo":11168,"Ġrelatives":11169,"Ġsky":11170,"HeLLo":11171,"66667":11172,"Ġestab":11173,"ĠWoRLD":11174,"EllO":11175,"Ġresidents":11176,"Easy":11177,"fg":11178,"tie":11179,"west":11180,"zy":11181,"Ġyell":11182,"strop":11183,"++.":11184,"Ġdocum":11185,"Ġresources":11186,"Ġ//=>":11187,"Ġstartup":11188,"Ġworse":11189,"eee":11190,"Ġflag":11191,"Ġwindows":11192,"Ġvoting":11193,"Divisor":11194,"Ġappreciated":11195,"Ġsequentially":11196,"Ġmusic":11197,"Ġharvested":11198,":-":11199,"]}`":11200,"nces":11201,"tail":11202,"}~\\":11203,"Ðµ":11204,"omon":11205,"Ġlights":11206,"Ġkv":11207,"abe":11208,"respect":11209,"codechef":11210,"Ġspoon":11211,"Ġsomewhere":11212,"995":11213,"Ġappr":11214,"ĠGC":11215,"Ġ($-":11216,"100001":11217,"342":11218,"Ġ[]}`.":11219,"finitely":11220,"worker":11221,"Ġvectors":11222,"Ġperiods":11223,"aja":11224,"Ġstaircases":11225,"Ġclarification":11226,"Ġplateau":11227,"Ġ84100":11228,"Ġscholarships":11229,"Ġflasks":11230,"pickPeaks":11231,"Ġmedal":11232,"LP":11233,"hard":11234,"Ġtokens":11235,"starts":11236,"Ġhal":11237,"ĠMon":11238,"ĠMole":11239,"Ġ1001":11240,"Ġ2012":11241,"Ġ153":11242,"Ġdecor":11243,"Ġpermitted":11244,"Ġinstant":11245,"Impossible":11246,"Ġredundant":11247,"Choosing":11248,"klm":11249,"iano":11250,"ABA":11251,"xxxxxx":11252,"ĠClub":11253,"meaning":11254,"Ġducks":11255,"IGHT":11256,"Ġcapture":11257,"Lu":11258,"ium":11259,"tm":11260,"ĠÃ":11261,"Ġlone":11262,"Instead":11263,"ĠCap":11264,"ĠHaving":11265,"...)":11266,"202":11267,"Ġ2013":11268,"bef":11269,"Ġdestroys":11270,"consider":11271,")=\\":11272,"Black":11273,"Single":11274,"âĻĻâĻĻ":11275,"âĻŁâĻŁ":11276,"Ġpenalty":11277,"Equ":11278,"Oper":11279,"gl":11280,"lines":11281,"inch":11282,"ouring":11283,"Ġ`^":11284,"Ġchains":11285,"Ġaligned":11286,"Ġplat":11287,"ĠWords":11288,"ublish":11289,"Ġkeywords":11290,"Ġrealize":11291,"Ġ1234567":11292,"Ġcompleting":11293,"ĠProgram":11294,"Characters":11295,"ĠNegative":11296,"computed":11297,"Ġconcentration":11298,"Ġrespons":11299,".).":11300,":$":11301,"<>":11302,"Logical":11303,"Row":11304,"WIN":11305,"fights":11306,"gas":11307,"kr":11308,"norm":11309,"pics":11310,"|-----":11311,"iny":11312,"umes":11313,"Ġ-**":11314,"irts":11315,"Ġpock":11316,"rip":11317,"loves":11318,"ĠPar":11319,"ĠDead":11320,"Ġoperands":11321,"ĠOff":11322,"-----------":11323,"acteria":11324,"Ġenumer":11325,"149":11326,"plicative":11327,"Ġfeels":11328,">>>>>":11329,"Ġpresentation":11330,"Ġ361":11331,"nesses":11332,"Ġfighting":11333,"Ġcarefully":11334,"0111001":11335,"Ġ12345678901234567890":11336,"AABAB":11337,"ungeon":11338,"enerys":11339,"longest":11340,"Ġtab":11341,"ony":11342,"Ġfoc":11343,"Ġ09":11344,"Ġtrace":11345,"ilon":11346,"iffer":11347,"Ġ[[],[":11348,"Ġdesigned":11349,"4096":11350,"Ġdetailed":11351,"organ":11352,"Rearr":11353,"Ġradix":11354,"Ġkilled":11355,"Ġexpectation":11356,"UND":11357,"Ġsugar":11358,"Ġhyper":11359,"-',":11360,"Num":11361,"eq":11362,"glass":11363,"now":11364,"Ġsaving":11365,"Ġcry":11366,"animal":11367,"Ġtooth":11368,"Ġhoop":11369,"Ġtruck":11370,"ĠBinary":11371,"ĠLavanya":11372,"Ġtimebased":11373,"Ġ120000":11374,"Ġ{}":11375,"Ġ(\"\").":11376,"Ġhomework":11377,"Ġpictures":11378,"Ġswim":11379,",\"\",\"":11380,"Ġshopping":11381,"Ġderiv":11382,"Green":11383,"ĠInterval":11384,"ĠImplement":11385,"combined":11386,"ĠRoom":11387,"*(-":11388,"359":11389,"Fizz":11390,"Vowel":11391,"hon":11392,"rance":11393,"anter":11394,"unless":11395,"ĠNaturally":11396,"about":11397,"ĠDef":11398,"crease":11399,"ansion":11400,"Ġdisappear":11401,"decode":11402,"Ġopens":11403,"derscore":11404,"Ġ------":11405,"Compute":11406,"Down":11407,"Ġtd":11408,"itement":11409,"orrow":11410,"thus":11411,"Ġ0110":11412,"Ġpole":11413,"aded":11414,"Ġtraffic":11415,"above":11416,"ĠRichik":11417,"ĠKarl":11418,"illed":11419,"grumpy":11420,"24142":11421,"24241":11422,"oubles":11423,"trips":11424,"END":11425,"Ġincrementing":11426,"Ġelectric":11427,"Ġexcitement":11428,"3242415":11429,"Ġleftover":11430,"Ġsensors":11431,"candies":11432,"231132":11433,"JC":11434,"dot":11435,"mid":11436,"Ġeel":11437,"quis":11438,"Ġrats":11439,"Ġshops":11440,"///":11441,"ĠjL":11442,"ĠjR":11443,"apu":11444,"ĠiL":11445,"ĠiR":11446,"ĠWord":11447,"ĠHarrenhal":11448,"ĠLord":11449,"ude":11450,"ignore":11451,"Ġcompared":11452,"ĠSoChef":11453,"Ġbraces":11454,"1730418":11455,"ĠThomas":11456,"Ġspecialization":11457,"Ġmillimeter":11458,"build":11459,"ĠSofloats":11460,"achel":11461,"ĠMiksi":11462,"destruct":11463,"Ġannounced":11464,"Ġzebra":11465,"Ġhyphens":11466,"inguishable":11467,"destructing":11468,"Fr":11469,"Fro":11470,"cabac":11471,"eet":11472,"}]$":11473,"âĦ":11474,"heme":11475,"Ġcarrot":11476,"acd":11477,"Ġgains":11478,"Ġ345":11479,"icing":11480,"import":11481,"Ġ441":11482,"ĠAnother":11483,"iron":11484,"Ġviolet":11485,"Ġ1010":11486,"ĠCook":11487,"118":11488,"axy":11489,"ĠnewValue":11490,"Ġendless":11491,"Ġmultiplier":11492,"609":11493,"OfFro":11494,"scheme":11495,"ĠSubrectangleQueries":11496,"Ġindividually":11497,"Ġeffective":11498,"Ġprinciples":11499,"Ġhumans":11500,"Ġdartboard":11501,"âĦ¢":11502,"OfFrogs":11503,"Squ":11504,"UG":11505,"}].":11506,"Ġinversions":11507,"Ġsem":11508,"well":11509,"ĠRohit":11510,"2016":11511,"Ġ12321":11512,"323":11513,"Ġincrements":11514,"Ġredist":11515,"ĠChamp":11516,"348":11517,"urrence":11518,"substring":11519,"ĠUnivers":11520,"Additionally":11521,"yyyy":11522,"Ġtyped":11523,"%,":11524,":'":11525,"Brian":11526,"kip":11527,"lam":11528,"Ġcartesian":11529,"Ġfired":11530,"Ġpins":11531,"Ġ240":11532,"acem":11533,"achines":11534,"Ġvary":11535,"Ġbytes":11536,"ĠBY":11537,"Ġalmost":11538,"experience":11539,"_{|":11540,"Ġ[[]],":11541,"uesday":11542,"Ġrepetition":11543,"Ġdigital":11544,"2222":11545,"190":11546,"imited":11547,"procs":11548,"Ġprovides":11549,"Ġmisspe":11550,"Ġdoubles":11551,"Ġmetres":11552,"ĠProcs":11553,"circle":11554,"ĠSpaces":11555,"aacaba":11556,"flatten":11557,"SEVEN":11558,"],[],[],[],[],[]],":11559,"Ġbelieves":11560,"acements":11561,"*/":11562,"830":11563,"Collatz":11564,"mol":11565,"Ġaij":11566,"esar":11567,"Ġdungeon":11568,"##..":11569,"sitions":11570,"andhi":11571,"Ġ[\"\",":11572,"formation":11573,"Ġ201":11574,"Ġflav":11575,"Ġthroughout":11576,"Ġmagnet":11577,"distribution":11578,"ABAB":11579,"Ġcooks":11580,"âĻ¦":11581,"Ġrestaurants":11582,"RRRR":11583,"Ġdeclared":11584,"Ġequilateral":11585,"Beg":11586,"Jeff":11587,"\\/\\\\\\":11588,"fers":11589,"jump":11590,"lad":11591,"poll":11592,"vv":11593,"onucle":11594,"Ġbacteria":11595,"Ġresearch":11596,"Ġgen":11597,"entagonal":11598,"tery":11599,"ĠSold":11600,"amele":11601,"+++":11602,"ĠPerson":11603,"nect":11604,"ourse":11605,"Ġnewline":11606,"vens":11607,"10011011":11608,"Ġkeypad":11609,"ĠJen":11610,"Ġmodulus":11611,"Ġinterior":11612,"])=\\":11613,"Ġacron":11614,"Ġabsolutely":11615,"Ġpatterns":11616,"leetcodeleetcode":11617,"progress":11618,"Ġnotebook":11619,"Ġpressing":11620,"greater":11621,"kyu":11622,"recogn":11623,"ĠReverse":11624,"Ġconfused":11625,"01110011011":11626,"ĠRamsay":11627,"Ġnucleic":11628,"Ġgeometry":11629,"Ġ'+'":11630,"*!>":11631,"Ġorbital":11632,"WAIT":11633,"ĠMultiply":11634,"Ġnecklace":11635,"Ġupvote":11636,"Ġchalkboard":11637,"Begin":11638,"onucleic":11639,"011100110110001":11640,"EC":11641,"LI":11642,"Power":11643,"Str":11644,"]},":11645,"mind":11646,"pare":11647,"vas":11648,"wheat":11649,"Ġtaught":11650,"Ġfo":11651,"Ġreve":11652,"ĠAI":11653,"alls":11654,"Ġproport":11655,"ĠBessie":11656,"Ġcopies":11657,"ĠLondon":11658,"Ġamazing":11659,"Ġoutgoing":11660,"Ġ1110":11661,"ĠVivek":11662,"ĠExcel":11663,"Ġcubic":11664,"Ġbattlefield":11665,"Ġevaluated":11666,"Ġexperiment":11667,"Ġfamilies":11668,"FOUND":11669,"lexicographically":11670,"512":11671,"BrowserHistory":11672,"Ok":11673,"Tidy":11674,"aun":11675,"aus":11676,"master":11677,"Ġcau":11678,"Ġnove":11679,"vec":11680,"Ġhoops":11681,"Ġsteal":11682,"ĠAry":11683,"ldron":11684,"ĠSar":11685,"Ġunordered":11686,"330":11687,"Ġflat":11688,"Ġ$[(":11689,"ĠPok":11690,"Ġ(`#":11691,"ĠComp":11692,"ruly":11693,"âĢĿ,":11694,"10987":11695,"Ġweekends":11696,"Ġallocate":11697,"Ġvoter":11698,"Ġmatryoshkas":11699,"Ġmerchants":11700,"wrapping":11701,"ĠCircles":11702,"Ġaccuracy":11703,"TreeNode":11704,"Ġcauldron":11705,"+\\":11706,"Lets":11707,"QC":11708,"Split":11709,"battle":11710,"uf":11711,"Ġearth":11712,"Ġ512":11713,"Ġups":11714,"ostic":11715,"Ġamino":11716,"Ġambiguous":11717,"243":11718,"Ġmonitor":11719,"Ġindicies":11720,"workers":11721,"Ġorganization":11722,"Ġelectron":11723,"Original":11724,"Ġconvenience":11725,"ĠEngine":11726,"Very":11727,"mp":11728,"ns":11729,"xO":11730,"Ġtheat":11731,"oranges":11732,"Ġrival":11733,"ivam":11734,"ĠCypher":11735,"geq":11736,"Ġunhappy":11737,"ĠRP":11738,"ĠLes":11739,"Returning":11740,"Ġ[\".\",\".\",\".\",\".\",\"":11741,"claim":11742,"160":11743,"ĠUN":11744,"Ġfeatures":11745,"Printing":11746,"Ġ190":11747,"ĠPrime":11748,"(((":11749,"coordinates":11750,"Ġimpressed":11751,"Ġshooting":11752,"Ġtouching":11753,"538":11754,"CustomStack":11755,"KL":11756,"Mod":11757,"Pick":11758,"determ":11759,"habit":11760,"Ġaff":11761,"Ġci":11762,"Ġfond":11763,"enos":11764,"orable":11765,"ĠCi":11766,"chno":11767,"ĠPied":11768,"Ġspin":11769,"ĠInters":11770,"Ġ1200":11771,"Ġclue":11772,"Ġaccom":11773,"Ġfriendship":11774,"Ġpicking":11775,"Ġbeginners":11776,"Ġslot":11777,"Ġmerging":11778,"Ġquantities":11779,"transactions":11780,"ĠColumns":11781,"ICK":11782,"ĠDaenerys":11783,"Ġreconstruct":11784,"390":11785,"MajorityChecker":11786,"Scoring":11787,"Xi":11788,"cast":11789,"gly":11790,"Ġbishop":11791,"Ġ210":11792,"ĠAppend":11793,"Ġprotot":11794,"ĠCr":11795,"usual":11796,"ĠBar":11797,"Ġplag":11798,"ĠĠĠĠĠĠĠĠĠĠĠĠĠĠĠĠĊ":11799,"256":11800,"Ġids":11801,"Ġbrick":11802,"Ġflatten":11803,"Ġadvert":11804,"Ġfear":11805,"556":11806,"Ġagreed":11807,"349":11808,"Ġloaded":11809,"Ġcompete":11810,"Ġtags":11811,"469":11812,"HO":11813,"Like":11814,"uki":11815,"alphabet":11816,"Ġ\"<":11817,"Ġ588":11818,"ĠHead":11819,"Ġsignature":11820,"Ġhorse":11821,"Ġerased":11822,"Ġexpand":11823,"Ġconstructing":11824,"Assum":11825,"],[],[]]":11826,"ĠPlayers":11827,"Ġobserv":11828,"smaller":11829,"Ġoctet":11830,"Ġindependently":11831,"Ġbattery":11832,"Ġ'@',":11833,"habitants":11834,"Ap":11835,"KI":11836,"vanced":11837,"utral":11838,"Ġparrots":11839,"alized":11840,"Ġ230":11841,"ersion":11842,"Ġpriv":11843,"ĠIvan":11844,"Ġcout":11845,"ĠPop":11846,"Ġbrace":11847,"Ġhelping":11848,"Ġcurves":11849,"Ġarbitr":11850,"âĻ£":11851,"Ġgifted":11852,"Ġwonder":11853,"lerate":11854,"123456579":11855,"ĠGregor":11856,"Ġstreams":11857,"112358":11858,"ĠInternet":11859,"huehue":11860,"Ġaccompl":11861,"#..":11862,":```":11863,"Ak":11864,"bad":11865,"current":11866,"iently":11867,"run":11868,"esday":11869,"Ġante":11870,"ala":11871,"Ġlived":11872,"Ġgcd":11873,"tell":11874,"Ġ62":11875,"Ġ625":11876,"ada":11877,"ushes":11878,"obj":11879,"ĠRiding":11880,"Ġcharms":11881,"oved":11882,"236":11883,"erequis":11884,"ampore":11885,"Ġreplacements":11886,"Ġmarketing":11887,"Ġproviding":11888,"Point":11889,"Ġkeeping":11890,"Ġhighly":11891,"ĠCompar":11892,"Ġconstants":11893,"ĠReal":11894,"Ġassociations":11895,"Ġexecuted":11896,"Ġissues":11897,"IME":11898,"Ġtyping":11899,"Ġ')'":11900,"Ġseperately":11901,"ednesday":11902,"-$":11903,"Esolang":11904,"FT":11905,"either":11906,"funnel":11907,"lvl":11908,"uary":11909,"isa":11910,"Ġfaced":11911,"Ġbumpy":11912,"Ġdiction":11913,"Ġrub":11914,"Ġ\\,":11915,"Ġpopped":11916,"ĠCF":11917,"ĠCn":11918,"ĠTer":11919,"ushed":11920,"000000000":11921,"Ġjigs":11922,"sity":11923,"ril":11924,"ĠMark":11925,"ĠRCV":11926,"ĠLanguage":11927,"ĠDet":11928,"Ġapartment":11929,"Ġimages":11930,"ĠStreet":11931,"Ġintermedi":11932,"Ġherself":11933,"ĠAllen":11934,"kingName":11935,"******":11936,"TestTest":11937,"Ġpayment":11938,"smooth":11939,"Ġsimilarity":11940,"ĠMaxim":11941,"ĠObviously":11942,"Ġgrandchildren":11943,"||||":11944,"())()":11945,"Ġroadworks":11946,"ĠUsage":11947,"cryption":11948,"Successor":11949,"Ġthousands":11950,"banana":11951,"ĠOffice":11952,"Ġmisspelt":11953,"Ġjigsaw":11954,"'$":11955,"?](":11956,"Too":11957,"\\}":11958,"lab":11959,"pair":11960,"0016":11961,"odo":11962,"Ġ79":11963,"ption":11964,"ards":11965,"inde":11966,"Ġplain":11967,"ĠPI":11968,"Ġscared":11969,"insane":11970,"itional":11971,"132":11972,"Ġ168":11973,"144":11974,"ibility":11975,"Ġdetects":11976,"Ġsyll":11977,"174":11978,"-------------------------":11979,"Ġassignments":11980,"Ġrankings":11981,"Ġdistributing":11982,"Ġ123456":11983,"ĠRegardless":11984,"Ġesoteric":11985,"Finish":11986,"ĠDistance":11987,"Result":11988,"ĠPerformance":11989,"Ġdictionaries":11990,"Roman":11991,"fly":11992,"members":11993,"Ġut":11994,"isks":11995,"Ġfart":11996,"Ġtoggle":11997,"Ġlack":11998,"cda":11999,"Ġenv":12000,"179":12001,"contain":12002,"))(":12003,"Ġidentifiers":12004,"ĠUnder":12005,"ĠRoboScript":12006,"Interval":12007,"Ġvisualize":12008,"Ġdeparture":12009,"!*":12010,"!')":12011,"dates":12012,"lor":12013,"lang":12014,"rical":12015,"leks":12016,"Ġmot":12017,"Ġ225":12018,"Ġ\"??":12019,"ĠAk":12020,"unn":12021,"1029":12022,"ĠTurn":12023,"\",\".\",\".\",\".\",\"":12024,"0005":12025,"Ġanswered":12026,"Ġ```.":12027,"Ġresultant":12028,"188":12029,"1000000007":12030,"')`":12031,"Ġcombined":12032,"permutation":12033,"Ġqueens":12034,"ĠDesired":12035,"Ġcleaned":12036,"ĠâĢ¦,":12037,"Ġmurder":12038,"AZ":12039,"Ah":12040,"Dy":12041,"OV":12042,"OW":12043,"QS":12044,"cue":12045,"fx":12046,"Ġtanks":12047,"esse":12048,"Ġtoys":12049,"Ġ'()":12050,"ooper":12051,"arters":12052,"ĠFire":12053,"ĠDaniel":12054,"nothing":12055,"Ġ128":12056,"strings":12057,"Ġpartner":12058,"167":12059,"âĢ¦.":12060,"Ġcrossing":12061,"greek":12062,"Ġadvanced":12063,"Ġsuddenly":12064,"strophes":12065,"Mike":12066,"RU":12067,"hex":12068,"Ġwiki":12069,"archer":12070,"Ġmand":12071,"asts":12072,"````":12073,"aches":12074,"icense":12075,"Ġ\"\".":12076,"Ġheavi":12077,"ĠMish":12078,"parameter":12079,"Ġlogs":12080,"ĠXI":12081,"Ġcharacteristic":12082,"jected":12083,"Ġbegan":12084,"Ġdrivers":12085,"Ġchecker":12086,"ĠĠĠĠĠĠĠĠĠĠĠĠĠĠĠĠĠĠĠĠĠĠĠĠĠĠĠĠĠĠĠĠĠ":12087,"ĠSeven":12088,"Ġsearching":12089,"Ġguessed":12090,"Ġcandidates":12091,"Ġcombines":12092,"groupSizes":12093,"Phone":12094,"Ġheaviest":12095,")```.":12096,"720":12097,"Sunday":12098,"UC":12099,"gen":12100,"look":12101,"Ġpanc":12102,"Ġpoured":12103,"asht":12104,"Ġlining":12105,"Ġbeats":12106,"ĠName":12107,"oline":12108,"ooh":12109,"actice":12110,"ĠKasht":12111,"Ġperhaps":12112,"ĠDi":12113,"room":12114,"Ġsmo":12115,"Ġsmell":12116,"sums":12117,"Ġcompartment":12118,"7772":12119,"anka":12120,"379":12121,"======":12122,"Ġdrawing":12123,"[]{":12124,"Ġpaste":12125,"âĪĳ":12126,"alphabetical":12127,"Ġsubscription":12128,"WUB":12129,"ĠUniversity":12130,"Ġtheatre":12131,"Ġprototypes":12132,"Ġadvertising":12133,"ĠKashtanka":12134,",..,":12135,"files":12136,"ĠÂ":12137,"erry":12138,"rels":12139,"urious":12140,"Ġ(*":12141,"Ġwithdraw":12142,"Ġ',":12143,"ĠBhuvan":12144,"iker":12145,"Ġscoring":12146,"Ġ2017":12147,"inese":12148,"Ġcompound":12149,"Ġdisabled":12150,"_________":12151,"NOP":12152,"fraction":12153,"Ġski":12154,"Ġbarrels":12155,"âĻł":12156,"ĠTechn":12157,"paths":12158,"horizontalCuts":12159,"Ġuniformly":12160,"ĠFurthermore":12161,"Ġescaped":12162,"(()":12163,"@\"":12164,"Che":12165,"gf":12166,"mother":12167,"uc":12168,"Ġtied":12169,"invalid":12170,"Ġsits":12171,"Ġfir":12172,"another":12173,"Ġpup":12174,"Ġmir":12175,"Ġmeter":12176,"Ġ450":12177,"Ġrail":12178,"Ġpos":12179,"Ġpool":12180,"une":12181,"isters":12182,"ĠCashier":12183,"ĠSon":12184,"Ġ*\"":12185,"Ġuns":12186,"ĠstartFuel":12187,"avings":12188,"Ġ150000":12189,"Ġdislike":12190,"Ġthrown":12191,"prices":12192,"Ġentrance":12193,"Third":12194,"ĠThink":12195,"White":12196,"symbols":12197,"depth":12198,"777777":12199,"Ġ7350":12200,"Ġbouncy":12201,"puzzles":12202,"ï¼¿âĸĩï¼¿âĸĩ":12203,"ĠFizzBuzz":12204,"Ġinflu":12205,"ĠLesha":12206,"Ġarbitrarily":12207,"CE":12208,"cents":12209,"library":12210,"Ġtape":12211,"arc":12212,"acbd":12213,"Ġran":12214,"Ġ\\}":12215,"explain":12216,"ultimate":12217,"Ġunderscore":12218,"ĠPac":12219,"ĠDisc":12220,"Ġruin":12221,"Ġtranslate":12222,"3456":12223,"Ġparticularly":12224,"Ġperiodic":12225,"Ġconveniently":12226,"Ġinterleaving":12227,"Ġgeometric":12228,"Ġintermediate":12229,"?_":12230,"Bang":12231,"IWIN":12232,"Jed":12233,"LT":12234,"Sergey":12235,"Tapu":12236,"]âĪĴ":12237,"cnet":12238,"fck":12239,"iB":12240,"khoon":12241,"rzej":12242,"trees":12243,"zombie":12244,"Ð°":12245,"Ġcures":12246,"Ġnations":12247,"Ġpens":12248,"ouri":12249,"omie":12250,"Ġ()":12251,"Ġbehead":12252,"tha":12253,"Ġ\"\\\\":12254,"Ġyesterday":12255,"ĠAPP":12256,"Ġrider":12257,"Ġarrival":12258,"Ġpoll":12259,"Ġcanvas":12260,"ĠCI":12261,"ĠCartesian":12262,"olit":12263,"ĠSSum":12264,"1110":12265,"andwidth":12266,"ĠElement":12267,"ĠMs":12268,"codefights":12269,"neg":12270,"Ġ//>>>>>":12271,"outs":12272,"ovan":12273,"204":12274,"Ġ125":12275,"tasks":12276,"ĠâĢĻ":12277,"ighter":12278,"shirts":12279,"Ġ170":12280,"173":12281,"bites":12282,"ushma":12283,"Ġintact":12284,"olves":12285,"Ġprefixes":12286,"amazonaws":12287,"oku":12288,"OSE":12289,"RoboScript":12290,"Ġverb":12291,"fession":12292,"userpics":12293,"ĠEncryption":12294,"Ġairport":12295,"Ġ----->":12296,"ĠSpecification":12297,"Ġâĸ¡":12298,"ĠOperators":12299,"CLICK":12300,"ĠContainers":12301,"Ġrevenue":12302,"Ġsafes":12303,"codefightsuserpics":12304,"/).":12305,"KC":12306,"gun":12307,"hig":12308,"Ġcm":12309,"Ġfi":12310,"Ġeff":12311,"etc":12312,"Ġconferences":12313,"ĠAj":12314,"Ġrare":12315,"Ġ1011":12316,"Ġforth":12317,"Ġsemi":12318,"Ġsharing":12319,"results":12320,"conds":12321,"ĠRank":12322,"ĠHistory":12323,"ĠĠĠĠĠĠĠĠĠĠĠĠĠĠĠĠĠĠĠĠĠĠĠĠĠĠĠĠĠĠĠ":12324,"aranteed":12325,"398":12326,"abaac":12327,"Ġlocks":12328,"Ġmetric":12329,"capacity":12330,"Ġoverflows":12331,"Ġconvenient":12332,"Ġpredicted":12333,"ĠGreat":12334,"Ġprecedence":12335,"ĠINT":12336,"followed":12337,"ĠFormula":12338,"-`":12339,"354":12340,"Miss":12341,"Ġmail":12342,"ulated":12343,"ĠSer":12344,"Ġ666":12345,"ĠBA":12346,"ĠxC":12347,"ofey":12348,"Ġremovals":12349,"Ġ32000":12350,"ĠĠĠĠĠĠĠĠĠĠĠĠĠĠĠĠĠĠĠĠĠĠĠĠĠĠĠĠĠĠĠĠĠĠĠĠ":12351,"ĠAnimal":12352,"abaaba":12353,"scout":12354,"Unique":12355,"Ġweekday":12356,"HowManyLightsabersDoYouOwn":12357,"Ġregistered":12358,"Ġillustrate":12359,"Ġdiagonals":12360,"ĠEmpty":12361,"ĠDetails":12362,"#).":12363,"Iter":12364,"Linked":12365,"hash":12366,"watched":12367,"Ġtor":12368,"Ġfest":12369,"ann":12370,"Ġbeds":12371,"Ġmover":12372,"Ġlane":12373,"igzag":12374,"akh":12375,"ĠScr":12376,"ooge":12377,"ĠRel":12378,"Ġprefers":12379,"Ġenr":12380,"165":12381,"Ġdisplaying":12382,"Ġdisparity":12383,"Ġguarantees":12384,"Ġchoices":12385,"Ġcardinal":12386,"Ġaccepting":12387,"Ġcontinous":12388,"Ġstraightforward":12389,"ĠParticip":12390,"Ġstrike":12391,"Ġreflection":12392,"Ġmaths":12393,"Ġrepairing":12394,"ĠPatlu":12395,"stoneValue":12396,"radius":12397,"Ġquotient":12398,"leksa":12399,"ĠScrooge":12400,".$":12401,"AP":12402,"EVEN":12403,"Monday":12404,"QU":12405,"nov":12406,"rodu":12407,"Ġtact":12408,"Ġcash":12409,"Ġnature":12410,"aming":12411,"acce":12412,"Ġsteel":12413,"iro":12414,"Ġtrust":12415,"Ġweld":12416,"Ġsubfolder":12417,"Ġsubfolders":12418,"ĠIS":12419,"inters":12420,"ĠWork":12421,"Ġquote":12422,"ĠOF":12423,"133":12424,"ĠWeb":12425,"ĠStar":12426,"Ġcommas":12427,"Ġbrute":12428,"âĸĵ":12429,":***":12430,"Ġsolves":12431,"weighted":12432,"Ġfilesystem":12433,"onica":12434,"Ġdeliveries":12435,"Ġsymmetric":12436,"Ġmagnets":12437,"XYZ":12438,"Ġapostrophes":12439,"ĠBritish":12440,"#$%":12441,"921":12442,"ds":12443,"gory":12444,"Ġcumul":12445,"itude":12446,"Ġlets":12447,"unt":12448,"abelle":12449,"Ġalone":12450,"Ġminion":12451,"ĠRa":12452,"ĠWatch":12453,"1500":12454,"Ġ`['":12455,"erted":12456,"10110":12457,"Ġcapit":12458,"Ġerasing":12459,"Ġcirc":12460,"Ġactivated":12461,"Ġweekend":12462,"Ġkiller":12463,"hyth":12464,"Ġdiagonally":12465,"Ġachieving":12466,"ĠcroakOfFrogs":12467,"ĠKoa":12468,"chnocup":12469,"!'`":12470,".(":12471,"Carla":12472,"David":12473,"Soda":12474,"TD":12475,"cout":12476,"pa":12477,"inheritance":12478,"erNamei":12479,"onight":12480,"esides":12481,"Ġbands":12482,"Ġ$.":12483,"Ġlakh":12484,"Ġ(>":12485,"iral":12486,"ceeded":12487,"Ġforb":12488,"Ġprom":12489,"ĠCON":12490,"Ġships":12491,"ĠBub":12492,"ĠMeliodas":12493,"ĠWarrior":12494,"elling":12495,"atesh":12496,"Ġplaylists":12497,"ĠChefgram":12498,"Ġmeows":12499,"Ġsmarter":12500,"ĠGenos":12501,"Ġguy":12502,"Ġspecifying":12503,"Ġfactory":12504,"overnment":12505,"ushka":12506,"ĠThor":12507,"ĠAlgorithm":12508,"Ġsamples":12509,"ĠcustomerNamei":12510,"Bean":12511,"847":12512,"productFib":12513,"Ġmoments":12514,"Ġmillise":12515,"customerNamei":12516,"ursday":12517,"CCC":12518,"Ġcitations":12519,"ĠDoctor":12520,"Ġ`+`,":12521,"Ġspanning":12522,"irtual":12523,"ĠFrodo":12524,"Ġoverflowing":12525,"ababcba":12526,"@@@@@@@@":12527,"tableNumberi":12528,"ĠMikhail":12529,"Classy":12530,"$$$$$$$$":12531,"madeus":12532,"Ġterminates":12533,"ĠExtensions":12534,"ĠSingh":12535,"Ġcumulative":12536,"'```":12537,"476":12538,"Ġfives":12539,"encode":12540,"anna":12541,"Ġmachines":12542,"Ġ270":12543,"urations":12544,"ubs":12545,"ĠDoe":12546,"ĠIndr":12547,"Ġdetermin":12548,"egam":12549,"Ġhappening":12550,"Ġseperated":12551,"UV":12552,"bert":12553,"coder":12554,"eight":12555,"hare":12556,"named":12557,"Ġ001":12558,"Ġpiano":12559,"oull":12560,"Ġlots":12561,"Ġareas":12562,"Ġled":12563,"Ġprototype":12564,"uses":12565,"ĠBit":12566,"absl":12567,"resz":12568,"actt":12569,"actresz":12570,"ĠRuss":12571,"ĠHamming":12572,"Ġsphere":12573,"998":12574,"Ġappoint":12575,"Ġdifferentiation":12576,"Ġtransport":12577,"oryz":12578,"1111111111":12579,"odyz":12580,"Ġrealised":12581,"ernoull":12582,"Ġjoining":12583,"Ġ007":12584,"âĪ§":12585,"Ġglasses":12586,"absoryz":12587,"src":12588,"Ġbinomial":12589,"ĠSimply":12590,"Ġdevelopment":12591,"Ġscientist":12592,"abrodyz":12593,"gaswxyz":12594,"aboveyz":12595,"abslute":12596,"ernoulli":12597,"Bet":12598,"Dig":12599,"bee":12600,"gage":12601,"ipe":12602,"jumps":12603,"tle":12604,"Ġwishes":12605,"Ġinhabitants":12606,"Ġ08":12607,"unny":12608,"Ġsea":12609,"ĠTu":12610,"Ġperf":12611,"Ġenable":12612,"Ġcompr":12613,"conjecture":12614,"Ġrecovered":12615,"zzz":12616,"Ġwatered":12617,"enger":12618,"Reverse":12619,"rounding":12620,"Process":12621,"Ġminimise":12622,"ichever":12623,"Ġadvant":12624,"Ġgained":12625,"Ġexhibition":12626,"ĠSwapping":12627,"Ġacquired":12628,"Ġlemonade":12629,"$):":12630,",\\_":12631,"388":12632,"?\")":12633,"ERR":12634,"Longest":12635,"LCG":12636,"Ri":12637,"fair":12638,"mands":12639,"maze":12640,"present":12641,"ugs":12642,"zuki":12643,"åį":12644,"atat":12645,"antha":12646,"Ġdating":12647,"Ġ(),":12648,"ĠCor":12649,"ĠCong":12650,"Ġ*\\":12651,"wood":12652,"Ġ******":12653,"actually":12654,"rible":12655,"Ġunused":12656,"ĠMegam":12657,"ĠPentagonal":12658,"ĠHal":12659,"ĠKha":12660,"ĠLou":12661,"avg":12662,"Ġemail":12663,"\"]`.":12664,"ĠStack":12665,"309":12666,"ibr":12667,"Ġadjac":12668,"Ġ175":12669,"ĠYay":12670,"becomes":12671,"letes":12672,"pppp":12673,"Ġoptimization":12674,"uzzle":12675,"Ġcricket":12676,"Ġavg":12677,"mathop":12678,"Ġexpire":12679,"Ġextraneous":12680,"Board":12681,"ĠBeer":12682,"Ġ0001":12683,"Ġvariant":12684,"Anything":12685,"ĠSmallfuck":12686,"winning":12687,"bbbbbbbb":12688,"Ġinternational":12689,"Ġpoisoned":12690,"Ġbounces":12691,"hyper":12692,"ĠÐ¡":12693,"ä¸Ģ":12694,"ĠSamantha":12695,"ĠInterpreters":12696,"Ġcategories":12697,"rectangularity":12698,"ĠJenish":12699,"Ġ[\".\",\".\",\".\",\".\",\".\",\".\",\".\",\"":12700,"ĠIntersections":12701,"Ġmilliseconds":12702,"ĠMegamind":12703,"ĠKhaled":12704,"Ġadjacency":12705,"*[":12706,"Further":12707,"GRE":12708,"Waiting":12709,"aled":12710,"mary":12711,"normal":12712,"uice":12713,"za":12714,"Ġafr":12715,"Ġpill":12716,"Ġmic":12717,"Ġ370":12718,"Ġvarying":12719,"ĠTw":12720,"ĠTanya":12721,"compar":12722,"excluding":12723,"Ġdebugging":12724,"Ġplots":12725,"Ġ96":12726,"Ġminor":12727,"iley":12728,"ĠLa":12729,"Ġlisten":12730,"rock":12731,"Ġimport":12732,"Ġoccurred":12733,"Ġlesser":12734,"Beware":12735,"ĠUnited":12736,"Ġdraws":12737,"curious":12738,"abcdefg":12739,"Ġstrips":12740,"Ġexperien":12741,"Ġoccurences":12742,"rainfuck":12743,"Ġachievable":12744,"ĠCharacter":12745,"Ġmandatory":12746,"%`":12747,"PC":12748,"SS":12749,"TI":12750,"TEST":12751,"hint":12752,"ĠSolve":12753,"Ġshield":12754,"oovy":12755,"Ġjam":12756,"Ġgrace":12757,"Ġcomposite":12758,"ĠHem":12759,"Ġmeals":12760,"lowest":12761,"Ġuniquely":12762,"\"`).":12763,"roman":12764,"Ġspaceship":12765,"sterious":12766,"circles":12767,"Ġobserve":12768,"Ġmidnight":12769,"Ġbowler":12770,"Ġpossess":12771,"Minimum":12772,"satisfaction":12773,"Ġestabl":12774,"Operation":12775,"erequisites":12776,"Dream":12777,"Salmon":12778,"Tick":12779,"Ġaj":12780,"itter":12781,"Ġbother":12782,"ste":12783,"omes":12784,"ods":12785,"istinguishable":12786,"Ġ*,":12787,"logs":12788,"Ġindistinguishable":12789,"mentum":12790,"ĠInstructions":12791,"Ġrope":12792,"Ġpecul":12793,"Ġacad":12794,"Ġheroes":12795,"Ġmyself":12796,"Ġtranslates":12797,"Ġstreets":12798,"scr":12799,"Ġlockers":12800,"Ġcatches":12801,"oeis":12802,"repeated":12803,"Ġfiltered":12804,"ĠUser":12805,"Ġdictum":12806,"ĠCaptain":12807,"ufact":12808,"ĠGregorian":12809,"Ġpeculiar":12810,"434":12811,"Dist":12812,"Dict":12813,"Key":12814,"hackerrank":12815,"implify":12816,"Ġ*=":12817,"Ġheart":12818,"ĠBad":12819,"Ġ**[":12820,"Ġ||":12821,"Ġ88888":12822,"ĠWho":12823,"ila":12824,"Ġconsume":12825,"Ġnov":12826,"Ġspare":12827,"Ġremix":12828,"Ġoperating":12829,"997":12830,"Ġ.##.":12831,"Ġ.#..":12832,"Ġparties":12833,"ghi":12834,"Ġimm":12835,"ĠStud":12836,"bbaa":12837,"})$.":12838,"Ġdelay":12839,"odds":12840,"Ġ..#.":12841,"ĠProject":12842,"Ġgasoline":12843,"Ġhung":12844,"ĠHoses":12845,"Ġ')'.":12846,"puzzle":12847,"YP":12848,"^&":12849,"bor":12850,"ded":12851,"diss":12852,"eval":12853,"ua":12854,"Ġpour":12855,"original":12856,"stack":12857,"acts":12858,"ola":12859,"adz":12860,"Ġnotorious":12861,"Ġhear":12862,"ĠPolly":12863,"ĠWar":12864,"ĠHigh":12865,"Ġsports":12866,"Ġformal":12867,"Ġsomehow":12868,"ĠDown":12869,"Ġstraw":12870,"501":12871,"degree":12872,"ĠVowels":12873,"Ġflour":12874,"process":12875,"ĠCommon":12876,"Ġforeign":12877,"âĻ¥":12878,"Ġclever":12879,"ometric":12880,"abcabcabc":12881,"Ġsuperst":12882,"Ġinterleavings":12883,"performing":12884,"according":12885,"ĠRPG":12886,"#$%^&":12887,"*+":12888,"220":12889,"NS":12890,"Preloaded":12891,"Saturday":12892,"Wr":12893,"kotlin":12894,"language":12895,"pack":12896,"tw":12897,"Ġ132":12898,"ÂłĠ":12899,"accept":12900,"Insert":12901,"Ġhuman":12902,"queries":12903,"Ġlear":12904,"Ġvirtual":12905,"Ġsear":12906,"ĠCard":12907,"ĠTree":12908,"ĠText":12909,"..*..":12910,"Ġwhom":12911,"Ġ'\\":12912,"enders":12913,"ĠKey":12914,"ĠLines":12915,"Ġconsum":12916,"ĠDU":12917,"oyal":12918,"Ġclient":12919,"Ġtried":12920,"Ġbuff":12921,"ĠproductOfNumbers":12922,"[[],[":12923,"Ġphot":12924,"Ġ(`*":12925,"Ġoptimize":12926,"XXXX":12927,"Ġtemperatures":12928,"Ġentirely":12929,"Ġstrengths":12930,"Ġsenator":12931,"Argument":12932,"iterator":12933,"family":12934,"Ġprecision":12935,"Ġ$+$":12936,"Ġsequential":12937,"Ġdinosaurs":12938,"Ġ'?'":12939,"Ġcommunicate":12940,"Ġaccomplish":12941,".@":12942,"JH":12943,"_/":12944,"cod":12945,"mad":12946,"Ġak":12947,"leep":12948,"Ġcig":12949,"ene":12950,"Ġ${":12951,"Ġhay":12952,"Ġasleep":12953,"ĠCipher":12954,"Ġ640":12955,"elis":12956,"ĠLCM":12957,"ĠĠĠĠĠĠĠĠĠĠĠĠĠĠĠĠĠĊ":12958,"ĠFortunately":12959,"ampire":12960,"Ġ197":12961,"engers":12962,"]=[":12963,"argest":12964,"Ġdenomination":12965,"Ġlockdown":12966,"Ġenemies":12967,"fghij":12968,"Ġjuic":12969,"Ġjewels":12970,"Ġsorcerers":12971,"ĠReady":12972,"nnnnn":12973,"Ġpseudocode":12974,"respectively":12975,"Ġpancake":12976,"BW":12977,"Best":12978,"OY":12979,"_(":12980,"_^":12981,"viv":12982,"Ġ---------------":12983,"Ġsapper":12984,"Ġdum":12985,"Ġdatas":12986,"Ġ211":12987,"Ġlatter":12988,"Ġgar":12989,"ĠSchool":12990,"Ġ630":12991,"challeng":12992,"compose":12993,"1001000":12994,"Ġoverview":12995,"Price":12996,"ordinates":12997,"Ġdrone":12998,"Ġproducing":12999,"Ġmissed":13000,"ĠTimofey":13001,"Ġdeclaration":13002,"Ġnuclear":13003,"ĠUpDown":13004,"Ġdeepest":13005,"JFK":13006,"tellig":13007,"challenges":13008,"622":13009,"AE":13010,"AX":13011,"Factor":13012,"MIN":13013,"Paul":13014,"QD":13015,"Tuesday":13016,"Wall":13017,"cend":13018,"ports":13019,"pizzas":13020,"iner":13021,"enny":13022,"Ġlined":13023,"Ġys":13024,"ĠAAA":13025,"Ġ05":13026,"olle":13027,"Ġatom":13028,"Ġuncommon":13029,"ĠMonday":13030,"Ġabb":13031,"parts":13032,"Ġmultiplic":13033,"Ġ1337":13034,"Ġdisco":13035,"880":13036,"605":13037,"192":13038,"Ġassumes":13039,"Ġassumptions":13040,"Ġinstall":13041,"Ġtables":13042,"alek":13043,"??\"":13044,"ĠSummation":13045,"Ġplanted":13046,"Ġincremented":13047,"Ġshuffling":13048,"Ġrecursively":13049,"Ġapproximate":13050,"Between":13051,"$[":13052,"%\"":13053,"Cd":13054,"DI":13055,"XG":13056,"clock":13057,"ech":13058,"failed":13059,"gold":13060,"jug":13061,"mount":13062,"morrow":13063,"past":13064,"rate":13065,"sz":13066,"tiles":13067,"xya":13068,"{(":13069,"especially":13070,"Ġbread":13071,"Ġren":13072,"Ġbees":13073,"ĠAmer":13074,"placement":13075,"igma":13076,"ĠNormal":13077,"ĠCoding":13078,"Ġchap":13079,"Ġjung":13080,"elcome":13081,"ĠWelcome":13082,"Ġneedle":13083,"avirus":13084,"ĠDigital":13085,"pyramid":13086,"Ġvalidating":13087,"inski":13088,"Ġcharacterized":13089,"ermutation":13090,"Ġbegun":13091,"Ġrecent":13092,"zzxy":13093,"eggs":13094,"']`.":13095,"Ġservices":13096,"Ġcourses":13097,"spired":13098,"âĸ¡âĸł":13099,"viation":13100,"Ġclaimed":13101,"Ġleaderboard":13102,"Looking":13103,"properties":13104,"ĠMathemat":13105,"Attacker":13106,"SYN":13107,"Ġmesh":13108,"Ġfirm":13109,"Ġeffects":13110,"ibraries":13111,"Dam":13112,"SC":13113,"ecase":13114,"gif":13115,"km":13116,"lict":13117,"Ġsession":13118,"Ġisol":13119,"Ġ235":13120,"Ġretain":13121,"Ġ[\\":13122,"Ġlamp":13123,"Ġlaz":13124,"icular":13125,"Ġ\">":13126,"Ġ\"?":13127,"Ġranging":13128,"Ġproud":13129,"ĠCond":13130,"indicates":13131,"onder":13132,"emory":13133,"ĠRows":13134,"ĠForth":13135,"LLLL":13136,"everal":13137,")_**,":13138,"Ġ!!!":13139,"386":13140,"Ġlowecase":13141,"triple":13142,"Under":13143,"multiplicative":13144,"bler":13145,"permitted":13146,"Ġrelatively":13147,"Ġconflict":13148,"Ġlocker":13149,"Ġsitu":13150,"Ġexecuting":13151,"Ġscripting":13152,"Ġliterals":13153,"examples":13154,"Ġorganize":13155,"aaca":13156,"iii":13157,"Ġfairly":13158,"occup":13159,"statement":13160,"Ġdeliciousness":13161,"Ġrevealed":13162,"Ġlaziness":13163,"/',":13164,"Tim":13165,"Util":13166,"fight":13167,"ku":13168,"specific":13169,"Ġtiny":13170,"Ġcpp":13171,"encrypt":13172,"anches":13173,"anek":13174,"edf":13175,"Ġ$=$":13176,"Ġ`<":13177,"aka":13178,"ĠBash":13179,"Ġjury":13180,"inder":13181,"Ġunchanged":13182,"ĠMia":13183,"ĠWabbit":13184,"Ġspo":13185,"ĠĠĠĠĠĠĠĠĠĠĠĠĠĠĠĠĠĠĠĠĊ":13186,"\"]],":13187,"Ġmanufact":13188,"ĠGal":13189,"Ġclust":13190,"Ġwrit":13191,"Ġfloored":13192,"Ġprogramme":13193,"Ġreversals":13194,"Ġdepend":13195,"ĠAltern":13196,"zzzz":13197,"Ġ&&":13198,"Ġencour":13199,"bling":13200,"aneel":13201,"Ġ'(',":13202,"Ġmaterials":13203,"Ġaffected":13204,"Ġeffectively":13205,"Ġearns":13206,"abcccd":13207,"Ġconvention":13208,"ĠEngineering":13209,"228":13210,":\"":13211,"KH":13212,"Ref":13213,"iority":13214,"ko":13215,"mar":13216,"nostic":13217,"pqrst":13218,"qp":13219,"Ġfighter":13220,"asc":13221,"Ġlad":13222,"Ġpriority":13223,"ĠSE":13224,"Ġshares":13225,"Ġ695":13226,"1113":13227,"ĠEither":13228,"emy":13229,"Ġxs":13230,"ĠHackerrank":13231,"126":13232,"ĠLets":13233,"Ġ```{":13234,"Ġscout":13235,"Ġafterwards":13236,"(\"\")":13237,"Ġ1353":13238,"Ġ$(-":13239,"ĠVersion":13240,"ĠURL":13241,"1986":13242,"LLL":13243,"Ġcircum":13244,"Ġ`{-":13245,"Ġladdu":13246,"Ġrefle":13247,"Ġdiagnostic":13248,"Ġsurvives":13249,"remember":13250,"ĠContinue":13251,"Colour":13252,"Ġpocket":13253,"(%":13254,"435":13255,"589":13256,"714":13257,"Cent":13258,"Coding":13259,"aest":13260,"bow":13261,"bement":13262,"cis":13263,"cnt":13264,"dp":13265,"ras":13266,"sult":13267,"Ã«":13268,"Îµ":13269,"Ġscribe":13270,"Ġfz":13271,"Ġangr":13272,"Ġbresult":13273,"umvers":13274,"Ġ[$":13275,"otions":13276,"Ġaresult":13277,"Ġroubles":13278,"Ġ1023":13279,"Ġorient":13280,"Ġpraest":13281,"ĠNIM":13282,"ĠSnu":13283,"ĠTobby":13284,"ĠâĻ":13285,"Ġij":13286,"Ġ8000":13287,"Ġunam":13288,"ĠMAG":13289,"ĠPower":13290,"ĠPizza":13291,"Ġcharged":13292,"ĠLook":13293,"ĠLiss":13294,"Ġconscri":13295,"agne":13296,"Ġdistant":13297,"ĠDou":13298,"antiam":13299,"Ġscramble":13300,"--------+":13301,"Ġnextum":13302,"ffles":13303,"ildong":13304,"Ġgrouping":13305,"->-":13306,"Plate":13307,"5930":13308,"ĠChuck":13309,"texttt":13310,"Ġaccident":13311,"AAR":13312,"AAAR":13313,"11110":13314,"Ġexceptions":13315,"ĠValues":13316,"Ġsimplify":13317,"Ġcrossroads":13318,"Ġchampagne":13319,"Ġgemstones":13320,"Ġleftovers":13321,"Ġrestrictions":13322,"+-----+-----+":13323,"Ġseqis":13324,"ifference":13325,"accelerate":13326,"Ġnovumvers":13327,"bementis":13328,"Ġangry":13329,"Ġpraestantiam":13330,"ĠNIMIS":13331,"ĠSnuffles":13332,"ĠMAGNA":13333,"Ġconscribementis":13334,"AAARA":13335,"Ġnovumversum":13336,"!@":13337,"*'":13338,"Cl":13339,"Life":13340,"Mult":13341,"YSY":13342,"hmin":13343,"ians":13344,"war":13345,"weta":13346,"yan":13347,"Ð¾":13348,"erk":13349,"Ġsends":13350,"atrix":13351,"Ġfaded":13352,"oted":13353,"Ġlicense":13354,"ersei":13355,"Ġhmax":13356,"Ġrachel":13357,"ĠSushma":13358,"geometric":13359,"Ġtraged":13360,"Ġtroop":13361,"weights":13362,"condition":13363,"ĠMarmot":13364,"ĠPavel":13365,"ĠHouse":13366,"force":13367,"agr":13368,"Ġcorona":13369,"5710":13370,"Ġrose":13371,"Ġenum":13372,"326":13373,"Ġ`\"\\":13374,"334":13375,"^{\\":13376,"Ġbacks":13377,"iana":13378,"Ġpacked":13379,"rmstrong":13380,"Ġseparator":13381,"Adding":13382,"oebe":13383,"repeating":13384,"------+":13385,"Ġdominant":13386,"Ġportal":13387,"ĠIsland":13388,"Ġtechniques":13389,"FEEL":13390,"Ġwidely":13391,"Ġburners":13392,"Ġkangaroos":13393,"QAQAQ":13394,"Ġdeveloped":13395,"Ġapproximately":13396,"calculated":13397,"Ġepisodes":13398,"ĠUppercase":13399,"IOIWIN":13400,"Ġ`*`,":13401,"ĠGauss":13402,"Ġplatform":13403,"Ġproportion":13404,"Ġanteater":13405,"dissimilar":13406,"YSYIOIWIN":13407,"FEELS":13408,"QAQAQYSYIOIWIN":13409,"Element":13410,"Gener":13411,"Mag":13412,"hT":13413,"ket":13414,"tick":13415,"|..":13416,"Ã¼":13417,"Ġfre":13418,"enum":13419,"oray":13420,"Ġmates":13421,"Ġmouse":13422,"Ġeyes":13423,"``.":13424,"Inspired":13425,"imun":13426,"ĠAre":13427,"ĠCle":13428,"Ġatmost":13429,"115":13430,"exam":13431,"oneh":13432,"Ġ{},":13433,"Ġguys":13434,"Ġ100000000":13435,"clusively":13436,"minimun":13437,"Ġrobb":13438,"Ġinsists":13439,"Ġlinks":13440,"coefficient":13441,"Ġsurrounding":13442,"582":13443,"ĠSubarray":13444,"Ġartistic":13445,"Ġanalysis":13446,"Ġfrequently":13447,"maximun":13448,"ĠKnight":13449,"guaranteed":13450,"Ġrefueling":13451,"Hooray":13452,"delimited":13453,"regularcontest":13454,"ĠParameters":13455,"ironment":13456,"coderregularcontest":13457,"Ġbuffer":13458,"GBRG":13459,"HR":13460,"Ouput":13461,"Vi":13462,"hiker":13463,"Ġsol":13464,"Ġfont":13465,"Ġinfinity":13466,"Ġmargin":13467,"edy":13468,"Ġreappear":13469,"ĠAc":13470,"plays":13471,"ĠTO":13472,"\",\".\",\".\",\".\",\".\",\"":13473,"Ġheat":13474,"ĠBoys":13475,"ĠHitch":13476,"ikhail":13477,"Ġdistancing":13478,"prototype":13479,"Ġjumped":13480,"Ġappearing":13481,"Ġvaries":13482,"Ġexponentiation":13483,"cursor":13484,"Ġswit":13485,"passengers":13486,"logan":13487,"*********":13488,"Finite":13489,"ĠUpdate":13490,"Ġsuggestions":13491,"Ġgathered":13492,"klmno":13493,"Ġflavors":13494,"Ġinfluence":13495,"ĠHitchhiker":13496,"\"$":13497,")```,":13498,"599":13499,"EF":13500,"FL":13501,"Fire":13502,"Mel":13503,"Method":13504,"ODD":13505,"Skiplist":13506,"TC":13507,"Und":13508,"XR":13509,"hir":13510,"sup":13511,"Ġtonight":13512,"Ġfate":13513,"Ġ234":13514,"Ġthumb":13515,"Ġret":13516,"Ġarc":13517,"illy":13518,"ulb":13519,"ĠBB":13520,"Ġgrain":13521,"Ġalter":13522,"Ġsouth":13523,"ĠRow":13524,"Ġresource":13525,"Ġpartial":13526,"Ġ{-":13527,"Ġteleport":13528,"Ġbrowser":13529,"8978":13530,"Ġcheaper":13531,"indexing":13532,"Thursday":13533,"Ġnumerous":13534,"nope":13535,"Ġconcatenating":13536,"float":13537,"equivalent":13538,"âĨĵ":13539,"Ġpercentages":13540,"ĠApply":13541,"Ġartist":13542,"+-+-+-+-":13543,"666666666666":13544,"Ġsubstitution":13545,"Ġskiplist":13546,"atatype":13547,"Di":13548,"Phoenix":13549,"Space":13550,"cissors":13551,"determine":13552,"{-":13553,"Ġultimate":13554,"reaking":13555,"Ġele":13556,"entially":13557,"entify":13558,"aked":13559,"Ġshap":13560,"ĠTell":13561,"ssss":13562,"],[]]":13563,"abbab":13564,"andler":13565,"Ġtiming":13566,"ĠPhoenix":13567,"ĠRandom":13568,"ubmit":13569,"forall":13570,"Ġresubmit":13571,"ddd":13572,"Ġ[[[":13573,"()]":13574,"Ġ2014":13575,"Ġ173":13576,"Ġhandles":13577,"Ġhandful":13578,"icians":13579,"--------------------":13580,"whites":13581,"Ġparticipated":13582,"Ġqueues":13583,"9999999999":13584,"Ġbehalf":13585,"YYY":13586,"ĠKingdom":13587,"Ġathletes":13588,"Ġfeeling":13589,"Ġtrivially":13590,"Identify":13591,"Rearrange":13592,"Ġadvantage":13593,",),":13594,".'.":13595,"FIN":13596,"Such":13597,"SFO":13598,"Tip":13599,"Tetris":13600,"drip":13601,"hcc":13602,"nons":13603,"rz":13604,"ratulations":13605,"ski":13606,"var":13607,"writ":13608,"¼âĶĢâĶĢâĶĢâĶ":13609,"äº":13610,"utorial":13611,"Ġpond":13612,"Ġpep":13613,"Ġtomorrow":13614,"Ġ[`":13615,"Ġlibraries":13616,"Ġstar":13617,"owed":13618,"aine":13619,"Ġ\"!!":13620,"Ġ`()`":13621,"Ġarcher":13622,"Ġvapor":13623,"Ġka":13624,"Ġexerted":13625,"olomon":13626,"usb":13627,"Ġ765432":13628,"Ġproceeded":13629,"strained":13630,"articles":13631,"actual":13632,"Ġgrab":13633,"rii":13634,"peron":13635,"Ġxxx":13636,"Ġund":13637,"ĠMir":13638,"ĠMang":13639,"ĠKar":13640,"ĠLynn":13641,"ĠLeading":13642,"ĠLargest":13643,"Ġspider":13644,"Ġ```\\":13645,"Ġcoloured":13646,"udoku":13647,"Ġedit":13648,"Ġpret":13649,"ĠXX":13650,"Ġsmooth":13651,"Ġ{\\":13652,"ĠJe":13653,"ĠAllowed":13654,"Prov":13655,"198":13656,"beer":13657,"adding":13658,"Ġrecie":13659,"icia":13660,"Ġsignatures":13661,"Ġtriangulation":13662,"Ġsimplest":13663,"902":13664,"Ġmysterious":13665,"ĠPops":13666,"Ġ(`$":13667,"previous":13668,"Being":13669,"Ġvolumes":13670,"Ġpayments":13671,"ĠSuzuki":13672,"Units":13673,"Definition":13674,"Ġcubed":13675,"Ġ\"/\\\\":13676,"Ġspecification":13677,"ĠTrans":13678,"Ġwatchmen":13679,"}}(":13680,"CountCorrect":13681,"repeater":13682,"TRING":13683,"Ġanti":13684,"Ġinterpret":13685,"ĠSteve":13686,"Ġomitting":13687,"Ġtricky":13688,"Ġpreserve":13689,"Ġ`,`":13690,"++++++++++++++++++++++++++++++++++++++++++++++++++++++++++++++++++++++++++++++++++++++++++++++++++++":13691,"Ġchopped":13692,"Ġpreparation":13693,"ĠdeepCount":13694,"ĠLucy":13695,"Ġhacked":13696,"spell":13697,"ĠZeroes":13698,"Ġreservoir":13699,"ODY":13700,"Ġderivative":13701,"ameleons":13702,"ĠSarah":13703,"ĠCongratulations":13704,"hyperrectangularity":13705,"Ġpepperon":13706,"Ġvaporcode":13707,"CountCorrectCharacters":13708,"AV":13709,"MATI":13710,"OQ":13711,"Sp":13712,"Several":13713,"bacher":13714,"eah":13715,"fa":13716,"Â¥":13717,"Ġouput":13718,"lege":13719,"esc":13720,"Ġpat":13721,"Ġpaws":13722,"Ġbatt":13723,"alian":13724,"icable":13725,"Ġ03":13726,"Ġitalian":13727,"ulates":13728,"ĠCows":13729,"Ġ645":13730,"Ġanyway":13731,"izard":13732,"Ġugly":13733,"ĠPy":13734,"ĠPuzzle":13735,"ĠLong":13736,"ĠFrid":13737,"-------------":13738,"Ġdescend":13739,"(\"-":13740,"2332":13741,"338":13742,"hence":13743,"Ġ^--":13744,"Ġgeneration":13745,"ANG":13746,"908":13747,"Obviously":13748,"1111111111111111":13749,"represented":13750,"Ġbarrel":13751,"Ġprepended":13752,"333333":13753,"hoj":13754,"Ġanticip":13755,"âĪŀ":13756,"Ġmidpoint":13757,"Parse":13758,"Ġasterisks":13759,"ĠLua":13760,"ĠMagic":13761,"ĠGenerator":13762,"Ġprotein":13763,"Ġrailway":13764,"higher":13765,"Ġrarely":13766,"ĠRelated":13767,"Ġforbidden":13768,"Ġexperienced":13769,"ĠFridays":13770,"+)":13771,"043":13772,"Master":13773,"Nikhil":13774,"Wednesday":13775,"gers":13776,"gaps":13777,"sine":13778,"science":13779,"oner":13780,"Ġ112":13781,"Ġpir":13782,"Ġpizzas":13783,"Ġmoon":13784,"Ġrein":13785,"Ġstyle":13786,"Ġ\"[":13787,"Ġsecs":13788,"iveness":13789,"ĠNodes":13790,"Ġ66666":13791,"1150000":13792,"ĠBits":13793,"Ġalbe":13794,"ĠEast":13795,"ĠKal":13796,"tosine":13797,"ĠDouble":13798,"9988":13799,"rrrr":13800,"Ġdetail":13801,"Ġrubles":13802,"ĠChildren":13803,"ĠLeg":13804,"Ġphys":13805,"Ġmyth":13806,"Ġ)\\_":13807,"III":13808,"098":13809,"8600002":13810,"disc":13811,"HED":13812,"Ġbanks":13813,"Ġbidirectionally":13814,"OOO":13815,"01011":13816,"uthors":13817,"desimplify":13818,"calc":13819,"cubic":13820,"Pete":13821,"QRST":13822,"Ġresearcher":13823,"9640000":13824,"Currently":13825,"Ġhalves":13826,"masterpiece":13827,"Ġ88888888":13828,"Ġdataset":13829,"edfda":13830,"11500002":13831,"Ġalbeit":13832,"99888600002":13833,"'?":13834,"Earth":13835,"Euler":13836,"Match":13837,"Slope":13838,"buzz":13839,"}```":13840,"hel":13841,"Ġairst":13842,"reach":13843,"Ġfrequen":13844,"ancy":13845,"Ġinequal":13846,"orange":13847,"Ext":13848,"Ġstaying":13849,"ĠSalmon":13850,"rike":13851,"ĠWi":13852,"ĠDishes":13853,"clic":13854,"ĠVert":13855,"336":13856,"Compare":13857,"597":13858,"cycle":13859,"Ġstructures":13860,"Ġhotdogs":13861,"cury":13862,"Profit":13863,"Ġlogin":13864,"Ġevaluation":13865,"---------------|":13866,"Functions":13867,"Ġearned":13868,"appears":13869,"simple":13870,"Ġ'.',":13871,"Ġtrivial":13872,"]+[":13873,"Ġairstrike":13874,"Ġfrequencies":13875,"*',":13876,"EY":13877,"HA":13878,"Michael":13879,"SEND":13880,"Whe":13881,"dl":13882,"domin":13883,"money":13884,"pig":13885,"serts":13886,"vowels":13887,"istry":13888,"ĠSolution":13889,"Ġshared":13890,"0000000":13891,"ĠsubrectangleQueries":13892,"complete":13893,"perfect":13894,"ĠHu":13895,"ĠHarshad":13896,"Ġrescue":13897,"]]],[":13898,"]]);":13899,"ĠDig":13900,"ĠInformation":13901,"crete":13902,"Ġmanually":13903,"ĠXY":13904,"Ġzip":13905,"Ġdecision":13906,"ĠJuice":13907,"660":13908,"2839":13909,"4050":13910,"beh":13911,"443":13912,"Ġoffsp":13913,"[[[[":13914,"Ġflows":13915,"Ġdecreased":13916,"Ġprefixed":13917,"âīł":13918,"Ġmisbeh":13919,"Ġburst":13920,"Ġcamera":13921,"ĠHerr":13922,",...].":13923,"Petya":13924,"Ġdoubling":13925,"Ġdreams":13926,"groups":13927,"Ġoffspring":13928,"1101":13929,"Below":13930,"Nil":13931,"]/":13932,"kq":13933,"rat":13934,"ãĢ":13935,"Ġsq":13936,"Ġsilver":13937,"Ġbath":13938,"acaba":13939,"ota":13940,"Ġ\"?\",":13941,"Ġtrad":13942,"ĠPaja":13943,"Ġcharm":13944,"Ġspacing":13945,"Ġclub":13946,"abcab":13947,"249":13948,"Ġruntime":13949,"Ġoptical":13950,"Neither":13951,"Ġ246":13952,"ĠContest":13953,"10001":13954,"ĠWithout":13955,"Ġsupporter":13956,"Devu":13957,"Ġpurchasing":13958,"iarism":13959,"Ġquadru":13960,"ĠByte":13961,"ĠHooli":13962,"Ġpurely":13963,"Ġbowls":13964,"Ġchopsticks":13965,"Ġcategory":13966,"ĠTriangles":13967,"ĠPipernet":13968,"'''":13969,"Ġplagiarism":13970,"099":13971,"656":13972,"820":13973,"Book":13974,"QH":13975,"SB":13976,"UKI":13977,"bmatrix":13978,"ox":13979,"Ġtleft":13980,"once":13981,"Ġcalendar":13982,"atach":13983,"Ġpapers":13984,"Ġbal":13985,"Ġelections":13986,"``,":13987,"Ġ$'":13988,"Ġ\"*\"":13989,"placing":13990,"Ġsemit":13991,"Ġchances":13992,"Ġtright":13993,"ordance":13994,"welld":13995,"Ġresolved":13996,"Ġstartups":13997,"uess":13998,"ĠOK":13999,"Ġ1232":14000,"Ġ...`":14001,"ĠGive":14002,"Ġmultiplies":14003,"ĠJiro":14004,"within":14005,"Ġbeforehand":14006,"inks":14007,"Ġtranspose":14008,"leetc":14009,"oneyr":14010,"Ġaccordance":14011,"leftmost":14012,"Ġchallenging":14013,"Ġstatistics":14014,"trie":14015,"ababcc":14016,"evin":14017,"ĠCollection":14018,"abcabcababcc":14019,"+-+":14020,"Ġphrases":14021,"bigu":14022,"Ġprimorial":14023,"Ġfarmer":14024,"OLUKI":14025,"aabcbc":14026,"items":14027,"ĠOperations":14028,"Empty":14029,"--|--|":14030,"ADERYP":14031,"Ġenvironment":14032,"Ġdeterminant":14033,"Ġafraid":14034,"ĠClearly":14035,"onehoneyr":14036,"welldonehoneyr":14037,"ADERYPOLUKI":14038,"JD":14039,"KD":14040,"Mafia":14041,"Py":14042,"Pass":14043,"iN":14044,"Ġbum":14045,"Ġreview":14046,"Ġlaying":14047,"Ġhide":14048,"Ġconstru":14049,"ĠAgain":14050,"union":14051,"\",\".\",\"":14052,"ĠBr":14053,"ĠBott":14054,"angled":14055,"Ġuncle":14056,"12321":14057,"fortable":14058,"ĠLoop":14059,"cccc":14060,"575":14061,"Ġwanting":14062,"ATA":14063,"Ġ!'":14064,"ictional":14065,"singly":14066,"Ġdolls":14067,"Ġowned":14068,"oids":14069,"Ġimplemented":14070,"Ġ%.":14071,"Ġexamination":14072,"Ġsells":14073,"DEC":14074,"ĠBBBB":14075,"Ġapproaching":14076,"Ġhostile":14077,"Ġdealing":14078,"ĠCompute":14079,"Ġsemester":14080,"Ġnovels":14081,"Ġsyllables":14082,"Factorial":14083,"Ġjungle":14084,"Ġswitched":14085,"ĠVertical":14086,"Ġconstructs":14087,"01010":14088,"Bulb":14089,"NB":14090,"Publish":14091,"Range":14092,"food":14093,"gons":14094,"mu":14095,"pet":14096,"uing":14097,"Ã³":14098,"hear":14099,"refer":14100,"Ġinfection":14101,"0042":14102,"omorphic":14103,"erscore":14104,"Ġhist":14105,"Ġstuff":14106,"imeters":14107,"Ġ487":14108,"Ġexcess":14109,"ĠSHI":14110,"Ġattraction":14111,"Ġ'>":14112,"Ġ'!',":14113,"Ġweather":14114,"ĠBrowserHistory":14115,"Ġsubgrid":14116,"apid":14117,"Ġtimmy":14118,"Ġcoverage":14119,"ĠDog":14120,"ĠJem":14121,"}$:":14122,"Ġinitialized":14123,"ensive":14124,"Chefu":14125,"Along":14126,"erving":14127,"ĠChanek":14128,"BBC":14129,"subtraction":14130,"Ġfigured":14131,"Ġbanned":14132,"Ġpolygons":14133,"ĠDev":14134,"Ġconcatenations":14135,"ASY":14136,"ĠLucky":14137,"ĠConsidering":14138,"Ġcollision":14139,"Ġswitching":14140,"Ġpopularity":14141,"Ġefficiently":14142,"Ġsuggest":14143,"Ġscanning":14144,"Ġdeduce":14145,"Ġbolded":14146,"Ġaston":14147,"Ġokay":14148,"Ġterrain":14149,"Ġswimming":14150,"lambda":14151,"Ġconsumed":14152,"Underscore":14153,"hiraj":14154,")\",":14155,"Opening":14156,"iac":14157,"kar":14158,"rus":14159,"wart":14160,"wide":14161,"yms":14162,"onna":14163,"Ġ1111":14164,"encoding":14165,"Ġinse":14166,"Ġpers":14167,"oub":14168,"Ġtoler":14169,"ionel":14170,"Ġgonna":14171,"Ġstoring":14172,"cta":14173,"sequ":14174,"ĠAverage":14175,"ivity":14176,"turned":14177,"ĠCG":14178,"ĠSure":14179,"chan":14180,"ĠFair":14181,"Ġabundant":14182,"grap":14183,"Ġedited":14184,"ĠJH":14185,"Ġ/\\":14186,"Ġpark":14187,"ĠĠĠĠĠĠĠĠĠĠĠĠĠĠĠĠĠĠĠĠĠĠĠĠĠĠĠĠĠĠĠĠĠĠĠĠĠĠĠĠĠĠĠĠĠĠĠĠĠĠĠĠĠĠ":14188,"707":14189,"bbd":14190,"ĠAnswers":14191,"Ġfolding":14192,"flows":14193,"Ġlegal":14194,"Ġkilomet":14195,"ĠInitialize":14196,"Ġapproximation":14197,"Ã©mon":14198,"Ġcorrects":14199,"ĠChampions":14200,"ĠBarney":14201,"Ġinsects":14202,")>":14203,":*":14204,";\\":14205,"?âĢĿ":14206,"Amer":14207,"ELLO":14208,"Fred":14209,"Frank":14210,"JOY":14211,"LESS":14212,"Morgan":14213,"Nim":14214,"Ryan":14215,"Turn":14216,"`]":14217,"bsp":14218,"bucket":14219,"dbb":14220,"fdf":14221,"lash":14222,"male":14223,"mouth":14224,"nor":14225,"pH":14226,"pix":14227,"polit":14228,"rule":14229,
[...]
