{"version":"1.0","truncation":null,"padding":null,"added_tokens":[{"id":0,"special":true,"content":"<pad>","single_word":false,"lstrip":false,"rstrip":false,"normalized":false},{"id":1,"special":true,"content":"<unk>","single_word":false,"lstrip":false,"rstrip":false,"normalized":false},{"id":2,"special":true,"content":"<bos>","single_word":false,"lstrip":false,"rstrip":false,"normalized":false},{"id":3,"special":true,"content":"<eos>","single_word":false,"lstrip":false,"rstrip":false,"normalized":false}],"normalizer":null,"pre_tokenizer":{"type":"ByteLevel","add_prefix_space":false,"trim_offsets":true},"post_processor":{"type":"ByteLevel","add_prefix_space":true,"trim_offsets":false},"decoder":{"type":"ByteLevel","add_prefix_space":true,"trim_offsets":true},"model":{"type":"BPE","dropout":null,"unk_token":null,"continuing_subword_prefix":null,"end_of_word_suffix":null,"fuse_unk":false,"vocab":{"<pad>":0,"<unk>":1,"<bos>":2,"<eos>":3,"!":4,"\"":5,"#":6,"$":7,"%":8,"&":9,"'":10,"(":11,")":12,"*":13,"+":14,",":15,"-":16,".":17,"/":18,"0":19,"1":20,"2":21,"3":22,"4":23,"5":24,"6":25,"7":26,"8":27,"9":28,":":29,";":30,"<":31,"=":32,">":33,"?":34,"@":35,"A":36,"B":37,"C":38,"D":39,"E":40,"F":41,"G":42,"H":43,"I":44,"J":45,"K":46,"L":47,"M":48,"N":49,"O":50,"P":51,"Q":52,"R":53,"S":54,"T":55,"U":56,"V":57,"W":58,"X":59,"Y":60,"Z":61,"[":62,"\\":63,"]":64,"^":65,"_":66,"`":67,"a":68,"b":69,"c":70,"d":71,"e":72,"f":73,"g":74,"h":75,"i":76,"j":77,"k":78,"l":79,"m":80,"n":81,"o":82,"p":83,"q":84,"r":85,"s":86,"t":87,"u":88,"v":89,"w":90,"x":91,"y":92,"z":93,"{":94,"|":95,"}":96,"~":97,"¡":98,"¢":99,"£":100,"¤":101,"¥":102,"¦":103,"§":104,"¨":105,"©":106,"ª":107,"«":108,"¬":109,"®":110,"¯":111,"°":112,"±":113,"²":114,"³":115,"´":116,"µ":117,"¶":118,"·":119,"¸":120,"¹":121,"º":122,"»":123,"¼":124,"½":125,"¾":126,"¿":127,"À":128,"Á":129,"Â":130,"Ã":131,"Ä":132,"Å":133,"Æ":134,"Ç":135,"È":136,"É":137,"Ê":138,"Ë":139,"Ì":140,"Í":141,"Î":142,"Ï":143,"Ð":144,"Ñ":145,"Ò":146,"Ó":147,"Ô":148,"Õ":149,"Ö":150,"×":151,"Ø":152,"Ù":153,"Ú":154,"Û":155,"Ü":156,"Ý":157,"Þ":158,"ß":159,"à":160,"á":161,"â":162,"ã":163,"ä":164,"å":165,"æ":166,"ç":167,"è":168,"é":169,"ê":170,"ë":171,"ì":172,"í":173,"î":174,"ï":175,"ð":176,"ñ":177,"ò":178,"ó":179,"ô":180,"õ":181,"ö":182,"÷":183,"ø":184,"ù":185,"ú":186,"û":187,"ü":188,"ý":189,"þ":190,"ÿ":191,"Ā":192,"ā":193,"Ă":194,"ă":195,"Ą":196,"ą":197,"Ć":198,"ć":199,"Ĉ":200,"ĉ":201,"Ċ":202,"ċ":203,"Č":204,"č":205,"Ď":206,"ď":207,"Đ":208,"đ":209,"Ē":210,"ē":211,"Ĕ":212,"ĕ":213,"Ė":214,"ė":215,"Ę":216,"ę":217,"Ě":218,"ě":219,"Ĝ":220,"ĝ":221,"Ğ":222,"ğ":223,"Ġ":224,"ġ":225,"Ģ":226,"ģ":227,"Ĥ":228,"ĥ":229,"Ħ":230,"ħ":231,"Ĩ":232,"ĩ":233,"Ī":234,"ī":235,"Ĭ":236,"ĭ":237,"Į":238,"į":239,"İ":240,"ı":241,"Ĳ":242,"ĳ":243,"Ĵ":244,"ĵ":245,"Ķ":246,"ķ":247,"ĸ":248,"Ĺ":249,"ĺ":250,"Ļ":251,"ļ":252,"Ľ":253,"ľ":254,"Ŀ":255,"ŀ":256,"Ł":257,"ł":258,"Ń":259,"ĠĠ":260,"ĠĠĠĠ":261,"ĠĠĠ":262,"ĠĠĠĠĠĠĠĠ":263,"in":264,"ĠĠĠĠĠĠĠ":265,"Ġ=":266,"Ġr":267,"Ġi":268,"or":269,"Ġin":270,"se":271,"ĠĠĠĠĠĠĠĠĠĠĠ":272,"st":273,"an":274,"le":275,"Ġre":276,"ur":277,"00":278,"):":279,"Ġf":280,"de":281,"Ġif":282,"Ġ1":283,"Ġn":284,"Ġc":285,"ar":286,"tur":287,"turn":288,"er":289,"Ġreturn":290,"ge":291,"on":292,"Ġfor":293,"Ġp":294,"Ġm":295,"ĠĠĠĠĠĠĠĠĠĠĠĠĠĠĠ":296,"int":297,"um":298,"))":299,"Ġ+":300,"en":301,"def":302,"Ġ-":303,"al":304,"lf":305,"self":306,"Ġs":307,"Ġt":308,"Ġd":309,"Ġ0":310,"el":311,"ut":312,"ange":313,"Ġb":314,"at":315,"len":316,"it":317,"Ġrange":318,"ap":319,"ist":320,"re":321,"Ġl":322,"un":323,"Ġw":324,"ol":325,"Ġa":326,"Ġan":327,"ion":328,"Ġel":329,"])":330,"ot":331,"Ġ'":332,"()":333,"Ġ[":334,"Ġint":335,"Ġ==":336,"ĠĠĠĠĠĠĠĠĊ":337,"Ġdef":338,"Ġ(":339,"Ġ2":340,"oun":341,"he":342,"ax":343,"ue":344,"Ġ#":345,"arr":346,"][":347,"la":348,"ct":349,"Ġself":350,"ĠĠĠĠĠĠĠĠĠĠĠĠĠĠĠĠĠĠĠ":351,"Ġelse":352,"end":353,"ss":354,"Ġx":355,"ount":356,"Ġst":357,"ro":358,"put":359,"Ġ+=":360,"ĠĠĠĠĠĠĠĠĠĠĠĠ":361,"Ġlen":362,"0000":363,"rint":364,"mp":365,"app":366,"],":367,"hi":368,"ri":369,"())":370,"ed":371,"ort":372,"Ġj":373,"Ġ<":374,"Ġo":375,"Ġnum":376,"..":377,"Ġand":378,"čĊ":379,"ĠĊ":380,"Ġres":381,"me":382,"Ġ>":383,"append":384,"ĠS":385,"Ġmax":386,"List":387,"ing":388,"Ġ\"":389,"Ġv":390,"Ġk":391,"Ġprint":392,"lass":393,"input":394,"Ġ*":395,"Ġ3":396,"class":397,"num":398,"ul":399,"if":400,"gh":401,"ce":402,"olut":403,"olution":404,"',":405,"Ġ4":406,"is":407,"Ġ->":408,"ow":409,"ĠList":410,"Ġans":411,"ĠSolution":412,"Ġy":413,"==":414,"pl":415,"ode":416,"hile":417,"ent":418,"id":419,"ght":420,"]:":421,"ck":422,"for":423,"11":424,"po":425,"Ġdp":426,"plit":427,"ft":428,"ord":429,"ĠĠĠĠĠĠĠĠĠĠĠĠĊ":430,"Ġwhile":431,"ult":432,"Ġg":433,"ex":434,"split":435,"Ġmin":436,"Ġarr":437,"th":438,"__":439,"Ġcount":440,"ad":441,"one":442,"str":443,"Ġh":444,"all":445,"ĠT":446,"get":447,"().":448,"left":449,"Ġstr":450,"mport":451,"ate":452,"ind":453,"Ġnot":454,"10":455,"((":456,"Ġcur":457,"Ġse":458,"art":459,"ĠĠĠĠĠĠĠĠĠĠĠĠĠĠĠĠ":460,"iz":461,")]":462,"Ġthe":463,"lo":464,"ĠĠĠĠĊ":465,"di":466,"ĠA":467,"),":468,"val":469,"Ġof":470,"ay":471,"!=":472,"ve":473,"':":474,"ize":475,"Ġbe":476,"000":477,"Ġ5":478,"list":479,"Ġ8":480,"ĠN":481,"ak":482,"99":483,"Ġsum":484,"Ġco":485,"map":486,"rue":487,"('":488,"Ġ7":489,"ions":490,"ight":491,"//":492,"Ġ%":493,"dex":494,"ĠF":495,"Ġlist":496,"les":497,"Ġq":498,"ch":499,"Ġ[]":500,"33":501,"alse":502,"\",":503,"Ġpo":504,"Ġ6":505,"Ġ{":506,"Ġelif":507,"+=":508,"max":509,"ext":510,"ber":511,"mo":512,")):":513,"20":514,"Ġ:":515,"Ġor":516,"count":517,"40":518,"es":519,"Ġnums":520,"Ġ_":521,"27":522,"Ġe":523,"47":524,"13":525,"23":526,"ey":527,"rom":528,"am":529,"Ġwall":530,"up":531,"ĠFalse":532,"gth":533,"Ġis":534,"ĠĠĠĠĠĠĠĠĠĠĠĠĠĠĠĠĠĠĠĠĠĠĠ":535,"sum":536,"ter":537,"ans":538,"ame":539,"ĠTrue":540,"17":541,"Ġdi":542,"60":543,"Ġ9":544,"57":545,"67":546,"19":547,"49":548,"ath":549,"87":550,"Ġ>=":551,"Ġ<=":552,"Ġ!=":553,"80":554,"[-":555,"Ġ-=":556,"29":557,"43":558,"##":559,"il":560,"59":561,"Ġne":562,"Ġcol":563,"53":564,"69":565,"')":566,"op":567,"Ġimport":568,"size":569,"89":570,"pe":571,"ub":572,"Ġval":573,"63":574,"ack":575,"Ġinput":576,"83":577,"ott":578,"**":579,"ime":580,"]]":581,"ver":582,"Ġbott":583,"(\"":584,"Ġbeer":585,"from":586,"Ġcurr":587,"....":588,"nums":589,"Ġresult":590,"ints":591,"Ġbottles":592,"our":593,"cur":594,"Ġhe":595,"()))":596,"nt":597,"res":598,"ix":599,"Ġcon":600,"min":601,"ĠĠĠĠĠĠĠĠĠĠĠĠĠĠĠĠĊ":602,"print":603,"([":604,"\\\"":605,"rid":606,"per":607,"ab":608,"arget":609,"Ġ10":610,"co":611,"=[":612,"index":613,"emp":614,"act":615,"Ġde":616,"Ġleft":617,"dict":618,"sort":619,"[:":620,"Ġon":621,"reak":622,"50":623,"jo":624,"set":625,"arent":626,"length":627,"add":628,"].":629,"\")":630,"Ġto":631,"as":632,"Ġpre":633,"let":634,"Ġword":635,"start":636,"Ġen":637,"00000":638,"ne":639,"41":640,"us":641,"dp":642,"Ġbreak":643,"Ġright":644,"Ġnode":645,"import":646,"isit":647,"em":648,"21":649,"--":650,"ree":651,"da":652,"ir":653,"bda":654,"ound":655,"qu":656,"Ġbo":657,"Ġit":658,"ctions":659,"51":660,"ãģ":661,"erate":662,"ac":663,")-":664,"Ġfind":665,"Ġset":666,"otal":667,"Ġch":668,"fs":669,"ep":670,"pop":671,"ain":672,"Ġar":673,"umerate":674,"ĠNone":675,"isited":676,"key":677,"join":678,"Ġenumerate":679,"Ġu":680,"81":681,"61":682,"Ġ\"\"":683,"Ġstart":684,"*(":685,"word":686,"Ġnew":687,"od":688,"om":689,"et":690,"right":691,"():":692,"que":693,"im":694,"ĉĉ":695,"Ġcont":696,"lections":697,"ys":698,"]=":699,"and":700,"Ġsort":701,"Ġro":702,"Ġ__":703,"ere":704,"node":705,"idx":706,"Ġ{}":707,"bs":708,"heck":709,"ype":710,"Ġcollections":711,"iff":712,"number":713,"ine":714,"ĠM":715,".\\":716,"\",\"":717,"pos":718,")+":719,"mat":720,"ĠC":721,"Ġvisited":722,"Ġpa":723,"ower":724,"Ġ//":725,"init":726,"ard":727,"]+":728,"]-":729,"Ġtarget":730,"ault":731,"inue":732,"ixel":733,"rt":734,"Ġpixel":735,"Ġpos":736,"root":737,"ĠĠĠĠĠ":738,"letter":739,"to":740,"Ġnumber":741,"Ġend":742,")))":743,"ish":744,"Ġcontinue":745,"Ġz":746,"Ġsorted":747,"24":748,"ase":749,"77":750,"edge":751,"Ġget":752,"find":753,"tr":754,"Ġtemp":755,"bj":756,"loat":757,"Ġtotal":758,"]==":759,"array":760,"26":761,"Ġlo":762,"aultdict":763,"ip":764,"48":765,"ers":766,"rap":767,"__(":768,"ations":769,"ok":770,"Ġmath":771,"Ġkey":772,"ĠD":773,"string":774,"73":775,"ake":776,"Ġroot":777,"Ġabs":778,"Ġ''":779,"Ġone":780,"row":781,"Ġcnt":782,"Ġme":783,"]*":784,"ance":785,"ĠĠĊ":786,"raph":787,"est":788,"der":789,"ast":790,"####":791,"Co":792,"Ġdist":793,"\":":794,"Ġmid":795,"parent":796,"79":797,"inf":798,"gest":799,"Ġth":800,"25":801,"ld":802,"own":803,"Ġhere":804,"Ġ\"\"\"":805,"verse":806,"ore":807,"28":808,"dd":809,"Ġindex":810,"rime":811,"Ġsys":812,"ic":813,"Ġgrid":814,"col":815,"ĠB":816,"]))":817,"ition":818,"ill":819,"Ġdfs":820,"Ġobj":821,"Ġheap":822,"name":823,"dx":824,"Ġpass":825,"value":826,"Ġpro":827,"hild":828,"46":829,"!!":830,"())):":831,"age":832,"Ġpoints":833,"read":834,"]])":835,"Ġyour":836,"30":837,"Ġnext":838,"ors":839,"39":840,"ven":841,"move":842,"[(":843,"ra":844,"line":845,"45":846,"Ġstack":847,"rip":848,"pre":849,"Ġ[[":850,"Ġam":851,"Ġseen":852,"Ġas":853,"Ġstring":854,"curr":855,"lam":856,"lambda":857,"Ġ/":858,"<=":859,":-":860,"Ġun":861,"ith":862,"next":863,"Ġprev":864,"Node":865,"ache":866,"fit":867,"du":868,"70":869,"bo":870,"ĠK":871,"lem":872,"git":873,"ity":874,"15":875,"points":876,"ĠĠĠĠĠĠĠĠĠĠĠĠĠĠĠĠĠĠĠĠ":877,"Ġout":878,"]):":879,"grid":880,"lower":881,"=[]":882,"16":883,"100":884,"pro":885,"44":886,"Ġedge":887,"roup":888,"00000000":889,"Ġdown":890,">=":891,"Ġrow":892,"Ġvalue":893,"din":894,"ounter":895,"In":896,"','":897,"None":898,"Ġmemo":899,"irst":900,"item":901,"Sum":902,"86":903,"ise":904,"pt":905,"ĠL":906,"ig":907,"Ġex":908,"12":909,"Ġque":910,"con":911,"ust":912,"Ġcook":913,"Ġdish":914,"Ġidx":915,"Ġlast":916,"Ġfloat":917,"time":918,"Ġmat":919,"Ġstep":920,"ation":921,"Ġtime":922,"Ġheapq":923,"we":924,"ĠĠĠĠĠĠĠĠĠĠĠĠĠĠĠĠĠĠĠĠĊ":925,"Ġcurrent":926,"Ġchar":927,"55":928,"37":929,"Ġdefaultdict":930,"Cost":931,"ear":932,"Ġlam":933,"----":934,"Ġbool":935,"Ġ**":936,"Ġlambda":937,"ces":938,"Ġwords":939,"88":940,"Ġsub":941,"old":942,"22":943,"pla":944,"Ġwe":945,"Ġgraph":946,"ect":947,"Take":948,"Ġparent":949,"ating":950,"Ġaround":951,"ib":952,"ive":953,"ank":954,"able":955,"ou":956,"readline":957,"Ġcheck":958,"ĠĠĠĠĠĠĠĠĠĠĠĠĠĠĠĠĠĠĠĠĠĠĠĠĠĠĠ":959,"ays":960,"ols":961,"ongest":962,"stack":963,"...":964,"ins":965,"Ġqueue":966,"olve":967,"56":968,"lag":969,"Ġall":970,"400":971,"type":972,"Ġmap":973,"Ġret":974,"000000":975,"Ġhi":976,"new":977,"Ġ20":978,"point":979,"alle":980,"of":981,"Sub":982,"nTake":983,"'.":984,")*":985,"ãĤ":986,"[::-":987,"ary":988,"ush":989,"Ġ40":990,"18":991,"char":992,"Ġletter":993,"Ġtr":994,"gs":995,"Ġcost":996,"child":997,"],[":998,"90":999,"rix":1000,"ence":1001,"Ġ'((":1002,"iles":1003,",-":1004,"93":1005,"-=":1006,"Ġlength":1007,"ial":1008,"stdin":1009,"mid":1010,"ĠP":1011,"Ġdiff":1012,"['":1013,"Ġdict":1014,"dist":1015,"0000000":1016,"isect":1017,"Ġ13":1018,"ant":1019,")//":1020,"fix":1021,"Ġname":1022,"Val":1023,"ata":1024,"li":1025,"vel":1026,"pp":1027,"mod":1028,"core":1029,"rie":1030,"OD":1031,"range":1032,"Ġle":1033,"True":1034,"uel":1035,"200":1036,"97":1037,"out":1038,"Ġmod":1039,"are":1040,"elper":1041,"66":1042,"58":1043,"strip":1044,")/":1045,"sub":1046,"Ġtmp":1047,"Ġdic":1048,"req":1049,"ero":1050,"Ġedges":1051,"temp":1052,"abs":1053,"heapp":1054,"words":1055,"Ġflag":1056,"(-":1057,"ery":1058,"Ġfact":1059,"ĠR":1060,"ustom":1061,"Ġpar":1062,"14":1063,"heap":1064,"\",\"....":1065,"ag":1066,"ru":1067,"Ġmo":1068,"loc":1069,"ator":1070,"bin":1071,"Ġlst":1072,"\\\"\\\"":1073,"Po":1074,"duct":1075,"Di":1076,"{}":1077,"____":1078,"Ġsolve":1079,"Ġcom":1080,"lst":1081,"Ġal":1082,"MM":1083,"target":1084,"her":1085,")%":1086,"diff":1087,"ang":1088,"ĠCounter":1089,"Ġsize":1090,"()]":1091,"31":1092,":]":1093,"Ġarray":1094,"Len":1095,"Max":1096,"Name":1097,"71":1098,"Ġdiv":1099,"fact":1100,"Ġprime":1101,"Time":1102,"Ġfirst":1103,"ach":1104,"uf":1105,"68":1106,"Ġreverse":1107,"Ġcan":1108,"imit":1109,"Ġcounter":1110,"ĠI":1111,"']":1112,"cache":1113,"cnt":1114,"digit":1115,"place":1116,"Ġfrom":1117,"ingCost":1118,"Ġlongest":1119,"result":1120,"(*":1121,"ide":1122,"lement":1123,"########":1124,"sorted":1125,"return":1126,"values":1127,"Ġfun":1128,"Ġare":1129,"Of":1130,"ible":1131,"code":1132,"wer":1133,"wo":1134,"while":1135,"Ġqu":1136,"rr":1137,"main":1138,"cost":1139,"inal":1140,"ies":1141,"ren":1142,"ĠĠĠĠĠĠĠĠĠĊ":1143,"''":1144,"keys":1145,"py":1146,"Ġiter":1147,"42":1148,"Ġdeque":1149,"Ġ'(":1150,")',":1151,"ĠY":1152,"800":1153,"Ġ|":1154,"Ġposition":1155,"pa":1156,"Ġadd":1157,"upper":1158,"cd":1159,"110":1160,"zy":1161,"sed":1162,"ustomers":1163,"Num":1164,"cept":1165,"52":1166,"eg":1167,"oll":1168,"items":1169,"ps":1170,"Ġbisect":1171,"format":1172,"ream":1173,"600":1174,"Ġ12":1175,"91":1176,"amp":1177,"text":1178,"Ġitem":1179,"Ġwill":1180,"\"\"":1181,"ait":1182,"Ġ,":1183,"Ġcra":1184,"Ġgroup":1185,"II":1186,"Ġcrazy":1187,"64":1188,"ĠĠĠĠĠĠĠĠĠ":1189,"Ġ&":1190,"rice":1191,"Ġ60":1192,"Ġ80":1193,"ction":1194,"ĠO":1195,"))',":1196,"54":1197,"ä¸":1198,").":1199,"year":1200,"igh":1201,"Ġunion":1202,"Ġboard":1203,"his":1204,"84":1205,"xt":1206,"Ġhead":1207,"St":1208,"reeNode":1209,"Ġpath":1210,"Ġcode":1211,"Ġ[(":1212,"Ġmove":1213,"ite":1214,"rank":1215,"Ġhas":1216,"qrt":1217,")])":1218,"Ġ((":1219,"ated":1220,"replace":1221,"Ġtext":1222,"Ġsm":1223,"ask":1224,"arch":1225,"math":1226,"defaultdict":1227,"reverse":1228,"ph":1229,"numbers":1230,"Ġ)":1231,"Ġzip":1232,"Ġsu":1233,"Check":1234,"ĠSt":1235,"prime":1236,"Ġbin":1237,"Ġprofit":1238,"ĠĠĠĊ":1239,"Ġad":1240,"ĠTreeNode":1241,"65":1242,"Ġpoint":1243,"Ġodd":1244,"Size":1245,"2000":1246,"com":1247,"rtype":1248,"float":1249,"Ġdel":1250,"remove":1251,"Ġamount":1252,"Ġhelper":1253,"Ġsh":1254,"erval":1255,"tools":1256,"par":1257,"ES":1258,"Ġ11":1259,"Ġ''.":1260,"cond":1261,"\".":1262,"False":1263,"Ġage":1264,")==":1265,"]],":1266,"uple":1267,"Ġsteps":1268,"4000":1269,"-(":1270,"unn":1271,"imum":1272,"Ġdo":1273,"ĠĠĠĠĠĠ":1274,"date":1275,"Ġtree":1276,"Checker":1277,"Ġbest":1278,"children":1279,"ef":1280,"Ġwith":1281,"]*(":1282,"lay":1283,"ĠG":1284,"other":1285,"Ġcomp":1286,"alc":1287,"ner":1288,"ment":1289,"XX":1290,"._":1291,"CC":1292,"Ġfuel":1293,"82":1294,"Ġloc":1295,"Ġanswer":1296,"Ġ100":1297,"ighb":1298,"To":1299,"sert":1300,"starting":1301,"ĠU":1302,"ell":1303,"ssible":1304,"day":1305,"Ġop":1306,"ly":1307,"case":1308,"Ġup":1309,"peed":1310,"ood":1311,"ĠW":1312,"Value":1313,"85":1314,"amount":1315,"Ġitertools":1316,"Ġdis":1317,"]+=":1318,"Pro":1319,"prev":1320,"Ġoutput":1321,"total":1322,"ta":1323,"group":1324,"Ġdistance":1325,"ĠMOD":1326,"Ġat":1327,"seq":1328,"Ġ400":1329,"ates":1330,"07":1331,"=(":1332,"Ġ'.":1333,"popleft":1334,"div":1335,"step":1336,"Ġmatrix":1337,"+(":1338,"utes":1339,"reamChecker":1340,"Ġrating":1341,"ie":1342,"ĠStreamChecker":1343,"cc":1344,"]),":1345,"Ġcache":1346,"board":1347,"NO":1348,"!!!!":1349,"Ġind":1350,"graph":1351,"Ġclass":1352,"]>":1353,"tree":1354,"Ġord":1355,"01":1356,"Ġuf":1357,"else":1358,"Count":1359,"09":1360,"03":1361,"Ġnumbers":1362,"Ġ@":1363,"62":1364,"data":1365,"quence":1366,"Ġheapp":1367,"weet":1368,"Ġ<<":1369,"ights":1370,"Ġwait":1371,"--------":1372,"Ġparam":1373,"argest":1374,"Ġtry":1375,"cre":1376,"Ġeven":1377,"Ġthat":1378,"Str":1379,"ĠYour":1380,"32":1381,"Ġscore":1382,"vert":1383,"ci":1384,"Ġdigit":1385,"Ġadj":1386,"====":1387,"!\"":1388,"ðŁ":1389,"parents":1390,"dic":1391,"ĺī":1392,"Ġround":1393,"ðŁĺī":1394,"last":1395,"sys":1396,"Ġprefix":1397,"/(":1398,"]!=":1399,"Ġinst":1400,"Ġmy":1401,"nect":1402,"heappush":1403,"idth":1404,"ĠE":1405,"ns":1406,"Ġmain":1407,"Ġ99":1408,"Ġthis":1409,"profit":1410,"75":1411,"no":1412,"Counter":1413,"onent":1414,"Ġlow":1415,")[":1416,"current":1417,"ave":1418,"ðŁĺīðŁĺī":1419,"Ġ'''":1420,"lock":1421,"ople":1422,"Ġli":1423,"Ġsuch":1424,":])":1425,"sqrt":1426,"position":1427,"8000":1428,"))]":1429,"dfs":1430,"ile":1431,"ng":1432,"Ġpiles":1433,"Ġexcept":1434,"=\"":1435,"Ġby":1436,"cto":1437,"Ġ50":1438,"ï¼":1439,"Ġ['":1440,"path":1441,"),(":1442,"allest":1443,"Ġ19":1444,"Ġoper":1445,"()):":1446,"='":1447,"quare":1448,"red":1449,"Ġcoins":1450,"Ġobject":1451,"union":1452,"matrix":1453,"ma":1454,"alled":1455,"ctools":1456,"ty":1457,"piles":1458,"Ġfreq":1459,"inish":1460,"Ġcalled":1461,")*(":1462,"Ġsolution":1463,"35":1464,"Ġ^":1465,"bit":1466,"first":1467,"eld":1468,"Ġ17":1469,"Ġmem":1470,")}":1471,"owel":1472,"Ġremain":1473,"Ġfactor":1474,"]=='":1475,"anti":1476,"34":1477,"Ġinstanti":1478,"1100":1479,"Ġlevel":1480,"Ġinstantiated":1481,"Ġ30":1482,"duce":1483,"Ġnp":1484,"Ġwh":1485,"ĠĠĠĠĠĠĠĠĠĠĠĠĠĠĠĠĠĠĠĠĠĠĠĠ":1486,"ute":1487,"ĠX":1488,"ãģ®":1489,"Ġchild":1490,"ĉĉĉ":1491,"Ġ\\\"\\\"":1492,"ded":1493,"Ġtype":1494,"opy":1495,"heappop":1496,"sc":1497,"rect":1498,"resh":1499,"head":1500,"Ġvalid":1501,"YES":1502,"':'":1503,"IN":1504,"cl":1505,"use":1506,"Ġper":1507,"6000":1508,"by":1509,"ĠH":1510,"mon":1511,"Ġany":1512,"Ġremove":1513,"Ġlimit":1514,"Ġrunn":1515,"ervals":1516,"ique":1517,"odd":1518,"ãĥ":1519,"Ġ15":1520,"layer":1521,"},":1522,"Ġno":1523,"Ġ[-":1524,"loor":1525,"'):":1526,"________":1527,"Ġbinary":1528,"Ġcalc":1529,"'s":1530,"pth":1531,"reshold":1532,"rating":1533,"stamp":1534,"locations":1535,"comp":1536,"ick":1537,"Length":1538,"Ġtwo":1539,"Ġbase":1540,"36":1541,"ork":1542,"(\\\"":1543,"Con":1544,"valid":1545,"Ġsecond":1546,"test":1547,"(),":1548,"form":1549,"Ġhigh":1550,"Ġfunctools":1551,"Index":1552,"72":1553,"angle":1554,"check":1555,"ield":1556,"Ch":1557,"order":1558,"trie":1559,"ulate":1560,"ello":1561,"Ġ')":1562,"Ġrec":1563,"Ġlargest":1564,"Points":1565,"110100":1566,"Le":1567,"level":1568,"ump":1569,"Ġpe":1570,"Ġquery":1571,"Ġ*=":1572,"Ġother":1573,"deque":1574,"args":1575,"Ġgcd":1576,"Ġelement":1577,"curs":1578,"Ġcl":1579,"å¯":1580,"ines":1581,"]<":1582,"Ġ18":1583,"ark":1584,"irs":1585,"query":1586,"ink":1587,"No":1588,"erge":1589,"ice":1590,"Ġ16":1591,"Ġ14":1592,"memo":1593,"76":1594,"Ġcustomers":1595,"lru":1596,"cle":1597,"Ġwin":1598,"even":1599,"af":1600,"dis":1601,"Ġcolor":1602,"[:-":1603,"Ġmx":1604,"counter":1605,"Ġeach":1606,"indow":1607,"limit":1608,"Ġtable":1609,"tern":1610,"95":1611,"96":1612,"ong":1613,"Ġtest":1614,"ains":1615,"Ġyear":1616,"Ġseq":1617,"Ġbit":1618,"not":1619,"Ġdata":1620,"Ġ26":1621,"alph":1622,"Ġfl":1623,"\\\",":1624,"imal":1625,"actions":1626,")>":1627,"Diff":1628,"edges":1629,"Ġrank":1630,"pppp":1631,"Re":1632,"Set":1633,"Ġdivis":1634,"price":1635,"Ġ24":1636,"andid":1637,"38":1638,"Ġreduce":1639,"queue":1640,"digits":1641,"io":1642,"che":1643,"Ġcounts":1644,"cy":1645,"tmp":1646,"ont":1647,"000000007":1648,"78":1649,"av":1650,".__":1651,"ign":1652,"74":1653,"Ġcoin":1654,"Ġpow":1655,"ĠĠĠĠĠĠĠĠĠĠĠĠĠĠĠĠĠĠĠĠĠĠĠĠĊ":1656,"ob":1657,"lets":1658,"land":1659,"ail":1660,"Ġused":1661,"Ġ(-":1662,"Ġ70":1663,"ls":1664,"Ġprimes":1665,"zero":1666,"Ġ\\\"":1667,"å°":1668,"Ġgo":1669,"factor":1670,"Ġdays":1671,"Ġshort":1672,"Ġ'(((":1673,"nd":1674,"000000000":1675,")))',":1676,"sm":1677,")),":1678,"Subarray":1679,"Number":1680,"kill":1681,"ify":1682,"Ġ200":1683,"])):":1684,"94":1685,"92":1686,"pow":1687,"uff":1688,"icult":1689,"Arr":1690,"loom":1691,"ļĦ":1692,"Ġline":1693,",'":1694,"su":1695,"çļĦ":1696,")**":1697,"Ġfinal":1698,"]]:":1699,"ouse":1700,"score":1701,"ory":1702,"Ġpart":1703,"Ġzero":1704,"ats":1705,"iculty":1706,"Ġfinish":1707,"Ġcap":1708,"tuple":1709,"Ġinit":1710,"ĠrunningCost":1711,"Ġmult":1712,"Ġstate":1713,"<<":1714,"!'":1715,"Err":1716,"card":1717,"Ġso":1718,"iter":1719,"ĠTrie":1720,"################":1721,"Ġfr":1722,"Ġfactors":1723,"Error":1724,"Ġneed":1725,"mi":1726,"table":1727,"Dict":1728,"Ġpossible":1729,"Ġfound":1730,"Ġlocations":1731,"ater":1732,"eam":1733,"sh":1734,"Ġ{'":1735,"98":1736,"Ġbu":1737,"Ġneighb":1738,"product":1739,":[":1740,"iv":1741,"search":1742,"copy":1743,"customers":1744,"cap":1745,"low":1746,"Map":1747,"ĠminCost":1748,"Ġsearch":1749,"ts":1750,"visited":1751,"Se":1752,"with":1753,"Ġstop":1754,"gr":1755,"Ġoperator":1756,"Ġroll":1757,"log":1758,"1000":1759,"Ġtot":1760,"Ġ\")":1761,"Ġ90":1762,"Ġls":1763,"MOD":1764,"Comp":1765,"Ġ23":1766,"Ġprice":1767,"Ġarea":1768,"box":1769,");":1770,"older":1771,"distance":1772,"ens":1773,"Ġcase":1774,"`.":1775,"Ġ]":1776,"Ġheight":1777,"eger":1778,"ale":1779,"ones":1780,"Ġnon":1781,"Ġstdin":1782,"123":1783,"fuel":1784,"ĠĠĠĠĠĠĠĠĠĠĠĠĠĊ":1785,"]][":1786,"gen":1787,"Profit":1788,"binations":1789,"ry":1790,"Âł":1791,"={}":1792,"]%":1793,"ĠQ":1794,"Ġ}":1795,"203":1796,"Ġhash":1797,"Ġneg":1798,"=='":1799,"coins":1800,"Oper":1801,"ceil":1802,"hift":1803,"inition":1804,"ĠDef":1805,"Ġnxt":1806,"action":1807,"ash":1808,"åĪ":1809,"url":1810,"211":1811,"ĠĠĠĠĠĠĠĠĠĠ":1812,"æľ":1813,"anag":1814,"attern":1815,"tri":1816,"cess":1817,"Operations":1818,"Day":1819,"gcd":1820,"ĠDefinition":1821,"be":1822,"sequence":1823,"arg":1824,"]].":1825,"ï¼Į":1826,"dout":1827,"quar":1828,"Ġdigits":1829,"fun":1830,"steps":1831,"ĠboardingCost":1832,"freq":1833,"Ġpeople":1834,"erence":1835,"Ġmoves":1836,"obj":1837,"Ġhave":1838,"Un":1839,"yp":1840,"ĠčĊ":1841,"insert":1842,"Ġproduct":1843,"inst":1844,"wap":1845,"trans":1846,"][-":1847,"119":1848,"Ġver":1849,"Ġ800":1850,"Ġpower":1851,"Ġback":1852,"Ġ\\\"\\\"\\\"":1853,"409":1854,"ser":1855,"ull":1856,"))+":1857,"state":1858,"play":1859,"qual":1860,"Ġyield":1861,"ke":1862,"Ġev":1863,"iginal":1864,"Ġorder":1865,"Ġheappush":1866,"ose":1867,"ĠĠĠĠĠĠĠĠĠĠĠĠĠĠĠĠĠĠĠĠĠĠĠĠĠĠĠĠĠĠĠ":1868,"Dist":1869,"Ġ4000":1870,"Ġdire":1871,"Ġ1000":1872,"Word":1873,"ipl":1874,"'''":1875,"'],":1876,"Ġacc":1877,"Ġ25":1878,"Ġvalues":1879,"helper":1880,"ms":1881,"ãĤĭ":1882,"ved":1883,"Ġtrans":1884,"loomDay":1885,"ices":1886,"Ġ//=":1887,"ll":1888,"20000":1889,"ds":1890,"inp":1891,"do":1892,"ĠĠĠĠĠĊ":1893,"eries":1894,"Ġsmallest":1895,"bisect":1896,"Path":1897,"my":1898,"Ġshortest":1899,"Ġthan":1900,"si":1901,"Ġ\"\".":1902,"so":1903,"instance":1904,"Ġbox":1905,"Ġ4020":1906,"pace":1907,"wr":1908,"âĸ":1909,"ative":1910,"ian":1911,"Ġsc":1912,"part":1913,"Ġwaiting":1914,"'))":1915,"Ġ240":1916,"Ġ'+":1917,"Not":1918,"Ġ\\":1919,"333":1920,"609":1921,"Ġ'\\":1922,"111":1923,"nodes":1924,"stop":1925,"Ġ2000":1926,"400000":1927,"ĠminOperations":1928,"Ġnodes":1929,"113":1930,"abet":1931,"mn":1932,"Ġav":1933,"Ġ[],":1934,"Ġnow":1935,"Ġmi":1936,"Ġ48":1937,"mut":1938,"207":1939,"fter":1940,"Ġsums":1941,"Th":1942,"ource":1943,"ruit":1944,"Ġ480":1945,"Ġpy":1946,"Ġmerge":1947,"alind":1948,"101":1949,"ĠUn":1950,".....":1951,"area":1952,"divis":1953,"40000":1954,"Ġ%=":1955,"weight":1956,"Ġsol":1957,"now":1958,"rome":1959,"quest":1960,"Connect":1961,"Ġma":1962,"(''.":1963,"Ġread":1964,"Ġcard":1965,"element":1966,"Ġwindow":1967,"Ġreversed":1968,"riplets":1969,"Ġrem":1970,"city":1971,"Min":1972,"Ġday":1973,"9999":1974,"alindrome":1975,")+'":1976,"mu":1977,"Ġcity":1978,"Ġmake":1979,"years":1980,"anager":1981,"mult":1982,"([(":1983,"Ġchange":1984,"ĠmaxSum":1985,"Ġce":1986,"593":1987,"Ġ21":1988,"stacks":1989,"Ġ27":1990,"139":1991,"acity":1992,"Ġmask":1993,"Ġhand":1994,"......":1995,"MMM":1996,"ild":1997,"height":1998,"`.`.":1999,"tt":2000,"Ġ29":2001,"extend":2002,"Ġ('":2003,"Pos":2004,"')]":2005,"\",\".":2006,"Ġexp":2007,"rices":2008,"verage":2009,"LI":2010,"Bo":2011,"\"\"\"":2012,"ĠĠĠĠĠĠĠĠĠĠĠĠĠ":2013,"primes":2014,"Ġbfs":2015,"Div":2016,"zz":2017,"Ġceil":2018,"ows":2019,"693":2020,"color":2021,"alls":2022,"Ġ8040":2023,"sets":2024,"Ġisinstance":2025,"279":2026,"117":2027,"])-":2028,"500":2029,"son":2030,"Ġemp":2031,"293":2032,"Ġheappop":2033,"339":2034,"uts":2035,"Ġtuple":2036,"abc":2037,"object":2038,"Hello":2039,"ĠĠĠĠĠĠĊ":2040,"Ġ\".":2041,"807":2042,"491":2043,"273":2044,"recurs":2045,"sums":2046,"lab":2047,"579":2048,"neg":2049,"prefix":2050,"403":2051,"local":2052,"ĠUnion":2053,"Ġvert":2054,"603":2055,"andom":2056,"factors":2057,"quares":2058,"'{":2059,"Ġmp":2060,"ious":2061,"Ġ33":2062,"mask":2063,"499":2064,"umps":2065,"473":2066,"åĲ":2067,"=-":2068,"ST":2069,"Ġlower":2070,"ĠminCostConnect":2071,"best":2072,"ress":2073,"Ġintervals":2074,"base":2075,"floor":2076,"Ġnumpy":2077,"ĠminCostConnectPoints":2078,"80000":2079,"Ġsame":2080,"tweet":2081,"\\\")":2082,"bu":2083,"letters":2084,"239":2085,"========":2086,"two":2087,"131":2088,"539":2089,"137":2090,"Ġmore":2091,"573":2092,"337":2093,"$$":2094,"Ġwork":2095,"191":2096,"Ġinitial":2097,"Find":2098,"sTo":2099,"ãĢ":2100,"owels":2101,"high":2102,"ele":2103,"lose":2104,"ssage":2105,"Ġelem":2106,"493":2107,"Ġtimes":2108,"lice":2109,"speed":2110,"ĠV":2111,"atest":2112,"æķ":2113,"alpha":2114,"Difficulty":2115,"('-":2116,"days":2117,"691":2118,"SE":2119,"Ġ97":2120,"173":2121,"mx":2122,"Ġcy":2123,"III":2124,"rem":2125,"Ġ37":2126,"ced":2127,"ĠĠĠĠĠĠĠĊ":2128,"ii":2129,"109":2130,"\"],[":2131,":]:":2132,"Ġplayer":2133,"maxsize":2134,"Ġthreshold":2135,"ðŁĺīðŁĺīðŁĺīðŁĺī":2136,"...\",\"....":2137,"match":2138,"**(":2139,"sp":2140,"ho":2141,"Ġsplit":2142,"Ġdepth":2143,"200000":2144,"Ġ',":2145,"Ġgr":2146,"297":2147,"Ġsp":2148,"Ġdx":2149,"ĠĠĠĠĠĠĠĠĠĠĠĠĠĠĠĠĠĠĠĠĠĠĠĠĠĠĠĠĠĠĠĠ":2150,"ãĤĴ":2151,"447":2152,"Ġweight":2153,"sec":2154,"879":2155,"407":2156,"179":2157,"Ġtop":2158,"209":2159,"mem":2160,"reet":2161,"Game":2162,"zip":2163,"Mo":2164,"atis":2165,"])+":2166,"679":2167,"Ġrepe":2168,"Ġwidth":2169,"193":2170,"FS":2171,"ai":2172,"dge":2173,"331":2174,"xy":2175,"rea":2176,"Ġcandid":2177,"Ġblock":2178,"Ġlook":2179,"ours":2180,"atus":2181,"åı":2182,"\"]":2183,"String":2184,"alth":2185,"673":2186,"'t":2187,"dy":2188,"Ġinp":2189,"ret":2190,"497":2191,"873":2192,"439":2193,"Ġuse":2194,"237":2195,"Yes":2196,"Ġyou":2197,"839":2198,"solve":2199,"Ġmaximum":2200,"607":2201,"MA":2202,"Ġstone":2203,"893":2204,"cont":2205,"\"{":2206,"]}":2207,"][:":2208,"197":2209,"sent":2210,"171":2211,"quen":2212,"width":2213,"631":2214,"591":2215,"ending":2216,":'":2217,"671":2218,"Ġparents":2219,"rstrip":2220,"Ġnc":2221,"871":2222,"Ġthen":2223,"cs":2224,"401":2225,"597":2226,"639":2227,"=[[":2228,"277":2229,"437":2230,"He":2231,"103":2232,"291":2233,"Step":2234,"cii":2235,"271":2236,"ranks":2237,"Ġnonlocal":2238,"æķ°":2239,"hand":2240,"jk":2241,"hes":2242,"Ġ39":2243,"apping":2244,"ĠnumT":2245,"411":2246,"ital":2247,"ER":2248,"iven":2249,"Ġ36":2250,"479":2251,"803":2252,"431":2253,"counts":2254,"cum":2255,"107":2256,"ici":2257,"Ġinf":2258,"itions":2259,"Ġ[[]":2260,"IT":2261,"Ġcum":2262,"Ġ22":2263,"809":2264,"Ġdec":2265,"Ġdelta":2266,"Array":2267,"])]":2268,"Let":2269,"mula":2270,"na":2271,"xs":2272,"Ġ59":2273,"formTime":2274,"%(":2275,"Ġdy":2276,"Ġele":2277,"Ġvis":2278,"Ġrows":2279,"weights":2280,"Ġcombinations":2281,"umn":2282,"qr":2283,"Ġkeys":2284,"ee":2285,"993":2286,"Ġupdate":2287,"Ġrot":2288,"Ġalph":2289,"]<=":2290,"999":2291,"477":2292,"677":2293,"Ġletters":2294,"837":2295,"ãģ«":2296,"Ġ800000":2297,"write":2298,"537":2299,"831":2300,"\"],[\"":2301,"pu":2302,"177":2303,"Ġ47":2304,"OR":2305,"637":2306,"'),":2307,"neighb":2308,"Ġ120":2309,"ĠListNode":2310,"531":2311,"571":2312,"Ġ43":2313,"891":2314,"503":2315,"ĠĠĠĠĠĠĠĠĠĠĠĠĠĠ":2316,"os":2317,"seen":2318,"skill":2319,"orrect":2320,"Ġnei":2321,"Ġgroups":2322,"recursion":2323,"507":2324,"Ġformula":2325,"Ġ[\"":2326,"Ġ89":2327,"----------------":2328,"231":2329,"mul":2330,"Ġtimestamp":2331,"110010":2332,"Area":2333,"remain":2334,"Ġ32":2335,"471":2336,"697":2337,"110100110010":2338,"ivot":2339,"inner":2340,"Ġ'-":2341,"577":2342,"11010010":2343,"Ġspeed":2344,"Ġ31":2345,"uld":2346,"ages":2347,"))))":2348,"ĠNode":2349,"most":2350,"877":2351,"cm":2352,"ÂłÂł":2353,"herit":2354,"Ġincre":2355,"Ġpairs":2356,"Ġsequence":2357,"ilter":2358,"lete":2359,"Or":2360,"509":2361,"Ġsi":2362,"\",\"...":2363,"Ġmaxi":2364,"Ġtra":2365,"Ġopt":2366,"02":2367,"\",\"..":2368,":],":2369,"lis":2370,"your":2371,"depth":2372,"Ġnb":2373,"Ġtyp":2374,"201":2375,"Ġresults":2376,"You":2377,"997":2378,"Ġ79":2379,"XXX":2380,"Ġsquare":2381,"adj":2382,"intervals":2383,"Ġlog":2384,"vers":2385,"flag":2386,"897":2387,"Ġpr":2388,"riend":2389,"try":2390,"ä»":2391,"Ġ49":2392,"Ġroutes":2393,"Ġsqrt":2394,"Ġ75":2395,"uffer":2396,"fl":2397,"recursionlimit":2398,"CL":2399,"....\",\"....":2400,"________________":2401,"alf":2402,"Ġss":2403,",(":2404,"Ġdsu":2405,"ID":2406,"round":2407,"ĠIf":2408,"ĠUnionFind":2409,"Ġ53":2410,"quests":2411,"heritance":2412,"strng":2413,"Ġ57":2414,"rec":2415,"nei":2416,"Ġ83":2417,"answer":2418,"Ġrecord":2419,"Ġra":2420,"433":2421,"fset":2422,"mark":2423,"Ġunique":2424,"'}":2425,"lines":2426,"With":2427,"roll":2428,"stdout":2429,"Ġ>>":2430,"vals":2431,"eff":2432,"Ġflip":2433,"ĠDP":2434,"Distance":2435,"Ġmon":2436,"Ġ63":2437,"60000":2438,"uffix":2439,"Ġcalculate":2440,"the":2441,"ical":2442,"Ġprevious":2443,"nr":2444,"Ġminimum":2445,"longest":2446,"thon":2447,"801":2448,"any":2449,"Ġ1000000007":2450,"DCC":2451,"ture":2452,"Ġ69":2453,"ars":2454,"Ġkn":2455,"Ġ28":2456,"Ġcomb":2457,"Ar":2458,"pr":2459,"Ġgood":2460,"Days":2461,"oper":2462,"Idx":2463,"501":2464,"Ġsubarray":2465,"ei":2466,"wait":2467,"Ġlis":2468,"ĠIn":2469,"chars":2470,"Ġside":2471,"601":2472,"NS":2473,"ward":2474,"Ġ73":2475,"except":2476,"Ġeval":2477,"second":2478,".\"":2479,"king":2480,"('\\":2481,"233":2482,"raction":2483,"Ġold":2484,")+(":2485,"att":2486,"457":2487,"update":2488,"setrecursionlimit":2489,"rows":2490,"213":2491,"top":2492,"Ġ67":2493,"').":2494,"Ġones":2495,"å¤":2496,"Ġcell":2497,"Ġshift":2498,"late":2499,"Ġmn":2500,"eams":2501,"Ġstore":2502,"600000":2503,"blem":2504,"sol":2505,"Ġpx":2506,"Ġxs":2507,"800000":2508,"!!!!!!!!":2509,"func":2510,"hr":2511,"px":2512,"Ġbus":2513,"pi":2514,"Ġ400000":2515,"\"):":2516,"))*":2517,"CD":2518,"isdigit":2519,"Ġrandom":2520,"Inheritance":2521,"Per":2522,"ĉĉĉĉ":2523,"ĠMA":2524,"Seq":2525,"rans":2526,"Ġpu":2527,"power":2528,"è¿":2529,"ents":2530,"nxt":2531,"Ġturn":2532,"Ġgen":2533,"Ġ93":2534,"The":2535,"afe":2536,"enter":2537,"]>=":2538,"Ġtri":2539,"come":2540,"991":2541,"Ġfloor":2542,"chr":2543,")[::-":2544,"240":2545,"Ġmul":2546,"reate":2547,"())))":2548,"factorial":2549,"Letter":2550,"Ġtrip":2551,"Ġoriginal":2552,"rc":2553,"Ġfactorial":2554,")<":2555,"469":2556,"Ġpattern":2557,"Ġ86":2558,"Ġprod":2559,"Ġhow":2560,"Ġ##":2561,"1000000007":2562,"419":2563,"ptr":2564,"ĠTime":2565,"Ġtrie":2566,"oot":2567,"track":2568,"ĠinformTime":2569,"]-=":2570,"Change":2571,"Ġempty":2572,"ä¸ª":2573,"Ġ35":2574,"bus":2575,"oth":2576,"={":2577,"eval":2578,"ied":2579,"Ġ40000":2580,"Ġ77":2581,"Ġ'#":2582,"exp":2583,"Prime":2584,"Ġopen":2585,"[:]":2586,"IO":2587,"ier":2588,"Ġinvalid":2589,"Ġonly":2590,"449":2591,"Ġjob":2592,"Ġ38":2593,"isalpha":2594,"Ġpop":2595,"Ġpair":2596,":(":2597,"np":2598,"Ġ96":2599,"hash":2600,"Ġ'*":2601,"ãģĦ":2602,"0000000000":2603,"ĠRe":2604,"Counts":2605,"Ġdivisor":2606,"æĺ":2607,"Ġlru":2608,"people":2609,"Ġweights":2610,"[\"":2611,"ek":2612,"Ġcat":2613,"asing":2614,"Ġ|=":2615,"487":2616,"lex":2617,"Ġnth":2618,"Ġdate":2619,"://":2620,"inct":2621,"prod":2622,"Subseq":2623,"Ġdifference":2624,"Ġpointer":2625,"Product":2626,"åħ":2627,"seven":2628,"Ġinv":2629,"]==\"":2630,")/(":2631,"cell":2632,"istory":2633,"wh":2634,"Ġ(\"":2635,"229":2636,"Ġfunction":2637,"Ġwinner":2638,"cat":2639,"Ġapp":2640,"Ġgreet":2641,"Ġstrng":2642,"Left":2643,"side":2644,"ä½":2645,"job":2646,"249":2647,"bloomDay":2648,"dle":2649,"Box":2650,"Rout":2651,"Ġ\",":2652,"611":2653,"Ġpla":2654,"itive":2655,"227":2656,"223":2657,"ym":2658,"Ġcols":2659,"ets":2660,"Edge":2661,"å±":2662,"])%":2663,"Ġflower":2664,"Ġbl":2665,"ionary":2666,"erson":2667,"eded":2668,"Ġcopy":2669,"ĠTrieNode":2670,"217":2671,"ings":2672,"pppppppp":2673,"player":2674,"moves":2675,"Int":2676,"Ġthere":2677,"lect":2678,"811":2679,"fr":2680,"))%":2681,"Ġ):":2682,"Component":2683,"427":2684,"463":2685,"Tree":2686,"Ġjump":2687,"Ġconnect":2688,"down":2689,"Ġdone":2690,"Ġargs":2691,"Ġmatch":2692,"259":2693,"Ġ87":2694,"Nodes":2695,"tail":2696,"Ġct":2697,"Ġid":2698,"({":2699,")!=":2700,"og":2701,"Player":2702,"Ġjo":2703,"Ġ600000":2704,"Ġchr":2705,"hour":2706,"Ġ55":2707,"489":2708,"Ġbr":2709,"Ġ88":2710,"Ġlookup":2711,"eiou":2712,"Qu":2713,"Range":2714,"nx":2715,"Ġbuild":2716,":\"":2717,"Ġurl":2718,"fa":2719,"ff":2720,"Ġab":2721,"Ġisland":2722,"icient":2723,"ca":2724,"uv":2725,"ĠfindL":2726,"Ġdirection":2727,"))-":2728,"Ġvisit":2729,"dr":2730,"ny":2731,"italize":2732,"aeiou":2733,"æľĢ":2734,"dec":2735,"del":2736,"verl":2737,"LE":2738,"back":2739,"Ġcoord":2740,"ould":2741,"Ġvar":2742,"Ġ65":2743,"480":2744,"eep":2745,"Ġtail":2746,"ĠgetMax":2747,"Ġchars":2748,"267":2749,"pq":2750,"Ġbet":2751,"ĠrollMax":2752,"Order":2753,"sz":2754,"xx":2755,"+=(":2756,"Stack":2757,"ched":2758,"IM":2759,"buffer":2760,"==\"":2761,"Ġ58":2762,"'])":2763,"219":2764,"Ġ^=":2765,"Substring":2766,"Ġ46":2767,"Ġgiven":2768,"Valid":2769,"})":2770,"ĠnumOf":2771,"loy":2772,"247":2773,"483":2774,"bir":2775,"gold":2776,"))/":2777,"05":2778,"......\",\"....":2779,"Ġpl":2780,"Ġms":2781,"Ġcharact":2782,"300":2783,"417":2784,"ots":2785,"Ġloop":2786,"ieve":2787,"299":2788,"243":2789,"269":2790,"oriz":2791,"Ġtake":2792,"uble":2793,"default":2794,"453":2795,"ally":2796,"ä¸Ģ":2797,"ire":2798,"requen":2799,"fore":2800,"gre":2801,"Ġfolder":2802,"Ġhouse":2803,"Ġneighbor":2804,"467":2805,"ores":2806,"lean":2807,"_,":2808,"Ġpi":2809,"Ġok":2810,"263":2811,"Rect":2812,"als":2813,"];":2814,"aa":2815,"var":2816,"Ġremaining":2817,"Numbers":2818,"IS":2819,"Ġbound":2820,"Ġ45":2821,"Ġknight":2822,"Speed":2823,"mass":2824,"rs":2825,"Ġsing":2826,"257":2827,"bound":2828,"åŃ":2829,"Ġstatus":2830,"timestamp":2831,"iply":2832,"Divis":2833,"413":2834,"aler":2835,"mutations":2836,"Ġ56":2837,"Ġnr":2838,"itres":2839,"Ġ76":2840,"ather":2841,"unk":2842,"routes":2843,"Ġcapacity":2844,"287":2845,"([])":2846,"SU":2847,"()),":2848,"ready":2849,"Ġdd":2850,"100000":2851,"bal":2852,"ww":2853,"Target":2854,"Ġ66":2855,"uper":2856,"losest":2857,"calc":2858,"æĸ":2859,"Routes":2860,"-((":2861,"te":2862,"Ġ68":2863,".......\",\"....":2864,"Unique":2865,"ons":2866,"Ġptr":2867,"])==":2868,"Ġ41":2869,"findall":2870,"429":2871,"mm":2872,"Ġ_,":2873,"æĺ¯":2874,"423":2875,"513":2876,"Ġcand":2877,"plic":2878,"253":2879,"ĠFraction":2880,"smallest":2881,"Arith":2882,"283":2883,"443":2884,"ding":2885,"ĠĠĠĠčĊ":2886,"ãģ§":2887,"00000000000":2888,"511":2889,")\",":2890,"coin":2891,"ze":2892,"Ġrequests":2893,"))):":2894,"459":2895,"elem":2896,"Ġupper":2897,"ween":2898,"4000000":2899,"lack":2900,"Ġ98":2901,")-(":2902,"ĠcoinChange":2903,"*-":2904,"xyz":2905,")],":2906,"block":2907,"Ġcc":2908,"Ġ61":2909,"Ġcho":2910,"Ġneighbors":2911,"Ġalphabet":2912,"swith":2913,"åĢ":2914,"coord":2915,"Ġcycle":2916,"10000":2917,"Gold":2918,"ram":2919,"candid":2920,"490":2921,"AT":2922,"Ġ95":2923,"289":2924,"Ġ200000":2925,"ĠlongestArith":2926,"Letters":2927,"uman":2928,"atestStep":2929,"ual":2930,"arry":2931,"edian":2932,"ĠlongestArithSeq":2933,"633":2934,"::":2935,"=''":2936,"ĠminArea":2937,"dered":2938,"Move":2939,"Square":2940,"Ġprices":2941,"raw":2942,"used":2943,"ĠlongestArithSeqLength":2944,"Ġ...":2945,"Ġmanager":2946,"Ġswap":2947,"ĠfindLatestStep":2948,"241":2949,"inv":2950,"hest":2951,"Ġgre":2952,"ssion":2953,"dices":2954,"533":2955,"Child":2956,"Ġcreate":2957,"Ġob":2958,"Ġ\"+":2959,"Ġinterval":2960,"ĠĠĠĠĠĠĠĠĠĠĠĠĠĠĠĠĠĊ":2961,"813":2962,"ghi":2963,"square":2964,"wxyz":2965,"Ġpivot":2966,"Ġmark":2967,"ses":2968,"Dialer":2969,"587":2970,"yes":2971,"integer":2972,"ttps":2973,"break":2974,"go":2975,"ĠcountRoutes":2976,"])))":2977,"Ġrev":2978,"Ġ{\"":2979,")]:":2980,"833":2981,"è¦":2982,"Ġsource":2983,"Ġds":2984,"amage":2985,"Ġroute":2986,":]))":2987,"four":2988,"çĤ":2989,"Ġpq":2990,"abcdef":2991,"qrst":2992,"collections":2993,"bl":2994,"Ġelements":2995,"ĉĊ":2996,"Ġus":2997,"Ġconvert":2998,"stream":2999,"anced":3000,"+'":3001,"Ġxor":3002,"Ġsumm":3003,"230":3004,"pair":3005,"Score":3006,"work":3007,"othes":3008,"MaxProfit":3009,"ways":3010,"elif":3011,"reversed":3012,"481":3013,"Com":3014,"Ġlines":3015,"message":3016,"thod":3017,"change":3018,"ĠminOperationsMaxProfit":3019,"skills":3020,"Ġ.":3021,"peak":3022,"]]=":3023,"lable":3024,"441":3025,"Ġbig":3026,"Ġinteger":3027,"island":3028,"clu":3029,"Ġbits":3030,"406":3031,"äº":3032,"Ġinsert":3033,"ments":3034,"460":3035,"(((":3036,"pec":3037,"Ġzeros":3038,"ape":3039,"cols":3040,"Ġ20400":3041,"Ġfunc":3042,"groups":3043,"ination":3044,"270":3045,"filter":3046,"Ġå":3047,"Ġrun":3048,"ãģ¨":3049,"589":3050,"oc":3051,"4567":3052,"Ġremainder":3053,"jkl":3054,"can":3055,"ec":3056,"Ġreach":3057,"Ġalice":3058,"çĤ¹":3059,"inc":3060,"ulator":3061,"190":3062,"Ġrepeat":3063,"ĠknightDialer":3064,"gree":3065,"003":3066,"Ġext":3067,"Ġ78":3068,"ĠPro":3069,"neighbor":3070,"567":3071,"xor":3072,"Ġsq":3073,"inter":3074,"Ġdivmod":3075,"ote":3076,"Ġ\"(":3077,"170":3078,"bers":3079,"jobs":3080,"Ġnames":3081,"requency":3082,"md":3083,"ĠThe":3084,"Ġ71":3085,"faction":3086,"comb":3087,"atisfaction":3088,"Good":3089,"ror":3090,"ĠendTime":3091,"Ġchildren":3092,"547":3093,"ular":3094,"208":3095,"Ġperson":3096,"Ġsl":3097,"indices":3098,"ority":3099,"Ġ91":3100,"times":3101,"angu":3102,"599":3103,"codes":3104,"uvwxyz":3105,",\"":3106,"251":3107,"aller":3108,"utive":3109,"iple":3110,"tweetName":3111,"824":3112,"Ġny":3113,"Ġdivide":3114,"At":3115,"ĠnumR":3116,"ãģª":3117,"ãģĮ":3118,"alphabet":3119,"583":3120,"nc":3121,"rot":3122,"orm":3123,"Ġskill":3124,"Ġmini":3125,"setdefault":3126,"ĠUF":3127,"tot":3128,"Ġcorrect":3129,"output":3130,"*((":3131,"ni":3132,"ssing":3133,"person":3134,"zzle":3135,"secutive":3136,"][::-":3137,"anies":3138,"very":3139,"529":3140,"647":3141,"=\"\"":3142,"ghest":3143,"Ġdq":3144,"abel":3145,"Coins":3146,"543":3147,">>":3148,"By":3149,"549":3150,"Ġdivisors":3151,".....\",\"....":3152,"Fact":3153,"Ne":3154,"uck":3155,"{:":3156,"seg":3157,"Ġplay":3158,"ities":3159,"bits":3160,",[":3161,"559":3162,"!!\"":3163,"280":3164,"410":3165,"til":3166,"557":3167,"519":3168,"umns":3169,"890":3170,"ãģ¦":3171,"INF":3172,"gram":3173,"MAX":3174,"613":3175,"Root":3176,"Ġac":3177,"acc":3178,"average":3179,"Ġbeg":3180,"261":3181,"Ġ51":3182,"221":3183,"rop":3184,"ascii":3185,"687":3186,"Ġsign":3187,"Ġgame":3188,"chain":3189,"2000000":3190,"527":3191,"far":3192,"oned":3193,"517":3194,"Right":3195,"hello":3196,"Ġ'',":3197,"ĠmaxSize":3198,"mand":3199,"Ġdictionary":3200,"den":3201,"Ġseg":3202,"Ġmost":3203,"Ġspace":3204,"690":3205,"ĠDSU":3206,"699":3207,"numer":3208,"=\"\")":3209,"ailable":3210,"461":3211,"CM":3212,"heapify":3213,"binary":3214,"Ġsep":3215,"joint":3216,"440":3217,"End":3218,"Id":3219,"Ġvowels":3220,"Ġ8000":3221,"619":3222,"}\"":3223,"Ġii":3224,"Ġinter":3225,"Ġchain":3226,"jklmn":3227,"Bit":3228,"solution":3229,"ĠbloomDay":3230,"563":3231,"700":3232,"Ġrecur":3233,"ueue":3234,"Ġ\"((":3235,"Ġbob":3236,"Ġinc":3237,"Ġsuffix":3238,"Ġafter":3239,"Ġkeep":3240,"Ġcolumn":3241,"ãĢģ":3242,"ample":3243,"ĠEx":3244,"ĠarrLen":3245,"weetCounts":3246,"uc":3247,"ĠĠĠĠĠĠĠĠĠĠĠĊ":3248,"ops":3249,"]**":3250,"Ġinto":3251,"Ġfront":3252,"281":3253,"finish":3254,"290":3255,"boardingCost":3256,"819":3257,"Case":3258,"final":3259,"dies":3260,"Ġcolors":3261,"rectangle":3262,"ux":3263,"Ġ\"\\":3264,"130":3265,"ough":3266,"br":3267,"txt":3268,"ç»":3269,"health":3270,"Ġmean":3271,"good":3272,"kom":3273,"pute":3274,"330":3275,"zeros":3276,"shift":3277,"stone":3278,"rib":3279,"Remove":3280,")<=":3281,"451":3282,"ON":3283,"('.":3284,"ĠFind":3285,"ĠstartTime":3286,"Ġtrack":3287,"ĠTimeMap":3288,"659":3289,"kes":3290,"source":3291,"Ġfa":3292,"))//":3293,"20000000":3294,"Triplets":3295,"Zero":3296,"maxi":3297,"ĠminAreaRect":3298,"ken":3299,"Ġtak":3300,"Threshold":3301,"899":3302,"863":3303,"Ġbill":3304,"Ġwon":3305,"ĠValue":3306,"ComponentSize":3307,"663":3308,"EN":3309,"drink":3310,"AC":3311,"Sim":3312,"manager":3313,"Ġballs":3314,"dice":3315,"Ġ81":3316,"Ġcosts":3317,"ustomer":3318,"}{":3319,"Ġ100000":3320,"450":3321,"523":3322,"869":3323,"It":3324,"fill":3325,"appy":3326,"Ġgold":3327,"ãģĻ":3328,"+((":3329,"553":3330,"569":3331,"657":3332,"649":3333,"Ġoffset":3334,"names":3335,"Ġqueries":3336,"Ġdiscount":3337,"ĠlargestComponentSize":3338,"Ġclothes":3339,"DP":3340,"Ġact":3341,"stra":3342,"260":3343,"ume":3344,"umpy":3345,"pression":3346,"jklmnop":3347,"829":3348,"here":3349,"original":3350,"Ġdr":3351,"Ġlabel":3352,"Ġvowel":3353,"Ġhour":3354,"ĠĠĠĠĠĠĠĠĠĠĠĠĠĠĠĠĠĠĠĠĠĠĠĠĠĠĠĠ":3355,"Ġdogs":3356,"Ġitems":3357,"orizont":3358,"ghijklmnop":3359,"843":3360,"CX":3361,"non":3362,"Ġwas":3363,"Ġstdout":3364,"artition":3365,"739":3366,"################################":3367,"823":3368,"hich":3369,"izz":3370,"Ġvals":3371,"common":3372,"617":3373,"Ġreq":3374,"Ġfe":3375,"Ġsuper":3376,"rade":3377,"(?":3378,"moved":3379,"roots":3380,"(_":3381,"Freq":3382,"Sp":3383,"link":3384,"Ġfac":3385,"****":3386,"Ġpref":3387,"Subarrays":3388,"OU":3389,"pattern":3390,"palindrome":3391,"hick":3392,"vered":3393,"marks":3394,"qrstuvwxyz":3395,"001":3396,"Ġcandidates":3397,"'*":3398,"AL":3399,"Ġpv":3400,"Ġsw":3401,"verlap":3402,"421":3403,"kip":3404,"007":3405,"ries":3406,"avor":3407,"883":3408,"AB":3409,"fin":3410,"nown":3411,"Ġwr":3412,"oly":3413,"pairs":3414,"627":3415,"667":3416,"vl":3417,"Ġover":3418,"Ġequal":3419,"orizontal":3420,"gg":3421,"ĠValueError":3422,"849":3423,"859":3424,"Ġnx":3425,"sq":3426,"Ġfight":3427,"()[":3428,"ghijklmnopqrstuvwxyz":3429,"Ġwhere":3430,"jobDifficulty":3431,"Ġindices":3432,"Digit":3433,"Ġtyping":3434,"Ġæ":3435,"bination":3436,"\"))":3437,"itch":3438,"Ġbetween":3439,"ev":3440,"430":3441,"Ġ4008":3442,"Ġtransactions":3443,"stoneValue":3444,"Ġfull":3445,"dire":3446,"793":3447,"797":3448,"Ġconnected":3449,"delta":3450,"Ġstarting":3451,"avorite":3452,"(\\":3453,"merge":3454,"Ġpick":3455,"470":3456,"Boxes":3457,"867":3458,"Sort":3459,"arcodes":3460,"Ġter":3461,"isupper":3462,"ĠIN":3463,"Ġcandidate":3464,"Ġjobs":3465,"icket":3466,"================":3467,"ped":3468,"Ġ10000":3469,"Ġwhich":3470,"Ġden":3471,"birth":3472,"'\\":3473,"541":3474,"889":3475,"One":3476,"rev":3477,"Ġ[])":3478,"ĠĠĠĠĠĠĠĠĠĠĠĠĠĠĠĠĠĠ":3479,"Ġthree":3480,"ĠstoneGame":3481,"ader":3482,"pv":3483,"ĠminDays":3484,"\":\"":3485,"Ġages":3486,"Ġexponent":3487,"40000000":3488,"oneInheritance":3489,"(\"\".":3490,"efficient":3491,"669":3492,"Ways":3493,"Ġ'/":3494,"heep":3495,"Ġdatetime":3496,"853":3497,"wise":3498,"Ġ\"-":3499,"cho":3500,"abcdefghijklmnopqrstuvwxyz":3501,"887":3502,"runn":3503,"qui":3504,"ĠfindThe":3505,"681":3506,"827":3507,"ien":3508,"alanced":3509,"Ġhours":3510,"ĠThr":3511,"childName":3512,"Ġsmall":3513,"Ġpermutations":3514,"ĠThroneInheritance":3515,"817":3516,"RE":3517,"Ġpalindrome":3518,"Ġdirections":3519,"521":3520,"900":3521,"ome":3522,"leet":3523,"Ġfill":3524,"ĠmaxProfit":3525,"773":3526,"Ġdistinct":3527,"results":3528,"643":3529,"Ġtweet":3530,"capacity":3531,"Companies":3532,"Ġ`":3533,"ĠmaxDistance":3534,"Ġalready":3535,"avoriteCompanies":3536,"uplic":3537,"hip":3538,"ĠmaxNum":3539,"strings":3540,"Ġrect":3541,"\").":3542,"Ġmessage":3543,"Subsequence":3544,"ĠdistanceThreshold":3545,"creasing":3546,"translate":3547,"[]":3548,"683":3549,"Ġ>>=":3550,"Ġ2010":3551,".'":3552,"Ġaccum":3553,"3000":3554,"For":3555,"VI":3556,"}'.":3557,"Ġways":3558,"Ġmaxx":3559,"olume":3560,"open":3561,"Ġencode":3562,"1100110100110010":3563,"110011010010":3564,"ãĢĤ":3565,"110011010010110100110010":3566,"841":3567,"Ġ40800":3568,"Ġbacktrack":3569,"Ġwins":3570,"IV":3571,"870":3572,"Equal":3573,"Fib":3574,"largest":3575,"lices":3576,"Ġblocked":3577,"beg":3578,"swap":3579,"Ġenough":3580,"ãģĭ":3581,"Ġps":3582,"Ġlong":3583,"cases":3584,")>=":3585,"881":3586,"Ġ123":3587,"551":3588,"623":3589,"history":3590,"mak":3591,"ĠĠĠĠĠĠĠĠĠĠĠĠĠĠĠĠĠ":3592,"737":3593,"`.`.`.`.":3594,"Jumps":3595,"Ġaa":3596,"Ġ{(":3597,"779":3598,"709":3599,"Ġraise":3600,"847":3601,"Ġfriend":3602,"aper":3603,"ips":3604,"pointer":3605,"è¦ģ":3606,"Longest":3607,"Ġfruit":3608,")).":3609,"Ġsquares":3610,"Ġposs":3611,"needed":3612,"ðŁĺīðŁĺīðŁĺīðŁĺīðŁĺīðŁĺīðŁĺīðŁĺī":3613,"waiting":3614,"/((":3615,"581":3616,"ki":3617,"Ġbut":3618,"appendleft":3619,"Ġdesc":3620,"689":3621,"857":3622,"Ġ;":3623,"repe":3624,"()])":3625,"791":3626,"sired":3627,"851":3628,"All":3629,"ssign":3630,"ĠmaxLetters":3631,"Ġevery":3632,"777":3633,"ĠnumTriplets":3634,"Pa":3635,"ĠĠĠĠĠĠĠĠĠĠĊ":3636,"mation":3637,"combinations":3638,"ĠstoneValue":3639,"Heap":3640,"Cuts":3641,"Ġlcm":3642,"Ġops":3643,"After":3644,"IX":3645,"folder":3646,"lowercase":3647,"Height":3648,"ĠProduct":3649,"AR":3650,"dent":3651,"Ġcs":3652,"Ġinteg":3653,"On":3654,")].":3655,"perm":3656,"Ġshould":3657,"Ġbir":3658,"startswith":3659,"man":3660,"Ġcarry":3661,"itle":3662,"arrays":3663,"Ġuni":3664,"Ġsimp":3665,"]//":3666,"win":3667,"ĠminSize":3668,"Ġcond":3669,"*=":3670,"ugh":3671,"oney":3672,"ject":3673,"rand":3674,"Ġpush":3675,"stops":3676,"Kth":3677,"Ġfin":3678,"ãģ¯":3679,"393":3680,"Ġless":3681,"641":3682,"Ġcommand":3683,"Ġsieve":3684,"Common":3685,"balls":3686,"}'":3687,"Ġll":3688,"possible":3689,"Ġglo":3690,"Ġtraverse":3691,"'+":3692,"629":3693,"jump":3694,"........\",\"....":3695,"Words":3696,"Two":3697,"olean":3698,"inates":3699,"Ġrest":3700,"Possible":3701,"water":3702,"Ġpp":3703,"Ġbi":3704,"==-":3705,"OfNumbers":3706,"ä»¥":3707,"pecial":3708,"Ġbegin":3709,"black":3710,"sign":3711,"}:":3712,"Ġreplace":3713,"alice":3714,"rees":3715,"Ġ20000":3716,"Ġ80000":3717,"\\\",\\\"":3718,"Ġ20048":3719,"stac":3720,"530":3721,"Ġending":3722,"Ans":3723,"VII":3724,"VIII":3725,"Ġassert":3726,"Ġexist":3727,"likes":3728,"661":3729,":]):":3730,"fruit":3731,"Ġns":3732,"unique":3733,"Ġgroupby":3734,"Ġwhen":3735,"Ġhouses":3736,"(',":3737,"861":3738,"game":3739,"åĩ":3740,"009":3741,"mutation":3742,"prices":3743,"ãģĹ":3744,"731":3745,"5000":3746,"Ġ117":3747,"Ġhttps":3748,"sizes":3749,"Level":3750,"Ġascii":3751,"Ġcomponent":3752,"kingName":3753,"ĠReturn":3754,"ĠProductOfNumbers":3755,"FF":3756,"fac":3757,"oo":3758,"ored":3759,"islower":3760,"etrans":3761,"vertex":3762,"Ġfractions":3763,"rd":3764,"ure":3765,"Ġmapping":3766,"Ġdif":3767,"4353":3768,"startTime":3769,"oks":3770,"æľī":3771,"push":3772,"aps":3773,"ther":3774,"Ġits":3775,"ĠnumTeams":3776,"anguage":3777,"AN":3778,"rains":3779,"ĠDFS":3780,"Ġcommon":3781,"åĪ°":3782,"220":3783,"Wel":3784,"present":3785,"Ġcompare":3786,"section":3787,"onus":3788,"Ġsz":3789,"ained":3790,"half":3791,"Ġlitres":3792,"Ġ'')":3793,"Ġbefore":3794,"........":3795,"products":3796,"maketrans":3797,"Key":3798,"Ġdiag":3799,"quired":3800,"Ġ130":3801,"Ġmultiply":3802,"651":3803,"Queue":3804,"Ġsome":3805,"ĠMAX":3806,"561":3807,"father":3808,"}\".":3809,"Ġrecurs":3810,"problem":3811,"Ġevent":3812,"atisf":3813,"operator":3814,"210":3815,"Ġ127":3816,"])*":3817,"Ġdest":3818,"Char":3819,"Ġusing":3820,"From":3821,"oid":3822,"Ġmedian":3823,"Ġdie":3824,"Ġpartition":3825,"divisor":3826,"653":3827,"gor":3828,"dest":3829,"Ġ{},":3830,"ĠWe":3831,"ches":3832,"Ex":3833,"Even":3834,"Split":3835,"sl":3836,"Ġri":3837,"initial":3838,"âĸĳ":3839,"elements":3840,"Ġplace":3841,"1000000":3842,"Ġabo":3843,"Ġmiddle":3844,"Ġmm":3845,"Chain":3846,"Ġang":3847,"Ġhalf":3848,"570":3849,"Ġroots":3850,"nb":3851,"åī":3852,")]=":3853,"ĠlongestSubarray":3854,"ĠYou":3855,"capitalize":3856,"ĠshortestPath":3857,"aj":3858,"hs":3859,"ĠJ":3860,"Ġ111":3861,"Ġcut":3862,"Ġcharacter":3863,"Gre":3864,"Ġnn":3865,"rough":3866,"830":3867,"(\"\\":3868,"sa":3869,"vowels":3870,"590":3871,"cover":3872,"Ġavg":3873,"Ġ113":3874,"arm":3875,"ollow":3876,"Ġnegative":3877,"cessor":3878,"Ġdir":3879,"ridge":3880,"Ġ'#'":3881,"Mon":3882,"æī":3883,"Ġimp":3884,"Ġdoes":3885,"divide":3886,"Ġ270":3887,"Ġ101":3888,"621":3889,"City":3890,"NA":3891,"Ġarg":3892,"charact":3893,"Ġvalidate":3894,"Odd":3895,"au":3896,"arge":3897,"opt":3898,"Ġhealth":3899,"negative":3900,"store":3901,"cket":3902,"448":3903,"Pre":3904,"az":3905,"squares":3906,"Ġ')))":3907,"pts":3908,"Ġ20004000":3909,"Ġman":3910,"Ġdc":3911,"stru":3912,"empty":3913,"Ġadjac":3914,"Ġmemory":3915,"served":3916,"________________________________":3917,"Ġfast":3918,"Ġ110":3919,"Ġsent":3920,"670":3921,"Ġheapify":3922,"Ġpri":3923,"Ġbou":3924,"Ġmpg":3925,"direction":3926,"'[":3927,"Bob":3928,"Table":3929,"ĥ½":3930,"ency":3931,"Ġsa":3932,"]='":3933,"+[":3934,"Group":3935,"Element":3936,"Ġindexes":3937,"Ġodds":3938,"rollMax":3939,"OO":3940,"Row":3941,"Ġdt":3942,"8060":3943,"ants":3944,"ĠlongestStr":3945,"Ġour":3946,"Ġhex":3947,"Ġpresum":3948,"Ġsmaller":3949,"Ġcloned":3950,"640":3951,"821":3952,"GH":3953,"visit":3954,"Ġ129":3955,"Ġnj":3956,"Ġcall":3957,"sToRemove":3958,"456789":3959,"eq":3960,"title":3961,"Ġ133":3962,"alary":3963,"Ġthrough":3964,"imumGold":3965,"mouse":3966,"irc":3967,"tra":3968,"ãĤī":3969,"ĠIt":3970,"divisors":3971,"420":3972,"car":3973,"Ġcuts":3974,"its":3975,"Ġxx":3976,"EdgesToRemove":3977,"De":3978,"çĽ":3979,"led":3980,"iples":3981,"Ġrunning":3982,"ĠmaxNumEdgesToRemove":3983,"Ġln":3984,"ues":3985,"Ġdesired":3986,"ollsTo":3987,"Ġmonth":3988,"ollsToTarget":3989,"window":3990,"Ġer":3991,"))])":3992,"Ġminutes":3993,"630":3994,"off":3995,"linked":3996,"\"\\":3997,"424":3998,"6000000":3999,"æł":4000,"ĠThis":4001,"nomin":4002,"tw":4003,"åĬ":4004,"Ġrains":4005,"Ġbul":4006,"Ġhighest":4007,"ĠlongestStrChain":4008,"dif":4009,"Ġ2000000":4010,"road":4011,"difference":4012,"Ġdislikes":4013,"Ġobstac":4014,"begin":4015,"ature":4016,"Ġcmd":4017,"accum":4018,"ĠgetMaximumGold":4019,"Pl":4020,"cr":4021,"five":4022,"Ġ###":4023,"][(":4024,"Ġpositive":4025,"']:":4026,"åº":4027,"stones":4028,"Ġfile":4029,"Ġni":4030,"bob":4031,"ãĤĮ":4032,"big":4033,"stat":4034,"irror":4035,"column":4036,"Ġincrement":4037,"nn":4038,"Ġ[[-":4039,"Ġ40000000":4040,"info":4041,"divisible":4042,"space":4043,"Ġjust":4044,"ulo":4045,"Ġgap":4046,"Names":4047,"ä¸į":4048,"Ġcomplex":4049,"een":4050,"ful":4051,"397":4052,"='')":4053,"Ġavailable":4054,"Ġchoose":4055,"Ġfib":4056,"Ġgenerate":4057,"ĠnumRollsToTarget":4058,"10000000":4059,"EF":4060,"light":4061,"Ġlet":4062,"Ġban":4063,"threshold":4064,"ables":4065,"åĪĨ":4066,"white":4067,")[-":4068,"men":4069,"Ġticket":4070,"707":4071,"ĠheadID":4072,"Ġpython":4073,"\"),":4074,"cand":4075,"éĢ":4076,"Ġmouse":4077,"getter":4078,"ization":4079,"391":4080,"371":4081,"Ġlocal":4082,"Alice":4083,"è¾":4084,"Ġaux":4085,"Ġ/=":4086,"connect":4087,"Ġyears":4088,"span":4089,"ymb":4090,"->":4091,"bi":4092,"gain":4093,"å®":4094,"703":4095,"Ġpaths":4096,"Ġwho":4097,"Ġtrips":4098,"Col":4099,"hat":4100,"atch":4101,"Ġsec":4102,".......":4103,"quets":4104,"triang":4105,"arger":4106,"jj":4107,"ility":4108,"(['":4109,"ĠjobDifficulty":4110,":].":4111,"Ġ\")))":4112,"Ġ85":4113,"Ġdecimal":4114,"Trie":4115,"ids":4116,"701":4117,"ĠĠĠĠĠĠĠĠĠĠĠĠĠĠĠĠĠĠĠĠĠ":4118,"transactions":4119,"Fruit":4120,"delete":4121,"806":4122,"_[":4123,"found":4124,"Ġbonus":4125,"reed":4126,"Ġwater":4127,"')[":4128,"rypt":4129,"Ġhashmap":4130,"Ġ8004000":4131,"$$$$":4132,"Opt":4133,"ube":4134,"mini":4135,"indexes":4136,"Ġprob":4137,"Ġuntil":4138,"Ġextra":4139,"ger":4140,"Ġnumer":4141,"ĠĠĠĠĠĠĠĠĠĠĠĠĠĠĠĠĠĠĠĠĠĠĠĠĠĠĠĠĊ":4142,"need":4143,"771":4144,"Ġparse":4145,"ãĥ¼":4146,"small":4147,"cause":4148,"jects":4149,"wargs":4150,"Ġrod":4151,"Ġ'{}":4152,"Ġsizes":4153,"Ġqual":4154,"Ġ402080":4155,"å¤§":4156,"Partition":4157,"]]+=":4158,"âĸĴ":4159,"'][":4160,"446":4161,"ane":4162,"alk":4163,"]).":4164,"parentName":4165,"Ġleast":4166,"Ġsingly":4167,"ous":4168,"same":4169,"ĠĠĠĠĠĠĠĠčĊ":4170,"Ġking":4171,"__,":4172,"acci":4173,"Ġstarts":4174,"Ġpositions":4175,"ĠLI":4176,"Ġwhat":4177,"Ġgrumpy":4178,"Queries":4179,"400000000":4180,"kens":4181,"åĽ":4182,"Ġmust":4183,"Ġranges":4184,"reduce":4185,"Ġrob":4186,"]==-":4187,"Ġpeak":4188,"Ġevents":4189,"Ġsubarrays":4190,"Ġtaken":4191,"Span":4192,"hatt":4193,"å¾":4194,"apper":4195,"Ġasc":4196,"Simulator":4197,")][":4198,"250":4199,"Dest":4200,"human":4201,"å½":4202,"stor":4203,"Ġpas":4204,"Ġstones":4205,"Ġkk":4206,"\\\":":4207,"Ġprocess":4208,")%(":4209,"record":4210,"Ġnex":4211,"Ġsin":4212,"Ġos":4213,"ĠisPrime":4214,"ĠisValid":4215,"Ġcontains":4216,"Ġends":4217,"Ġlocation":4218,"nominator":4219,"Ġ247":4220,"Ġys":4221,"exc":4222,"ness":4223,"ics":4224,"ä¸º":4225,"gn":4226,"ç´":4227,"orn":4228,"Ġ128":4229,"antity":4230,"0123":4231,"ĠdieSimulator":4232,"#!":4233,")[:":4234,"AA":4235,"OW":4236,"damage":4237,"degree":4238,"Ġ139":4239,"Ġ115":4240,"Ġsy":4241,"elp":4242,"utf":4243,"itial":4244,"coefficient":4245,"303":4246,"candidate":4247,"Dis":4248,"gt":4249,"éĩ":4250,"Ġorig":4251,"Ġbottom":4252,"ĠkeyTime":4253,"730":4254,"Ġcookie":4255,"InheritanceOrder":4256,"Be":4257,"Is":4258,"iss":4259,"many":4260,"rain":4261,"vis":4262,"âĶ":4263,"ĠZ":4264,"keyName":4265,"309":4266,"160":4267,"224":4268,"ving":4269,"Ġ119":4270,"Ġtrue":4271,"Ġteam":4272,"amil":4273,"Ġheights":4274,"å·":4275,"Ġreturns":4276,"hef":4277,"uess":4278,"Ġdog":4279,"Ġlike":4280,"Minutes":4281,"8000000":4282,"80000000":4283,"route":4284,"Ġoc":4285,"SumOf":4286,"åŃĹ":4287,"âĸĳâĸĳ":4288,"interval":4289,"!!!":4290,"Ġdouble":4291,"crement":4292,"remaining":4293,"accumulate":4294,"!',":4295,"180":4296,"dt":4297,"Ġremoved":4298,"ences":4299,"Ġtc":4300,"dir":4301,"Ġconsecutive":4302,"Ġproblem":4303,"heads":4304,"7000":4305,"met":4306,"akes":4307,"queries":4308,"ãģŁ":4309,"rat":4310,"}')":4311,"Ġstamp":4312,"Ġ500000":4313,"Ġcolumns":4314,"ressed":4315,"ĠlongestCommon":4316,"hattan":4317,"tf":4318,"reg":4319,"ads":4320,"look":4321,"990":4322,"continue":4323,"!\",":4324,"ython":4325,"Ġctr":4326,"Inter":4327,"costs":4328,"Fl":4329,"pon":4330,"Ġ=>":4331,"Ġminute":4332,"Ġexpl":4333,"Ġcompute":4334,"uses":4335,"Ġreadline":4336,"Ġworker":4337,"hor":4338,"onacci":4339,"Ġ-*-":4340,"olar":4341,"ĠĠĠĠĠĠĠĠĠĠĠĠĠĠĠĠĠĠĠĠĠĠĠĠĠĠĠĠĠĠĠĠĠĠĠ":4342,"ãģį":4343,"offset":4344,"\\\"\\\"\\\"":4345,"Ġ'.'":4346,"Ġvertical":4347,"cells":4348,"\"}":4349,"wers":4350,"Ġxr":4351,"Ġ500":4352,"Ġprojects":4353,"cro":4354,"ron":4355,"src":4356,"Ġ125":4357,"elow":4358,"Ġ20000000":4359,"ĠFor":4360,"Ġbottle":4361,"610":4362,"long":4363,"xp":4364,"orld":4365,"Ġ121":4366,"Ġ137":4367,"Ġbmi":4368,"Ġ[]:":4369,"ĠnumB":4370,"mean":4371,"([[":4372,"Ġload":4373,"SquareGame":4374,"inary":4375,"Ġlink":4376,"Ind":4377,"build":4378,"+\"":4379,"house":4380,"Ġtt":4381,"Ġ[(-":4382,"Ġdefault":4383,"ĠnumSubseq":4384,"Ġ4000000":4385,"Ġseconds":4386,"correct":4387,"liter":4388,"run":4389,"vowel":4390,"çĶ":4391,"è¡":4392,"ĠDog":4393,"rag":4394,"heapq":4395,"Query":4396,"Ġintegers":4397,"Ġcondition":4398,"lat":4399,"Ġrepresent":4400,"Ġyr":4401,"åĲĪ":4402,"8244353":4403,"file":4404,"ln":4405,"yr":4406,"Ġmd":4407,"env":4408,"Ġjj":4409,"Ġ107":4410,"Ġmultiple":4411,"Divisors":4412,"www":4413,"860":4414,"ED":4415,"XC":4416,"flower":4417,"yy":4418,"Ġfive":4419,"ĠnumWays":4420,"Ġ\"*":4421,"Ġ109":4422,"address":4423,"discount":4424,"Ġcapitalize":4425,"ĠINF":4426,"ä¹":4427,"æĪ":4428,"Ġred":4429,"Ġpt":4430,"Ġboth":4431,"paces":4432,"headID":4433,"Ġproducts":4434,"atisfied":4435,"ĠlongestCommonSubsequence":4436,"848":4437,"Wo":4438,"fib":4439,"field":4440,"ost":4441,"trip":4442,"sep":4443,"1111":4444,"307":4445,"pref":4446,"Up":4447,"way":4448,"Ġ\"{}":4449,"Ġseven":4450,"employ":4451,"UM":4452,"tc":4453,"ä¸Ģä¸ª":4454,"ãģĻãĤĭ":4455,"$',":4456,".\",\"....":4457,"228":4458,"Power":4459,"aight":4460,"stg":4461,"Ġsn":4462,"Ġtxt":4463,"ĠTweetCounts":4464,"Ġcurs":4465,"termin":4466,"bool":4467,"ected":4468,"903":4469,"åı¯":4470,"GoodTriplets":4471,"grade":4472,"over":4473,"Ġpts":4474,"ilar":4475,"\\\"]":4476,"jkstra":4477,"ÂłÂłÂłÂł":4478,"ĠInitial":4479,"Moves":4480,"225":4481,"Cnt":4482,"eight":4483,"page":4484,"Ġdct":4485,"cks":4486,"Ġdecode":4487,"Ġperc":4488,"ĠnumOfMinutes":4489,"call":4490,"lish":4491,"Ġcr":4492,"]['":4493,"ĠĠĠĠĠĠĠĠĠĠĠĠĠĠĠĠĠĠĠĠĠĠ":4494,"931":4495,"]!=-":4496,"runningCost":4497,"ning":4498,"Ġĉ":4499,"method":4500,"ĠcountGoodTriplets":4501,"Ġ4002000":4502,"triangle":4503,"quences":4504,"front":4505,"Ġrectangle":4506,"DI":4507,"Trans":4508,"Ġcal":4509,"Ġway":4510,"Ġ6000":4511,"608":4512,"Ġdistances":4513,"ormal":4514,"Factors":4515,"less":4516,"Ġai":4517,"),(-":4518,"Ġbecause":4519,"ached":4520,"Ġblue":4521,"Ġswitch":4522,"center":4523,"hp":4524,"ium":4525,"mirror":4526,"Ġ180":4527,"();":4528,"maxx":4529,"Ġeq":4530,"---":4531,"456":4532,"Ġgoal":4533,")\\":4534,"Ġfilter":4535,"..\",\"....":4536,"((-":4537,"ĠDinner":4538,"ranges":4539,"Ġrs":4540,"Ġru":4541,"Ġ124":4542,"Ġformat":4543,"Plates":4544,"ĠDinnerPlates":4545,"Fuel":4546,"lert":4547,"Ġ116":4548,"hird":4549,"ĠSort":4550,"than":4551,"ĠCheck":4552,"å°ı":4553,"Ġincreasing":4554,"Ġcharacters":4555,"ucture":4556,"Four":4557,"alive":4558,"three":4559,"aves":4560,"deredDict":4561,"peaks":4562,"problems":4563,"880":4564,"]/":4565,"pivot":4566,"status":4567,"Ġfree":4568,"Ġclosest":4569,"Ġmen":4570,"ĠANS":4571,"(\"-":4572,"tock":4573,"ciss":4574,"Ġsolutions":4575,"Ġsingle":4576,"ĠtweetName":4577,"Win":4578,"fight":4579,"Ġ126":4580,"Ġship":4581,"epcopy":4582,"909":4583,"param":4584,"levels":4585,"version":4586,"Ġcells":4587,"Ġtriangle":4588,"[\\\"":4589,"mapping":4590,"paper":4591,"suffix":4592,"Ġ'':":4593,"Ġpost":4594,"]=(":4595,"Ġexpression":4596,"clear":4597,"tweets":4598,"è·":4599,"Ġstk":4600,"Ġdelete":4601,"usr":4602,"missing":4603,"Ġcases":4604,"Ġcomplexity":4605,"226":4606,"ĤçĤ¹":4607,"ler":4608,"Ġsafe":4609,"mpg":4610,"Ġhuman":4611,"Ġseries":4612,"':[":4613,"books":4614,"month":4615,"99999999":4616,"è¿Ļ":4617,"Ġca":4618,"Ġti":4619,"Ġalert":4620,"Ġadded":4621,"ĠwinnerSquareGame":4622,"XY":4623,"onal":4624,"])**":4625,"Ġmeans":4626,"Start":4627,"sentence":4628,"]^":4629,"imin":4630,"ud":4631,"Ġxy":4632,"roken":4633,"Ġ34":4634,"lists":4635,")(":4636,"An":4637,"hen":4638,"sing":4639,"â£":4640,"Ġpile":4641,"Ġ400000000":4642,"minute":4643,"Ġdiffer":4644,"argin":4645,"680":4646,"Ġdon":4647,"Ġlegs":4648,"candidates":4649,"struct":4650,"120":4651,"``":4652,"ict":4653,"decessor":4654,"Ġcar":4655,"Ġax":4656,"ĠStock":4657,"Ġlists":4658,"pect":4659,"256":4660,"Ġscores":4661,"Ġ'-':":4662,"ĠgetMaxLen":4663,"(':":4664,"Ġge":4665,"Ġdamage":4666,"peri":4667,"Ġ'*'":4668,"leetcode":4669,"Spanner":4670,"ĠStockSpanner":4671,"lcm":4672,"phi":4673,"ortest":4674,"Ġhp":4675,"lope":4676,"408":4677,"\":[":4678,"Ġcombination":4679,"difficulty":4680,"itertools":4681,"label":4682,"Ġrecurse":4683,"Ġaccumulate":4684,",,":4685,"Frequency":4686,"Hand":4687,"Width":4688,"_)":4689,"bott":4690,"Ġrt":4691,"Ġbx":4692,"Ġ300":4693,"(\"%":4694,"Ġevap":4695,"0123456789":4696,"utom":4697,"Ġ':":4698,"Ġxp":4699,"ĠmaxS":4700,"0001":4701,"Ġcoding":4702,"Ġstops":4703,"puzzle":4704,"Ġsentence":4705,"sx":4706,"åľ":4707,"ç®":4708,"Ġsubstring":4709,"compile":4710,"Ġemploy":4711,"CA":4712,"has":4713,"Ġbc":4714,"Ġgive":4715,"Ġboolean":4716,"clude":4717,"âĸĴâĸĴ":4718,"Sa":4719,"gap":4720,"pol":4721,"dead":4722,"Ġwhe":4723,"endTime":4724,"Ġ300000":4725,"plan":4726,"Cr":4727,"Now":4728,"Ġndp":4729,"Ġskip":4730,"770":4731,"Island":4732,"Ġrat":4733,"anch":4734,"onic":4735,"Ġduplic":4736,"Ġagain":4737,"dig":4738,"//=":4739,"assert":4740,"positions":4741,"middle":4742,"FibSubseq":4743,"LongestFibSubseq":4744,"Winner":4745,"ossible":4746,"sy":4747,"Ġ42":4748,"Ġselect":4749,"imeter":4750,"Ġ10200":4751,"ĠMax":4752,"ipher":4753,"Ġ\\\\":4754,"ĠmaxSumRange":4755,"â£¿":4756,"ĠmaxSumRangeQuery":4757,"Bill":4758,"Squares":4759,"fd":4760,"kwargs":4761,"sin":4762,"æŀ":4763,"Ġreg":4764,"Ġcro":4765,"Ġpoly":4766,"])])":4767,"ĠlenLongestFibSubseq":4768,"ified":4769,"Ġmins":4770,"ĠkeyName":4771,"Ġpartial":4772,"cards":4773,"åīį":4774,"]=[":4775,"cu":4776,"food":4777,"Ġref":4778,"Ġborn":4779,"])>":4780,"hed":4781,"Ġheads":4782,"Ġvertices":4783,"560":4784,"=[-":4785,"GNA":4786,"Ġreserved":4787,"Ġlight":4788,"Ġow":4789,"Ġhot":4790,"Ġstructure":4791,"ĠNIM":4792,"('*":4793,"ĠlastSubstring":4794,"earch":4795,"paths":4796,"pppppppppppppppp":4797,"balance":4798,"åĩº":4799,"ĠNIMIS":4800,"70000":4801,"??":4802,"cuts":4803,"ml":4804,"lace":4805,"ĠmaxCoins":4806,"Ġeff":4807,"term":4808,"Ġ103":4809,"Most":4810,"bab":4811,"lt":4812,"rx":4813,"zfill":4814,"æĹ":4815,"Ġ1000000":4816,"encode":4817,"Ġanimal":4818,"])/":4819,"Ġtoday":4820,"ofloat":4821,"Ġranks":4822,"Ġgreater":4823,"Ones":4824,"Grid":4825,"hn":4826,"Ġ'%":4827,"Ġ([":4828,"Ġjumps":4829,"206":4830,"Ġequ":4831,"Ġcandies":4832,"pass":4833,"Ġ24080":4834,"Ġpuzzle":4835,"140":4836,"428":4837,"LX":4838,"Ġrx":4839,"Ġfour":4840,"Ġsrc":4841,"atter":4842,"minSize":4843,"Ġsubset":4844,"component":4845,"ĠInitialize":4846,"199":4847,"TS":4848,"satisfaction":4849,"))[":4850,"))==":4851,"ĠSub":4852,"Ġmaxlen":4853,"(('":4854,"[::":4855,"Ġlowest":4856,"Three":4857,"'},":4858,"ead":4859,"full":4860,"pick":4861,"Ġforce":4862,"Ġbs":4863,"Ġlarge":4864,"rock":4865,"isEnd":4866,"Ġthem":4867,"Ġ7000":4868,"Invalid":4869,"580":4870,"Drop":4871,"bfs":4872,"Ġsay":4873,"Ġtax":4874,"Ġdirs":4875,"907":4876,"Ġgoing":4877,"ä½į":4878,"Ġabc":4879,"Elements":4880,"çĶ¨":4881,"orig":4882,"Ġci":4883,"Ġforward":4884,"ĠnumSub":4885,"Ġ486":4886,"('/":4887,"Ġpast":4888,"ĠnumberOf":4889,"colors":4890,"Ġvertex":4891,"--------------------------------":4892,"exponent":4893,"EL":4894,"EX":4895,"OS":4896,"litres":4897,"salary":4898,"106":4899,"//(":4900,"Ġ998244353":4901,"randint":4902,"Ġglobal":4903,"Ġabove":4904,"Closest":4905,"bb":4906,"med":4907,"Ġfi":4908,"Ġts":4909,"Ġ80000000":4910,"+=\"":4911,"301":4912,"Ġlengths":4913,"Ġ40008000":4914,"Ġ'-'":4915,"repeat":4916,"Ġrecursive":4917,"Copy":4918,"Ġdj":4919,"thing":4920,"OfF":4921,"uppercase":4922,"Destination":4923,"LXX":4924,"LXXX":4925,"Ġap":4926,"Ġent":4927,"Ġrain":4928,"Ġ122":4929,"Ġcx":4930,"ĠmaxFreq":4931,"Ġ[[[":4932,"971":4933,"scores":4934,"ĠFindElements":4935,"ĠkingName":4936,"#!/":4937,"500000":4938,"ming":4939,"more":4940,"xr":4941,"Ġaverage":4942,"minimum":4943,"usesTo":4944,"decimal":4945,"Ġangle":4946,"ajority":4947,"Flips":4948,"ĠnumBusesTo":4949,"ĠnumBusesToDestination":4950,"Egg":4951,"ble":4952,"minutes":4953,"=((":4954,"ese":4955,"Ġcenter":4956,"Ġsuma":4957,"ĠMajority":4958,"=[[]":4959,"Ġalpha":4960,"Ġmsg":4961,"intersection":4962,"AtStack":4963,"Ġadjacent":4964,"ĠMajorityChecker":4965,"åĮ":4966,"èĥ½":4967,"Ġfood":4968,"Ġ118":4969,"und":4970,"coords":4971,"gorith":4972,"LO":4973,"ky":4974,"tag":4975,"Ġwant":4976,"Ġhor":4977,"+='":4978,"Times":4979,"unknown":4980,"ircular":4981,"Ġrods":4982,"cissors":4983,"8400":4984,"Tweet":4985,"six":4986,"ountain":4987,"loors":4988,"Ġ64":4989,"tract":4990,"790":4991,"Ġislands":4992,"Neighb":4993,"ragons":4994,"dj":4995,"random":4996,"wes":4997,"real":4998,"])<=":4999,"ãģ£":5000,"ãģĳ":5001,"Ġ\"\":":5002,"ector":5003,"content":5004,"Ġcoordinates":5005,"Ġplant":5006,"make":5007,"this":5008,"xi":5009,"hier":5010,"Ġneigh":5011,"Ġprogram":5012,"Ġexam":5013,"subsets":5014,"ĠcardPoints":5015,"Ġvari":5016,"lookup":5017,"wesome":5018,"UF":5019,"hours":5020,"nex":5021,"Ġip":5022,"Ġcustomer":5023,"recur":5024,"Ġla":5025,")]))":5026,"idxs":5027,"Ġdists":5028,"Ġbuy":5029,"360":5030,"Draw":5031,"Helper":5032,"each":5033,"Ġmany":5034,"]);":5035,"Ġ256":5036,"Ġ\"\")":5037,"Ġht":5038,"Ġhorizontal":5039,"ĠgetKth":5040,"ĠDis":5041,"Ġalso":5042,"NumOf":5043,"ception":5044,"Position":5045,"ĠMAGNA":5046,"UniqueSplit":5047,"ãĥ¼ãĥ":5048,"ĠnumSubmat":5049,"Sh":5050,"Ġclo":5051,"Ġpf":5052,"Ġdna":5053,"1123":5054,"exam":5055,"Ġcontent":5056,"2400":5057,"ication":5058,"ideos":5059,"ä¸Ĭ":5060,"faces":5061,"Block":5062,"Tur":5063,"Tie":5064,"favoriteCompanies":5065,"vs":5066,"ĴĮ":5067,"Ġfollow":5068,"Ġcor":5069,"Ġmode":5070,"Ġ200000000":5071,"Ġoff":5072,"illed":5073,"Ġ{}'.":5074,"Ġmethod":5075,"Ġperm":5076,"functools":5077,"Ġpowers":5078,"flush":5079,"!!!!!!!!!!!!!!!!":5080,"ĠfindTheCity":5081,"Next":5082,"SI":5083,"\\\\":5084,"]',":5085,"free":5086,"nm":5087,"enty":5088,"ãģ¾":5089,"convert":5090,"Seats":5091,"åŃĲ":5092,"teen":5093,"äºĨ":5094,"horizontal":5095,"æĿ":5096,"lease":5097,"leaf":5098,"Ġ44":5099,"ĠcurrSum":5100,"=[(":5101,"Ġdegree":5102,"oms":5103,")+\"":5104,"ãĤĬ":5105,"vertices":5106,"Ġdivisible":5107,"Ġchanged":5108,"ĠsuperEgg":5109,"(',')":5110,"Jump":5111,"Solution":5112,"crypt":5113,"lc":5114,"mode":5115,"scissors":5116,"orphi":5117,"death":5118,"))*(":5119,"Ġtup":5120,"ĠmaxScore":5121,"Ġ84":5122,"Ġneeded":5123,"Point":5124,"=\"\\":5125,"maze":5126,"parts":5127,"Ġrotate":5128,"operation":5129,"ucky":5130,"orphic":5131,"50000":5132,"840":5133,"PQ":5134,"slice":5135,"],'":5136,"asc":5137,"390":5138,"å°±":5139,"Ġboxes":5140,"Ġcomponents":5141,"â£¿â£¿":5142,"dc":5143,"Ġelimin":5144,"esc":5145,"606":5146,"ĠBFS":5147,"{},":5148,"ä¸Ń":5149,"quared":5150,"multipl":5151,"540":5152,"810":5153,"dup":5154,"arrange":5155,"lamation":5156,"ĠNO":5157,"###":5158,"ashier":5159,"acation":5160,"prof":5161,"Steps":5162,"')))":5163,"200000000":5164,":.":5165,"Do":5166,"language":5167,"è®":5168,"Ġry":5169,"Ġclose":5170,"Ġyy":5171,"Ġsee":5172,"901":5173,"crease":5174,"known":5175,"ç½":5176,"ĠĠĠĠĠĠĠĠĠĠĠĠĠĠĠĊ":5177,"rep":5178,"arrows":5179,"roach":5180,"ĠmaxUniqueSplit":5181,"]+[":5182,"angles":5183,"formance":5184,"ĠmaxSumAfter":5185,"ecimal":5186,"Partitioning":5187,"perience":5188,"ĠmaxSumAfterPartitioning":5189,"!\")":5190,"LM":5191,"Search":5192,"decode":5193,"Ġsj":5194,"reach":5195,"Ġstates":5196,"alling":5197,"nections":5198,"Ġsubsets":5199,"Straight":5200,"ĠnumOfSubarrays":5201,"ball":5202,"fn":5203,"ks":5204,"Ġ\\\",":5205,"ined":5206,"arded":5207,"Ġbask":5208,"116":5209,"ĠTo":5210,"LengthOf":5211,"133":5212,"MD":5213,"Total":5214,"safe":5215,"æŃ":5216,"seng":5217,"Ġtim":5218,"Ġ3600":5219,"Ġ54":5220,"488":5221,"ĠsuperEggDrop":5222,"Can":5223,"TweetCounts":5224,"cx":5225,"Ġrep":5226,"Ġnd":5227,"Ġmu":5228,"ĠSum":5229,"Ġhold":5230,"avg":5231,"110100101100110100110010":5232,"Ġflowers":5233,"110100101100110100110010110011010010110100110010":5234,"Rows":5235,"TH":5236,"bc":5237,"Ġcows":5238,"ely":5239,"Ġvolume":5240,"Ġseat":5241,"Ġdice":5242,"536":5243,"fromkeys":5244,"Subsets":5245,"members":5246,"11010010110011010010110100110010":5247,"Within":5248,"Ġ40000200":5249,"Ġcoords":5250,"ç½®":5251,"Swap":5252,"pile":5253,"éĽ":5254,"ĠisN":5255,"ĠOr":5256,"unners":5257,"gender":5258,"('.')":5259,"connected":5260,"metic":5261,"Ġdifferent":5262,".\",\"":5263,"just":5264,"sn":5265,"tiles":5266,"Ġpj":5267,"unit":5268,"])*(":5269,"ized":5270,"6011":5271,"]=\"":5272,"ĠCashier":5273,"ĠĠĠĠĠĠĠĠĠĠĠĠĠĠĠĠĠĠĠĠĠĊ":5274,"Ġoperations":5275,"multiply":5276,"zzles":5277,"blue":5278,"Ġclean":5279,"Ġsb":5280,"])[":5281,"Ġstat":5282,"()).":5283,"Ġdifficulty":5284,"Ġwithout":5285,"cycle":5286,"polish":5287,"%=":5288,"Mat":5289,"Res":5290,"kk":5291,"Ġsheep":5292,"Ġlcs":5293,"496":5294,"Ġuser":5295,"Ġlove":5296,"{}\".":5297,"ä¸ĭ":5298,"åĲİ":5299,"PerFrequency":5300,"hickens":5301,"âĶĢ":5302,"TweetCountsPerFrequency":5303,"Fail":5304,"Jo":5305,"iod":5306,"lvl":5307,"nv":5308,"ĠfavoriteCompanies":5309,"Ġ112":5310,"Ġtp":5311,"Ġbal":5312,"Ġbag":5313,"ĠĠĠĠĠĠĠĠĠĠĠĠĠĠĊ":5314,"Ġanswers":5315,"load":5316,"ĠAs":5317,"135":5318,"Ġtoo":5319,"Ġcards":5320,"multiple":5321,"characters":5322,"Transactions":5323,"åľ¨":5324,"ah":5325,"bul":5326,"ĠÐ":5327,"Ġ))":5328,"Ġate":5329,"utput":5330,"Ġlb":5331,"Ġwalk":5332,"columns":5333,"Ġevens":5334,"ymbol":5335,"utomorphic":5336,"AD":5337,"Average":5338,"nth":5339,"lection":5340,"Ġspaces":5341,"Ġdb":5342,"Ġ'@":5343,"plus":5344,"108":5345,"maximum":5346,"2060":5347,"**.":5348,"ĠtotalFruit":5349,"Ġmissing":5350,"PP":5351,"bx":5352,"Ġrequired":5353,"Ġput":5354,"Ġmargin":5355,"ummy":5356,"Ġsatisfaction":5357,"Ġ'$":5358,"Ġknow":5359,"575":5360,"804":5361,"ody":5362,"Ġstrings":5363,"Ġalways":5364,"chef":5365,"æĸ¹":5366,"Ġfriends":5367,"exclamation":5368,"WithinDays":5369,"Lines":5370,"body":5371,"pri":5372,"pay":5373,"ula":5374,"éģ":5375,"sted":5376,"ĠStr":5377,"Ġ\"%":5378,"forward":5379,"ĠAns":5380,"ãģĨ":5381,"Ġcontained":5382,"1001":5383,"subarray":5384,"Ġactual":5385,"Digits":5386,"nj":5387,"tup":5388,"ĠĠčĊ":5389,"Ġmed":5390,"mes":5391,"Ġminq":5392,"Ġpreorder":5393,"Input":5394,"20048":5395,"vertical":5396,"Ġavoid":5397,"Ġlowercase":5398,"memory":5399,"neighbors":5400,"ç´ł":5401,"rel":5402,"Ġinner":5403,"Ġna":5404,"adi":5405,"mins":5406,"Ġleaf":5407,"Ġiterate":5408,"versal":5409,"550":5410,"ANS":5411,"Friend":5412,"Rep":5413,"\\'":5414,"hist":5415,"Ġutf":5416,"Ġrr":5417,"Ġmst":5418,"Ġanother":5419,"Ġ(((":5420,"ulation":5421,"+=[":5422,"2700":5423,"Ġsets":5424,"ĠCode":5425,"bos":5426,"uster":5427,"ofar":5428,"ABCD":5429,"amily":5430,"\"+":5431,"CT":5432,"ling":5433,"Ġ~":5434,"Ġvacation":5435,"diag":5436,"Ġcnts":5437,"ĠparentName":5438,"Ġcumsum":5439,"Ġshifts":5440,"cluding":5441,"Pairs":5442,"æŀľ":5443,"StraightHand":5444,"\"*":5445,"']-":5446,"UT":5447,"Who":5448,"cut":5449,"greet":5450,"éł":5451,"states":5452,"104":5453,"omb":5454,"remainder":5455,"Ġincrease":5456,"TargetCopy":5457,"Ġskills":5458,"+)":5459,"300000":5460,"510":5461,"60000000":5462,"Base":5463,"dq":5464,"slices":5465,"une":5466,"otes":5467,"Ġgrow":5468,"ĠminDifficulty":5469,"ĠCo":5470,"ĠdesiredHeight":5471,"PQR":5472,"149":5473,"oint":5474,"Ġ])":5475,"Ġfn":5476,"Ġ114":5477,"arium":5478,"Ġpb":5479,"Ġthird":5480,"Ġlake":5481,"Ġassign":5482,"())]":5483,"Ġ\":":5484,"ĠAlice":5485,"!!'":5486,"substring":5487,"user":5488,"Ġmultiples":5489,"calculate":5490,"ĠisNStraightHand":5491,"Bridge":5492,"OF":5493,"Parent":5494,"friend":5495,"sb":5496,"éĹ":5497,"ordered":5498,"Ġmc":5499,"Ġsave":5500,"Ġlatest":5501,"iding":5502,"ĠminF":5503,"Ġhq":5504,"Ġeg":5505,"ĠwordSubsets":5506,"Ġ{})":5507,"ĠCon":5508,"ithmetic":5509,"PathSum":5510,"Ġchanges":5511,"Integer":5512,"Ġbanjo":5513,"Ġrobot":5514,"bottom":5515,"Ġratio":5516,"gorithm":5517,"Bien":5518,"Binary":5519,"MCC":5520,"MDCC":5521,"nam":5522,"¬¡":5523,"leader":5524,"Ġwat":5525,"olid":5526,"());":5527,"Ġ\"/":5528,"Ġ366":5529,"512":5530,"ãģĵ":5531,"MMCC":5532,"MMDCC":5533,"MMMCC":5534,"MMMDCC":5535,"kommen":5536,"Ġmanhattan":5537,"Ġquality":5538,"Bienven":5539,"30000":5540,"XL":5541,"customer":5542,"hats":5543,"åĴĮ":5544,"Ġfold":5545,"Ġfrequency":5546,"Ġlt":5547,"hex":5548,"ckets":5549,"Ġhist":5550,"Ġ52":5551,"Ġlista":5552,"ãĤĤ":5553,"MMD":5554,":[[":5555,"MMMD":5556,"¦Ĥ":5557,"æİ":5558,"Ġed":5559,"Ġbb":5560,"Ġbad":5561,"Ġmaxs":5562,"ĉĉĉĉĉ":5563,"ĠCount":5564,"ersion":5565,"iciency":5566,"Ġrotations":5567,"Permutation":5568,"ĠshipWithinDays":5569,"assertEqual":5570,"9000":5571,"ade":5572,"buf":5573,"desc":5574,"Ġpc":5575,"Ġbar":5576,"ref":5577,"ĠmaxLength":5578,"]]+":5579,"ĠWorld":5580,"Ġbucket":5581,"jointSet":5582,"åĬł":5583,"ASE":5584,"JK":5585,"rate":5586,"Ġrv":5587,"Ġfield":5588,"Ġtab":5589,"Ġbarcodes":5590,"otonic":5591,"Ġxi":5592,"ĠkClosest":5593,"ĠminE":5594,"loop":5595,"quantity":5596,"Ġaddress":5597,"ãģĭãĤī":5598,"azon":5599,"Lo":5600,"happy":5601,"åĨ":5602,"æ¯":5603,"Ġrl":5604,"Ġ179":5605,"poss":5606,"Ġdirect":5607,"acket":5608,"(\".":5609,"Ġdep":5610,"248":5611,"468":5612,"member":5613,"Ġreachable":5614,"allingPathSum":5615,"ĠminFallingPathSum":5616,"\"],":5617,"AM":5618,"Del":5619,"Fr":5620,"Palindrome":5621,"bet":5622,"fect":5623,"Ġ!!\"":5624,"msg":5625,"partition":5626,"flip":5627,"folders":5628,"ĠOrderedDict":5629,"oliday":5630,"660":5631,"Iter":5632,"aut":5633,"çķ":5634,"Ġdragons":5635,"Ġbreed":5636,"Ġ5000":5637,"896":5638,"Ġroad":5639,"posite":5640,"ither":5641,"Ġ400800":5642,"Lengths":5643,"Ġbased":5644,"Welcome":5645,"ALI":5646,"Mod":5647,"Ġ157":5648,"Ġ'_":5649,"Ġmaxd":5650,"ĠcountSquares":5651,"535":5652,"ĠMin":5653,"464":5654,"Stop":5655,"Ġsuc":5656,"iece":5657,"Ġgoes":5658,"team":5659,"Ġrel":5660,"))),":5661,"lent":5662,"exit":5663,"592":5664,"ĠBIT":5665,"ĠGet":5666,"clean":5667,"before":5668,"Ġorders":5669,"ãģªãģĦ":5670,"ç®Ĺ":5671,"+',":5672,"median":5673,"æĽ":5674,"4060":5675,"')+":5676,"Ġ'*':":5677,"New":5678,"ĠalertNames":5679,"Ġmuch":5680,"\"[":5681,".\",\".":5682,"MIN":5683,"ND":5684,"è¯":5685,"deck":5686,"force":5687,"ĠNum":5688,"296":5689,"mino":5690,"Covered":5691,"Ġoperation":5692,"Ġ80402000":5693,"Ġoptions":5694,"verlapping":5695,"numerator":5696,"::-":5697,"ET":5698,"Far":5699,"RI":5700,"[_":5701,"https":5702,"ia":5703,"pc":5704,"ç¬":5705,"Ġ=[]":5706,"Ġ199":5707,"Ġtw":5708,"Ġbloom":5709,"olog":5710,"Ġ273":5711,"404":5712,"ircle":5713,"omen":5714,"ĠgetStr":5715,"Ġatt":5716,"ĠshortestBridge":5717,"Components":5718,"850":5719,"AE":5720,"If":5721,"}\\":5722,"Ġdry":5723,"Ġvs":5724,"Ġeat":5725,"1347":5726,"Ġwordlist":5727,"Ġbody":5728,"ãģı":5729,"='\\":5730,"Ġrotation":5731,"ĠSorted":5732,"ĠreservedSeats":5733,"169":5734,"Overlap":5735,"fre":5736,"poly":5737,"âĢ":5738,"åł":5739,"Ġenter":5740,"stk":5741,"Ġsym":5742,"ĠcountTriplets":5743,"Ġbeast":5744,"202":5745,"6091":5746,"oman":5747,"ĠgetWinner":5748,"ĠKey":5749,"Ġ'(':":5750,"parse":5751,"dog":5752,"hrase":5753,"ĠException":5754,"'*(":5755,"548":5756,"Al":5757,"Awesome":5758,"Safe":5759,"UV":5760,"zag":5761,"Ġgrade":5762,"Ġhat":5763,"Ġcovered":5764,"Ġ74":5765,"136":5766,"\\\".":5767,"=['":5768,"]=-":5769,"ĠBob":5770,"888":5771,"pped":5772,"location":5773,"Ġdivs":5774,"formula":5775,"cardPoints":5776,"sider":5777,"Ġflips":5778,"comes":5779,"*-*-":5780,"Ġobstacles":5781,"ABCDEF":5782,"lim":5783,"vie":5784,"Ġinvert":5785,"Ġdst":5786,"Ġlarger":5787,"rogs":5788,"2020":5789,"ĠisPossible":5790,"416":5791,"ĠlongestAwesome":5792,"seconds":5793,"ĠinvalidTransactions":5794,"æĸĩ":5795,"æĹ¶":5796,"Neighbors":5797,"âĶĢâĶĢ":5798,"task":5799,"Ġfar":5800,"denominator":5801,"eng":5802,"Ġtask":5803,"Ġteams":5804,"ĠĠĠĠĠĠĠĠĠĠĠĠčĊ":5805,"ĠmaxVal":5806,"Ġ72":5807,"maxlen":5808,"***":5809,"Ġweek":5810,"ï¼ģ":5811,"Ġspan":5812,"Ġrepeated":5813,"Great":5814,"ä½įç½®":5815,"Duplic":5816,"after":5817,"how":5818,"jumps":5819,"ting":5820,"Ðµ":5821,"âĨ":5822,"éķ":5823,"Ġ360":5824,"Ġyi":5825,"192":5826,"Ġdeath":5827,"216":5828,"255":5829,"Ġchecked":5830,"Ġblocks":5831,"ĠcontainedBoxes":5832,"148":5833,"cf":5834,"lr":5835,"tes":5836,"tab":5837,"animal":5838,"Ġ700":5839,"808":5840,"perc":5841,"ĠpreSum":5842,"ãģĪ":5843,"typ":5844,"Ġ804020":5845,"ACK":5846,"çĽ®":5847,"CH":5848,"Non":5849,"æ³":5850,"Ġbj":5851,"Ġ3000":5852,"dictionary":5853,"ĉĉĊ":5854,"positive":5855,"atingSpeed":5856,"Subset":5857,"Ġmulti":5858,"boxes":5859,"iplist":5860,"ĠinitialBoxes":5861,"åĢĭ":5862,"ĠminEatingSpeed":5863,":\\":5864,"Add":5865,"History":5866,"kiplist":5867,"sw":5868,"uration":5869,"Ġ163":5870,"Ġblack":5871,"Ġwould":5872,"Ġ243":5873,"ĠSeg":5874,"ĠmaxEqual":5875,"cestor":5876,"115":5877,"__('":5878,"275":5879,"permutations":5880,"Ġdeq":5881,"Ġdelet":5882,"ãģĤ":5883,"Ġ{}\".":5884,"Ġtargets":5885,"Ġunit":5886,"prob":5887,"eggs":5888,"\"\".":5889,"compare":5890,"anagram":5891,"Ġbetter":5892,"Ġbiggest":5893,"ĠgetStrongest":5894,"CV":5895,"sheep":5896,"Ġfs":5897,"Ġ150":5898,"Ġcube":5899,"Ġphrase":5900,"Ġsim":5901,"Ġdont":5902,"istics":5903,"endswith":5904,"maxSize":5905,"Ġconst":5906,"Ġarithmetic":5907,"week":5908,"Ġevil":5909,"Ġtransaction":5910,"********":5911,"bag":5912,"}\\\")":5913,"æ±":5914,"æ¬¡":5915,"éĸ":5916,"asic":5917,"asible":5918,"quire":5919,"aster":5920,"{}'.":5921,"ING":5922,"Ġbullets":5923,"Ġeliminate":5924,"Ter":5925,"|(":5926,"Ġdraw":5927,"ola":5928,"Ġ365":5929,"Ġhm":5930,"indx":5931,"Ġ840":5932,"2080":5933,"ubes":5934,"288":5935,"itemgetter":5936,"ression":5937,"Ġ'#':":5938,"ramble":5939,"Ġsimpl":5940,"Ġsimple":5941,"426":5942,"Rank":5943,"fi":5944,"ug":5945,"wall":5946,"Ġins":5947,"Ġ'<":5948,"ĠSpace":5949,"Ġ\"))":5950,"expression":5951,"Ġhit":5952,"204":5953,"198":5954,"506":5955,"ipal":5956,"ĠPython":5957,"ĠcanRe":5958,"SubarraySum":5959,"Ġrolls":5960,"blocks":5961,"incipal":5962,"Ġsegment":5963,"Ġbirth":5964,"åº¦":5965,"Intervals":5966,"125":5967,"_):":5968,"{'":5969,"åİ":5970,"Ġche":5971,"Ġcities":5972,"summ":5973,"672":5974,"515":5975,"ĠCom":5976,"Ġboarding":5977,"cuss":5978,"100000000":5979,"And":5980,"GG":5981,"lit":5982,"lue":5983,"pb":5984,"pal":5985,"Ġ173":5986,"entur":5987,"Ġda":5988,"hield":5989,"Ġmaxq":5990,"ĠminQ":5991,"ĠminJumps":5992,"Ġstrs":5993,"!=-":5994,"Ġcould":5995,"472":5996,"Ġisprime":5997,"2147":5998,"Ġchunk":5999,"486":6000,"168":6001,"(*[":6002,"Ġparts":6003,"numeric":6004,"================================":6005,"Ġ80000400":6006,"Videos":6007,"ik":6008,"Ð¾":6009,"sex":6010,"Ġnk":6011,"Ġstations":6012,"Ġocc":6013,"isWord":6014,"strs":6015,"Ġchance":6016,"chedVideos":6017,"......\",\".....":6018,".....\",\"......":6019,"'d":6020,"Ġmag":6021,"uto":6022,"Ġ'?":6023,"hirt":6024,"highest":6025,"Ġguess":6026,"amon":6027,"ĠBy":6028,"Ġ'.':":6029,"Indexes":6030,"izza":6031,"Ġexists":6032,"ãģĹãģ¦":6033,"traverse":6034,"RA":6035,"WXY":6036,"^(":6037,"mas":6038,"çĲ":6039,"Ġ140":6040,"Ġ149":6041,"Ġsuff":6042,"lens":6043,"ĠmaxQ":6044,"ĠAl":6045,"3333":6046,"Ġdijkstra":6047,"195":6048,"ãģķ":6049,"616":6050,"Ġcontain":6051,"Ġbackward":6052,"åı³":6053,"Ġbouquets":6054,"entury":6055,"POS":6056,"Sm":6057,"ba":6058,"åį":6059,"Ġcmp":6060,"erature":6061,"Ġsx":6062,"Ġdummy":6063,"Ġbeen":6064,"('[":6065,"6093":6066,"Ġ94":6067,"576":6068,"Ġcollect":6069,"Ġtokens":6070,"]+'":6071,"EST":6072,"ĠchildName":6073,"some":6074,"recursive":6075,"æĸ°":6076,"åĢ¤":6077,"Ġwrite":6078,"Ġsince":6079,"Woof":6080,"åı¯ä»¥":6081,"(','":6082,"-{":6083,"2000000000":6084,"Over":6085,"](":6086,"winner":6087,"Ġslow":6088,"ĠrangeSum":6089,"Ġwage":6090,"rops":6091,"Ġoverlap":6092,"ĠmaxLen":6093,"chunk":6094,"6040":6095,"196":6096,"....\",\".":6097,"Ġdeg":6098,"omain":6099,"rowser":6100,"Ġsubs":6101,")//(":6102,"Ġflow":6103,"Ġoption":6104,"IOU":6105,"Ints":6106,"Divisor":6107,"Ġchoice":6108,"Ġowner":6109,"Neg":6110,"TreeNode":6111,"_.":6112,"lm":6113,"):]":6114,"ength":6115,"Ġlanguage":6116,"Ġ']":6117,"mpossible":6118,"Ġ481":6119,"isnumeric":6120,"exist":6121,"4030":6122,"696":6123,"]]]":6124,"minu":6125,"neigh":6126,"215":6127,"proper":6128,"ãĤĪ":6129,"Ġwhose":6130,"tests":6131,"ttp":6132,"Ġcombine":6133,"Ġ'/':":6134,"ĠReturns":6135,"Balanced":6136,"_:":6137,"ao":6138,"stem":6139,"Ġreached":6140,"Ġtiles":6141,"itations":6142,"Ġlvl":6143,"336":6144,"ĠCustom":6145,"Ġlastx":6146,"ppg":6147,"ango":6148,"cnts":6149,"iled":6150,"atten":6151,"æĪĲ":6152,"'re":6153,"528":6154,"Your":6155,"nu":6156,"Ġim":6157,"Ġfail":6158,"Ġ100000000":6159,"))}":6160,"Ġrespon":6161,"Ġho":6162,"ilities":6163,"starts":6164,"ĠgetInheritanceOrder":6165,"duplic":6166,"IONS":6167,"ALID":6168,"AEIOU":6169,"rowserHistory":6170,"AS":6171,"fe":6172,"insort":6173,"lear":6174,"ert":6175,"ites":6176,"lake":6177,"Ġstill":6178,"Ġyp":6179,"getitem":6180,"amt":6181,"ands":6182,"erest":6183,"ĠBrowserHistory":6184,"boys":6185,"consecutive":6186,"python":6187,"ĠGraph":6188,"ellow":6189,"available":6190,"Ġframe":6191,"ĠstoneGameIII":6192,"fruits":6193,"Ġobstacle":6194,"ĠDisjointSet":6195,"BLE":6196,"oFar":6197,"sr":6198,"sno":6199,"Ġappend":6200,"urr":6201,"Ġcp":6202,"Ġspecial":6203,"295":6204,"435":6205,"icmethod":6206,"466":6207,"Ġ[['":6208,"places":6209,"568":6210,"\",\".....":6211,"Ġ40082":6212,"]!='":6213,"discuss":6214,"Return":6215,"Ġtypes":6216,"OFError":6217,"war":6218,"Ġes":6219,"Ġlay":6220,"rob":6221,"hive":6222,"Ġhero":6223,"Ġhello":6224,"ĠAdd":6225,"604":6226,"ĠfindKth":6227,"455":6228,"ãĤ¹":6229,"Ġcannot":6230,"discard":6231,"Ġbuckets":6232,".....\",\"":6233,"\"],[\"....":6234,"CLX":6235,"rectangleQueries":6236,"staticmethod":6237,"ĠSubrectangleQueries":6238,"BlockSum":6239,"¦Ĥæŀľ":6240,"UVWXY":6241,"ĠCustomStack":6242,"789":6243,"lucky":6244,"ogram":6245,"tl":6246,"tip":6247,"Ġpsum":6248,"Ġ-(":6249,"Ġ255":6250,"ctr":6251,"ĠminSumOf":6252,"Ġsummation":6253,"2711":6254,"235":6255,"414":6256,"ãĤ°":6257,"Ġmodulo":6258,"Ġ40086":6259,"Ġhigher":6260,"players":6261,"åĢ¼":6262,"Ġgames":6263,"Ġterm":6264,"128":6265,"CXX":6266,"CXXX":6267,"RIM":6268,"rus":6269,"ten":6270,"Ġrate":6271,"Ġlr":6272,"..\",\"...":6273,"fts":6274,"experience":6275,"lood":6276,"495":6277,"cos":6278,"lengths":6279,"815":6280,"Inf":6281,"...\",\"..":6282,"Least":6283,"CLXX":6284,"CLXXX":6285,"åħ¥":6286,"Ġexplored":6287,"snoopy":6288,"ĠminSumOfLengths":6289,"'].":6290,"Customers":6291,"Pe":6292,"barcodes":6293,"rn":6294,"rase":6295,"|\\":6296,"leg":6297,"Ġrequest":6298,"Ġ167":6299,"Ġ197":6300,"Ġtl":6301,"Ġleng":6302,"Ġgas":6303,"Ġ700000":6304,"Ġdig":6305,"(\"*":6306,"4800":6307,"ears":6308,"maj":6309,"ĠremoveCovered":6310,"LIS":6311,"running":6312,"ĠremoveCoveredIntervals":6313,"127":6314,"OL":6315,"mt":6316,"sequences":6317,"Ġ187":6318,"Ġwell":6319,"Ġ'|":6320,"ends":6321,"118":6322,"Ġstrong":6323,"102":6324,"Ġ82":6325,"2019":6326,"Ġ:=":6327,"quent":6328,"Sums":6329,"Ġopposite":6330,"ĠEOFError":6331,"clus":6332,"Ġtests":6333,"Ġmultipl":6334,"iterable":6335,"grains":6336,"finder":6337,"Ġ'/'":6338,"GHI":6339,"(':')":6340,"Found":6341,"OP":6342,"trees":6343,"wel":6344,"èµ":6345,"()}":6346,"Ġ=='":6347,"ĠmaxProduct":6348,"ĠTest":6349,"405":6350,"475":6351,"218":6352,"ãģ¤":6353,"])),":6354,"Ġlead":6355,"Sizes":6356,"ĠUp":6357,"åĪĹ":6358,"åĲĮ":6359,"character":6360,"sengers":6361,"189":6362,"Cy":6363,"EC":6364,"Go":6365,"âł":6366,"Ġ159":6367,"Ġsure":6368,"Ġbalanced":6369,"uni":6370,"Ġaction":6371,"heights":6372,"pool":6373,"ĠTree":6374,"getProduct":6375,"Ġthey":6376,"2011":6377,"4723":6378,"212":6379,"Ġabsolut":6380,"Subfolders":6381,"{})":6382,"Values":6383,"ĠremoveSubfolders":6384,"trib":6385,"Ġ400020000":6386,"Ġinfo":6387,"æīĢ":6388,"åĽŀ":6389,"bability":6390,"atterns":6391,"!')":6392,"#']":6393,"800000000":6394,"Push":6395,"ove":6396,"pump":6397,"ted":6398,"Ġsr":6399,"Ġ'^":6400,"ulations":6401,"adane":6402,"dier":6403,"maxheap":6404,"Ġear":6405,"4159":6406,"ĠrightChild":6407,"trol":6408,"ãĥ«":6409,"Divide":6410,"anguages":6411,"Ġfrontier":6412,"Ġstatistics":6413,"!\".":6414,",*":6415,"Bip":6416,"Graph":6417,"[[":6418,"take":6419,"æĮ":6420,"èĢ":6421,"Ġinsort":6422,"Ġ170":6423,"Ġ10000000":6424,"Ġalex":6425,"Ġ269":6426,"role":6427,"Ġ\"#":6428,"post":6429,"Ġ8000000":6430,"Ġpopped":6431,"Ġ92":6432,"806000":6433,"(\":":6434,"Ġconnections":6435,"tokens":6436,"placed":6437,"Ġallow":6438,"remote":6439,"...\",\".......":6440,"ribut":6441,".......\",\"...":6442,"Ġpassed":6443,"damaged":6444,"components":6445,"multiplication":6446,"éłĤçĤ¹":6447,"PQRST":6448,"ĠwatchedVideos":6449,"157":6450,"UR":6451,"equal":6452,"vator":6453,"wd":6454,"Ġrb":6455,"Ġio":6456,"orst":6457,"Ġreal":6458,"urs":6459,"Ġ193":6460,"Ġmoney":6461,"));":6462,"))[::-":6463,"Ġlot":6464,"Ġseats":6465,"ĠdownSpeed":6466,"],[]":6467,"Ġleader":6468,"ĠmatrixBlockSum":6469,"Ġpuzzles":6470,"è¡Į":6471,"ĠnumberOfSubarrays":6472,"åł´":6473,"Part":6474,"VALID":6475,"mix":6476,"ock":6477,"ç§":6478,"Ġix":6479,"stations":6480,"Ġfalse":6481,"Ġfix":6482,"Ġslices":6483,"Ġball":6484,"Ġ230":6485,"ĠSkiplist":6486,"ulated":6487,"added":6488,"1010":6489,"Ġ62":6490,"175":6491,"494":6492,"4917":6493,"835":6494,"asy":6495,"444":6496,"ĠLe":6497,"ãĤģ":6498,"outer":6499,"textbooks":6500,"ĠĠĠĠĠĠĠĠĠĠĠĠĠĠĠĠĠĠĠĠĠĠĠĠĠĠ":6501,"....\",\".......":6502,"Ġplayers":6503,"Ġ\"-\":":6504,"å®ļ":6505,"Ġpeaks":6506,"Ġentry":6507,"655":6508,"Bound":6509,"FE":6510,"Zag":6511,"cal":6512,"till":6513,"Ġdot":6514,"Ġdup":6515,"Ġ277":6516,"rim":6517,"ĠmaxJumps":6518,"Ġ\"\",":6519,"4311":6520,"8311":6521,"]]==":6522,"ĠfindLeast":6523,"process":6524,"igZag":6525,"usters":6526,"ibilities":6527,"584":6528,"Ġalien":6529,"60080":6530,"Ġitemgetter":6531,"ension":6532,"Edges":6533,"æľĢå°ı":6534,"grees":6535,"UniqueInts":6536,"NumOfUniqueInts":6537,"types":6538,"property":6539,"ĠfindLeastNumOfUniqueInts":6540,"(\",":6541,"OM":6542,"Special":6543,"hq":6544,"ssed":6545,"udent":6546,"vent":6547,"§ĭ":6548,"ä¼":6549,"))/(":6550,"rest":6551,"Ġ216":6552,"Ġhull":6553,"3311":6554,"276":6555,"]]):":6556,"Ġdecreasing":6557,"phrase":6558,"Ġupd":6559,"Ġgoals":6560,"ĠpossibleBip":6561,"Ġ4802000":6562,"ĠInput":6563,".......\",\".......":6564,"ualSafe":6565,"Charact":6566,"ãģ£ãģ¦":6567,"ĠpossibleBipartition":6568,"airs":6569,"dct":6570,"teams":6571,"Ġrm":6572,"Ġfloors":6573,"Ġnv":6574,"Ġdtype":6575,"Ġ'('":6576,"ifier":6577,"Ġholiday":6578,"1024":6579,"ĠcurMax":6580,"602":6581,"verter":6582,"riday":6583,"ĠfindLengthOf":6584,"Ġtemplate":6585,"Ġexact":6586,"ĠsubAns":6587,"outh":6588,"previous":6589,"ĠatMost":6590,"scar":6591,"Ġflg":6592,"beast":6593,"Ġgrains":6594,"Ġinfected":6595,"rolls":6596,"face":6597,"Shortest":6598,"çķª":6599,"855":6600,"OV":6601,"Vowel":6602,"\\.":6603,"dots":6604,"kata":6605,"Ġ148":6606,"Ġ156":6607,"enumerate":6608,"Ġbumps":6609,"Ġbuffer":6610,"Ġbroken":6611,"Ġ239":6612,"114":6613,"Ġgra":6614,"getInheritanceOrder":6615,"ĠĠĠĠĠĠĠĠĠĠĠĠĠĠĠĠčĊ":6616,"Ġpool":6617,"Ġ1020":6618,"ĠMI":6619,"Ġouter":6620,"Ġaltern":6621,"Ġ')':":6622,"bug":6623,"cumsum":6624,"Ġboundary":6625,"islands":6626,"121":6627,"161":6628,"More":6629,"Play":6630,"dna":6631,"è§":6632,"Ġ147":6633,"Ġ151":6634,"Ġ155":6635,"Ġcn":6636,"Ġay":6637,"Ġ'))":6638,"Ġmind":6639,"Ġminus":6640,"695":6641,"415":6642,"ript":6643,"Ġfunctions":6644,"Ġquick":6645,"Nums":6646,"Ġprofits":6647,"Ġdoing":6648,"grat":6649,"å½ĵ":6650,"ualSafeNodes":6651,"Data":6652,"fizz":6653,"ran":6654,"ĠIndex":6655,"des":6656,"Ġ166":6657,"Ġlv":6658,"Ġ'{":6659,"ĠmaxV":6660,"Ġmaxval":6661,"Ġ307":6662,"Ġhal":6663,"Ġ800000000":6664,"504":6665,"]))]":6666,"pointA":6667,"like":6668,"ĠcanCon":6669,"Stamp":6670,"quality":6671,"Distinct":6672,"Ġ'+':":6673,"Ġworks":6674,"\"],[\"..":6675,".....\",\".....":6676,"ç»Ħ":6677,"Ġdescending":6678,"å·¦":6679,"pected":6680,"Test":6681,"dsu":6682,"sect":6683,"Ġlang":6684,"Ġstg":6685,"Ġ563":6686,"2713":6687,"4711":6688,"ãģĿ":6689,"Ġmatches":6690,"############":6691,"ãĥĪ":6692,"Ġworkers":6693,"æľĢå¤§":6694,"aught":6695,"Ġoccur":6696,"bullets":6697,"æ³ķ":6698,"gratulations":6699,"820":6700,":%":6701,"WA":6702,"]|":6703,"sieve":6704,"ton":6705,"ori":6706,"Ġ143":6707,"Ġclear":6708,"itable":6709,"ĠrangeVal":6710,"Ġ211":6711,"..\",\"..":6712,"ĠST":6713,"Ġhad":6714,"5711":6715,"Ġdeepcopy":6716,"emy":6717,"ĠgetProduct":6718,"boolean":6719,"Ġalgorithm":6720,"Ġmydict":6721,"Congratulations":6722,"Ġotherwise":6723,"ternating":6724,"Ġ48020":6725,"\",\".\",\".":6726,"lablab":6727,"Ġopened":6728,"åħĥ":6729,"occur":6730,"rotate":6731,"{:.":6732,"CXC":6733,"Ġdenom":6734,"Pair":6735,"Prefix":6736,"namic":6737,"æ±Ĥ":6738,"UVWXYZ":6739,"129":6740,"Hash":6741,"Line":6742,"OSE":6743,"Rot":6744,"slope":6745,"squared":6746,"inet":6747,"Ġfu":6748,"Ġtv":6749,"Ġlim":6750,"riority":6751,"Ġ317":6752,"Ġhappy":6753,"232":6754,"5020":6755,"Ġtodo":6756,"rown":6757,"dists":6758,"home":6759,"vari":6760,"crossed":6761,"SIBLE":6762,"Ġ'$'":6763,"POSSIBLE":6764,"Cycle":6765,"648":6766,"846":6767,"DFS":6768,"TER":6769,"Util":6770,"pad":6771,"ually":6772,"anc":6773,"cecar":6774,"1011":6775,"aken":6776,"402":6777,"875":6778,"Ġpredict":6779,"615":6780,"ĠsortArray":6781,"258":6782,"155":6783,"866":6784,"4003":6785,"ague":6786,"Ġ480000000":6787,"Ġmaze":6788,"\"],[\"...":6789,"....\",\"......":6790,"ðŁĺīðŁĺīðŁĺīðŁĺīðŁĺīðŁĺīðŁĺīðŁĺīðŁĺīðŁĺīðŁĺīðŁĺīðŁĺīðŁĺīðŁĺīðŁĺī":6791,"ĠeventualSafeNodes":6792,"ĠsubarraysWith":6793,"Ġascending":6794,"JKLM":6795,"NE":6796,"Sched":6797,"Wr":6798,"Window":6799,"skip":6800,"Ġ?":6801,"Ġ[{}":6802,"Ġ263":6803,"ĠminSet":6804,"Ġsepar":6805,"dim":6806,"ĠsumFour":6807,"Ġ600":6808,"4713":6809,"iling":6810,"([\"":6811,"coo":6812,"264":6813,"Ġcomplete":6814,"Ġ240000000":6815,"Ġ10002000":6816,"åıĸ":6817,"ÂłÂłÂł":6818,"Ġdoesn":6819,"Ġnumerator":6820,"employee":6821,"ilarity":6822,"Ġgrowing":6823,"ĠisPossibleDivide":6824,"ĠsumFourDivisors":6825,"Ali":6826,"equ":6827,"çµ":6828,"èĩ":6829,"Ġcm":6830,"Ġform":6831,"Ġmis":6832,"Ġmolar":6833,"..\",\"":6834,"Ġhelp":6835,"ĠcurSum":6836,"minus":6837,"Ġamt":6838,"Ġadv":6839,"Ġlevels":6840,"cloned":6841,"<<(":6842,"Ġscan":6843,"MAT":6844,"ä½ľ":6845,"Keys":6846,"Jumping":6847,"ĠKeyError":6848,"urrent":6849,"rusk":6850,"ShortestSubarray":6851,"riorityQueue":6852,")&":6853,"Circular":6854,"IP":6855,"gy":6856,"molar":6857,"pack":6858,"true":6859,"çİ":6860,"select":6861,"Ġ--":6862,"Ġdomain":6863,"Ġ210":6864,"pose":6865,"Ġgot":6866,"ĠĠĠĠĠĠĠĠĠĠĠĠĠĠĠĠĠĠĠĠĠĠĠĠĠĠĠĠĠĠĠĠĊ":6867,"Ġ777":6868,"1317":6869,"8911":6870,"pest":6871,"Ġinputs":6872,"subs":6873,"paralle":6874,"NOPQRST":6875,"grumpy":6876,"Unknown":6877,"worker":6878,"Ġdestination":6879,"fighter":6880,"æĽ´":6881,"GHIJKLM":6882,"151":6883,"146":6884,"KDistinct":6885,"Rating":6886,"Trees":6887,"dz":6888,"ppl":6889,"aries":6890,"Ġpaper":6891,"Ġ-->":6892,"ators":6893,"Ġ','":6894,")]]":6895,"Ġtheir":6896,"('%":6897,"205":6898,"1311":6899,"80600":6900,"2911":6901,"692":6902,"Ġonce":6903,"matched":6904,"Ġprof":6905,"igzag":6906,"122":6907,"Ġ408000":6908,"184":6909,"Ġdiction":6910,"MMMM":6911,"ĠlongestOnes":6912,"Ġdisplay":6913,"Ġavail":6914,"planation":6915,"Swaps":6916,"minoes":6917,"NOPQRSTUVWXYZ":6918,"([-":6919,"126":6920,"425":6921,"cpu":6922,"dar":6923,"ht":6924,"lstrip":6925,"occ":6926,"Ġide":6927,"Ġchickens":6928,"Ġbasic":6929,"arrLen":6930,"ĠminDiff":6931,"Ġhats":6932,"ĠType":6933,"lok":6934,"Ġnear":6935,"(\"\")":6936,"Ġdenominator":6937,"245":6938,"Ġunite":6939,"376":6940,"Ġ4020000000":6941,"4211":6942,"odds":6943,"tric":6944,"CLOSE":6945,"Ġbills":6946,"Ġfeasible":6947,"________________________________________________________________":6948,"Ġorigin":6949,"Ġequation":6950,"150":6951,"4000000000":6952,"AG":6953,"Blue":6954,"Code":6955,"]{":6956,"both":6957,"emo":6958,"hot":6959,"holder":6960,"ti":6961,"seek":6962,"Ġrez":6963,"Ġcentury":6964,"Ġbuf":6965,"ollower":6966,"])<":6967,"Ġ233":6968,"ĠAB":6969,"4733":6970,"675":6971,"4933":6972,"895":6973,"816":6974,"2411":6975,"ĠDict":6976,"presum":6977,")**(":6978,"äºİ":6979,"Ġ\"-\"":6980,"houses":6981,"Ġeggs":6982,"Ġattack":6983,"æĸĩåŃĹ":6984,"']*":6985,"3600":6986,"700000":6987,"Chef":6988,"Zach":6989,"ZigZag":6990,"bed":6991,"dst":6992,"given":6993,"hy":6994,"nseven":6995,"rna":6996,"ware":6997,"å¿":6998,"Ġtur":6999,"Ġ`.`.`.`.":7000,"seat":7001,"stors":7002,"Ġ160":7003,"Ġpal":7004,"Ġtape":7005,"],[-":7006,"river":7007,"==(":7008,"==[":7009,"diamon":7010,"vet":7011,"1363":7012,"5923":7013,"perimeter":7014,"4009":7015,"ampions":7016,"Ġdisjoint":7017,"Ġperformance":7018,"smaller":7019,"multiples":7020,"Board":7021,"Ġdiagonal":7022,"ĠverticalCuts":7023,"recurse":7024,"ombies":7025,"éĹ´":7026,"cooby":7027,"\"][":7028,"(':'":7029,"445":7030,"Help":7031,"LL":7032,"Make":7033,"cz":7034,"db":7035,"Ġrc":7036,"Ġident":7037,"Ġborder":7038,"Ġbelow":7039,"Ġwere":7040,"Ġ283":7041,"Ġxrange":7042,"Ġ423":7043,"Ġmincost":7044,"992":7045,"1717":7046,"498":7047,"net":7048,"popAtStack":7049,"keyTime":7050,"ĠgetTargetCopy":7051,"iga":7052,"2233":7053,"pointers":7054,"Ġcombos":7055,"doo":7056,"STR":7057,"\"],[\".....":7058,"Ġnbr":7059,"great":7060,"ruskal":7061,"coobydoo":7062,"646":7063,":][::-":7064,"cp":7065,"cubes":7066,"çŁ":7067,"éĻ":7068,"Ġinorder":7069,"deepcopy":7070,"Ġ'>":7071,"uest":7072,"ĠmaxSubarraySum":7073,"Ġvery":7074,"Ġvector":7075,"direct":7076,"272":7077,"4717":7078,"Ġ907":7079,"4911":7080,"2600":7081,"-----":7082,"ideo":7083,"Ġ804000":7084,"dogs":7085,"Ġabout":7086,"è·Ŀ":7087,"ĠhorizontalCuts":7088,"éĸĵ":7089,"ĠfindLengthOfShortestSubarray":7090,"153":7091,"Liga":7092,"Overlapping":7093,"Rey":7094,"Sc":7095,"want":7096,"Ġmay":7097,"))\",":7098,"('+":7099,"476":7100,"6919":7101,"6311":7102,"]]))":7103,"Ġdetermin":7104,"epth":7105,"idxes":7106,"preorder":7107,"4400":7108,"400600":7109,"ĠPlace":7110,"ĠhashMap":7111,"ĠsmallestString":7112,"higher":7113,"Ġracecar":7114,"WithSwaps":7115,"Ġsides":7116,"Rectangle":7117,"candies":7118,"Groups":7119,"Ġ\"*\":":7120,"Ġcroak":7121,"DelRey":7122,"english":7123,"åł´åĲĪ":7124,"GHIJKLMNOPQRSTUVWXYZ":7125,"ĠsmallestStringWithSwaps":7126,".*":7127,":',":7128,"Pow":7129,"WIN":7130,"bark":7131,"dot":7132,"org":7133,"seats":7134,"Ġ')]":7135,"inds":7136,")]+":7137,"('')":7138,"maxval":7139,"478":7140,"236":7141,"Ġdim":7142,"534":7143,"5311":7144,"ãģł":7145,"ĠDi":7146,"868":7147,"control":7148,"['#']":7149,"2003":7150,"Ġtwos":7151,"Union":7152,"Uncrossed":7153,"Ġjumping":7154,"AND":7155,"twenty":7156,"éķ¿":7157,"UncrossedLines":7158,"\"*(":7159,"-%":7160,"Python":7161,"lb":7162,"scoobydoo":7163,"Ġĉĉ":7164,"deg":7165,"Ġng":7166,"Ġnm":7167,"arden":7168,"defined":7169,"Ġant":7170,"Ġ257":7171,"995":7172,"('{}":7173,"292":7174,"595":7175,"ĠleftChild":7176,"412":7177,"246":7178,"2633":7179,"Increment":7180,"distinct":7181,"ĠadjList":7182,"Ġmember":7183,"League":7184,"Ġgreetings":7185,"NonOverlapping":7186,"ampionsLeague":7187,"Master":7188,"guess":7189,"money":7190,"tpos":7191,"Ġfilled":7192,"Ġty":7193,"elsi":7194,"Ġbt":7195,"lendar":7196,"required":7197,"Ġopp":7198,"Ġ313":7199,"ado":7200,"4323":7201,"5911":7202,"Ġconstruct":7203,"Ġpresent":7204,"8123":7205,"ishop":7206,"244":7207,"tran":7208,"265":7209,"268":7210,"2800":7211,"Ġstringify":7212,"dule":7213,"Ġquad":7214,"Ġratings":7215,"mail":7216,"Ġzeroes":7217,"miss":7218,"âĸĪ":7219,"Ġmono":7220,"where":7221,"ByK":7222,"Ġ4008200":7223,"SumOfAverage":7224,"Ġclosed":7225,"Double":7226,"Ġhalving":7227,"ĠsubarraysWithKDistinct":7228,"elsius":7229,"SumOfAverages":7230,"#'":7231,".\",\"..":7232,"NUM":7233,"Six":7234,"This":7235,"ass":7236,"hyp":7237,"Ġinclude":7238,"anish":7239,"Ġfather":7240,"turday":7241,"Ġml":7242,"Ġtriplets":7243,"elist":7244,"Ġ217":7245,"..\",\".":7246,"Ġgc":7247,"maxq":7248,"2029":7249,"minheap":7250,"418":7251,"Ġufind":7252,"ĠMIN":7253,"284":7254,"Ġsubstr":7255,"subtract":7256,"ĠlargestSumOfAverages":7257,"shifts":7258,"swapcase":7259,"Ġbirds":7260,"Ġ400000080":7261,"Ġemployed":7262,"OfFrogs":7263,"ĠComp":7264,"Car":7265,"Hero":7266,"Mult":7267,"Same":7268,"Team":7269,"cmp":7270,"iri":7271,"iens":7272,"west":7273,"Ð°":7274,"çŃ":7275,"Ġlf":7276,"inate":7277,"Ġinside":7278,"Ġff":7279,"Ġ190":7280,"Ġplease":7281,"Ġbuses":7282,"apped":7283,"ĠmaxNonOverlapping":7284,"ĠminSteps":7285,"vect":7286,"2027":7287,"5717":7288,"8711":7289,"4319":7290,"Ġderi":7291,"Ġdeck":7292,"Ġencrypt":7293,"484":7294,"2511":7295,"ĠBalanced":7296,"const":7297,"compute":7298,"ĠageB":7299,"ï¼ļ":7300,"logn":7301,"DivByK":7302,"={'":7303,"Ġwheel":7304,"Ġduplicate":7305,"Ġvariable":7306,"ĠmaxSubarraySumCircular":7307,"')):":7308,".\"\"\"":7309,"As":7310,"Depth":7311,"Eight":7312,"Last":7313,"}.":7314,"¿½":7315,"éĤ":7316,"ï¿½":7317,"Ġ],":7318,"Ġrecover":7319,"Ġ1000000000":7320,"Ġdrop":7321,"Ġ227":7322,"Ġ333":7323,"idy":7324,"ĠminK":7325,"ĠTuple":7326,"996":7327,"6917":7328,"Ġconverter":7329,"518":7330,"ised":7331,"ĠpointB":7332,"Leaf":7333,"ufficient":7334,"suit":7335,"ĠQueue":7336,"Ġ2408400":7337,"Ġinitialize":7338,"Ġoptim":7339,"Ġflipped":7340,"......\",\"......":7341,"ramid":7342,"rotations":7343,"OUSE":7344,"LongestSubstring":7345,"undred":7346,"147":7347,"143":7348,"163":7349,"BER":7350,"OK":7351,"cam":7352,"done":7353,"ker":7354,"nes":7355,"sim":7356,"tape":7357,"uan":7358,"||":7359,"Ġrna":7360,"ĠnCr":7361,"Ġcb":7362,"))**":7363,"alt":7364,"Ġsd":7365,"Ġinterest":7366,"Ġ260":7367,"Ġxn":7368,"metric":7369,"Ġversion":7370,"Ġ367":7371,"4020":7372,"amazon":7373,"8713":7374,"5933":7375,"694":7376,"614":7377,"286":7378,"Rec":7379,"ĠsmallestDivisor":7380,"writable":7381,"LIV":7382,"buy":7383,"versions":7384,"birds":7385,"flowers":7386,"Ġhotpo":7387,"(\".\")":7388,"çĲĨ":7389,"RCV":7390,"ZE":7391,"bt":7392,"bill":7393,"lcs":7394,"è¨":7395,"éĥ½":7396,"ster":7397,"Ġrearrange":7398,"Ġtb":7399,"elcome":7400,"Ġ290":7401,"ĠmaxUncrossedLines":7402,"Ġ470":7403,"ĠminT":7404,"6733":7405,"4313":7406,"636":7407,"Ġconn":7408,"Ġconsider":7409,"Ġunlucky":7410,"2299":7411,"formation":7412,"Ġmylist":7413,"ĠEdge":7414,"Ġneeds":7415,"Ġ80046":7416,"...\",\"........":7417,"Ġ2004800":7418,"........\",\"...":7419,"Ġargum":7420,"Ġbouq":7421,"Ġcursor":7422,"141":7423,"1000000000":7424,"gunners":7425,"night":7426,"Ġrst":7427,"gex":7428,"Ġ293":7429,"ĠSo":7430,"Ġmaxy":7431,"uling":7432,"998":7433,"Ġcoef":7434,"6020":7435,"432":7436,"ilson":7437,"5317":7438,"Ġ102000":7439,"cogn":7440,"Ġboarded":7441,"ept":7442,"ĠCreate":7443,"2533":7444,"ĠII":7445,"create":7446,"ifying":7447,"ĠpeopleIndexes":7448,"ĠshortestSubarray":7449,"much":7450,"blocked":7451,"ONG":7452,"event":7453,"}:{":7454,"Ġwhether":7455,"Ġefficiency":7456,"ç¬¬":7457,"Ġalternate":7458,"ĠIndexError":7459,"181":7460,"367":7461,"620":7462,"Cro":7463,"CON":7464,"Mins":7465,"UG":7466,"mag":7467,"pin":7468,"ws":7469,"çĦ":7470,"Ġ$":7471,"Ġ177":7472,"Ġnt":7473,"Ġmouth":7474,"Ġtar":7475,"Ġbd":7476,"Ġmaxl":7477,"((\"":7478,"605":7479,"Ġ979":7480,"1911":7481,"1957":7482,"5913":7483,"6911":7484,"6313":7485,"....\",\"":7486,"Ġunder":7487,"8611":7488,"222":7489,"...\",\"":7490,"ãĤ¤":7491,"NoOverlap":7492,"chemes":7493,"Ġstatement":7494,".....\",\".":7495,"ĠmaxSumTwo":7496,"Ġtriple":7497,"......\",\".......":7498,"Ġplus":7499,".......\",\"......":7500,"ĠExample":7501,"rible":7502,"Ġtermin":7503,"è¦ģç´ł":7504,"triangular":7505,"âĸĳâĸĳâĸĳâĸĳ":7506,"trips":7507,".\",\".....":7508,"WAIT":7509,"ĠmaxSumTwoNoOverlap":7510,"'+'":7511,"317":7512,"fct":7513,"give":7514,"nine":7515,"tx":7516,"å§ĭ":7517,"é¢":7518,"Ġids":7519,"Ġcircle":7520,"ense":7521,"Ġtem":7522,"rets":7523,"Ġ324":7524,"Ġser":7525,"Ġeither":7526,"upSpeed":7527,"4913":7528,"635":7529,"Ġconf":7530,"2133":7531,"4811":7532,"4487":7533,"864":7534,"Ġmaps":7535,"Ġparity":7536,"Ste":7537,"Ġwithin":7538,"Ġpermutation":7539,"Ġscramble":7540,"Ġdrink":7541,"Ġfighter":7542,"leaders":7543,"between":7544,".\",\"...":7545,"167":7546,"Fire":7547,"Pub":7548,"family":7549,"uer":7550,"å¼":7551,"Ġ183":7552,"alware":7553,"Ġdv":7554,"Ġ[*":7555,"Ġ229":7556,"Ġ241":7557,"ric":7558,"Ġ311":7559,"ĠminVal":7560,"ĠminIncrement":7561,"1933":7562,"4957":7563,"nec":7564,"6133":7565,"...\",\".":7566,"Ġquantity":7567,"å¯¹":7568,"LIST":7569,"ĠjobSched":7570,"hickness":7571,"ForUnique":7572,"Ġfruits":7573,"è¿Ļä¸ª":7574,"anchor":7575,"Result":7576,"ABCDEFGHIJKLMNOPQRSTUVWXYZ":7577,"ĠminSetSize":7578,"Publish":7579,"ĠminIncrementForUnique":7580,"ĠjobScheduling":7581,"90000":7582,"carry":7583,"hull":7584,"languages":7585,"satisfied":7586,"tp":7587,"Ġrand":7588,"repr":7589,"Ġdefine":7590,"ĠmaxLevel":7591,"Ġminn":7592,"ĠAt":7593,"Ġcoeff":7594,"Ġ739":7595,"4033":7596,"274":7597,"Ġnet":7598,"6913":7599,"Ġonleft":7600,"Ġthose":7601,"86000":7602,"ĠageA":7603,"Ġwaitlist":7604,"ĠprefixSum":7605,"ï¼ī":7606,"INVALID":7607,"ĠHero":7608,"Ġ48027":7609,"Ġgrp":7610,"Ġtakes":7611,"Spread":7612,"Ġ200000040":7613,"hnny":7614,"Ġbalance":7615,"litre":7616,"clusive":7617,"âłĢ":7618,"311":7619,"525":7620,"overlap":7621,"women":7622,"éĿ":7623,"Ġith":7624,"):#":7625,"dep":7626,"Ġnam":7627,"Ġsale":7628,"Ġta":7629,"removed":7630,"Ġass":7631,"Ġ223":7632,"ĠmaxWidth":7633,"Ġcoefficient":7634,"4753":7635,"1711":7636,"2933":7637,"596":7638,"resses":7639,"respon":7640,"4123":7641,"Ġitr":7642,"814":7643,"266":7644,"ĠDe":7645,"1200":7646,"Ġdicts":7647,"OfC":7648,"Ġ8040000000":7649,"Ġcompar":7650,"lastPlayer":7651,"alex":7652,"bucket":7653,"\"],[\"......":7654,"Similarity":7655,"Ġrecursion":7656,"éĩį":7657,"è¡¨":7658,"Ġsuccess":7659,"duplicate":7660,"éĤ£":7661,"+-":7662,"586":7663,"Hard":7664,"LR":7665,"Mountain":7666,"ticket":7667,"æĢ":7668,"è¶":7669,"informTime":7670,"urv":7671,"ennec":7672,"Ġsig":7673,"unday":7674,"romo":7675,"],\"":7676,"ulus":7677,"Ġ429":7678,"Ġ583":7679,"2317":7680,"]]-":7681,"508":7682,"ĠCh":7683,"ances":7684,"2587":7685,"156":7686,"anks":7687,"Ġhive":7688,"Ġquote":7689,"Ġsmell":7690,"Ġ4008000":7691,"ï¼Ī":7692,"useum":7693,"Under":7694,"è¿ĩ":7695,"others":7696,"Ġplays":7697,"Ġplaced":7698,"Substrings":7699,"ãģªãĤĭ":7700,"segment":7701,"choice":7702,"ssignment":7703,"æī¾":7704,"options":7705,"ĠSegment":7706,"545":7707,"rm":7708,"speak":7709,"zA":7710,"Ġindx":7711,"Ġ153":7712,"Ġtidy":7713,"ister":7714,"Ġlps":7715,"Ġstage":7716,"mplement":7717,"Ġ\"!\"":7718,"inputs":7719,"isinstance":7720,"Ġminx":7721,"ĠminDe":7722,"Ġarrows":7723,"extra":7724,"2717":7725,"6711":7726,"434":7727,"verb":7728,"Ġchk":7729,"2687":7730,"4600":7731,"ĠlastPlayer":7732,"\",\"......":7733,"ãĥª":7734,"transaction":7735,"playback":7736,"......\",\"":7737,"BitFlips":7738,"Ġface":7739,"........\",\"..":7740,"..\",\"........":7741,"Ancestor":7742,"Characters":7743,"ĠPlaceholder":7744,"ĠminTaps":7745,"romosome":7746,"'^":7747,"082":7748,"520":7749,"Dup":7750,"Decimal":7751,"Ear":7752,"Esc":7753,"SY":7754,"VIS":7755,"bd":7756,"ech":7757,"http":7758,"ient":7759,"ians":7760,"orator":7761,"Ġrequire":7762,"Ġ146":7763,"Ġ145":7764,"Ġten":7765,"Ġlp":7766,"unction":7767,"])>=":7768,"Ġ'*(":7769,"Ġcounted":7770,"ĠcountCharacters":7771,"ĠĠĠĠĠĠĠĠĠĠĠĠĠĠĠĠĠĠĊ":7772,"Ġqq":7773,"4751":7774,"Ġislice":7775,"2923":7776,"2917":7777,"436":7778,"898":7779,"2467":7780,"152":7781,"ä¸¤":7782,"cret":7783,"ãĥ©":7784,"Ġ>>>":7785,"Ġturns":7786,"Ġtricks":7787,"Ġapproach":7788,"Ġ60000080":7789,"Ġbigger":7790,"Ġdiffs":7791,"armies":7792,"diamonds":7793,"ĠminKBitFlips":7794,"Cap":7795,"gress":7796,"mer":7797,"nons":7798,"rjust":7799,"sample":7800,"taken":7801,"vn":7802,"yi":7803,"Ġindegree":7804,"Ġcust":7805,"Ġppppppppppppppppp":7806,")))))":7807,"Ġbseven":7808,"Ġaseven":7809,"hiver":7810,"ĠĠĠĠĠĠĠĠĠĠĠĠĠĠĠĠĠĠĠĠĠĠĠĠĠ":7811,"9911":7812,"Ġ[];":7813,"2099":7814,"2759":7815,"2313":7816,"ameter":7817,"1939":7818,"ubiod":7819,"8317":7820,"Ġtoken":7821,"0000060":7822,"ĠstartFuel":7823,"242":7824,"ĠgetF":7825,"ders":7826,"166":7827,"Ġlastc":7828,"ĠreverseWords":7829,"ĠOutput":7830,"compose":7831,"orderDouble":7832,"Requests":7833,"Sequence":7834,"Ġrepeater":7835,"attle":7836,"Predecessor":7837,"åºı":7838,"Ġbasket":7839,"Ġtimbers":7840,"ĠSortedList":7841,"ĠcanReorderDouble":7842,"Wrong":7843,"ĠcanReorderDoubled":7844,"?\"":7845,"Volume":7846,"_/":7847,"bach":7848,"bask":7849,"buses":7850,"dal":7851,"large":7852,"mad":7853,"symbol":7854,"vf":7855,"Ã³":7856,"Ġiss":7857,"Ġ181":7858,"Ġ[\\\"":7859,"rouble":7860,"Ġkadane":7861,"ords":7862,"ĠminSum":7863,"2357":7864,"5713":7865,"5313":7866,"ĠgetTweetCountsPerFrequency":7867,"26000":7868,"ĠDAL":7869,"Dire":7870,"MaxSum":7871,"ĠprimeFactors":7872,"Ġinstead":7873,"function":7874,"contain":7875,"contains":7876,"Ġelevator":7877,"ä½¿":7878,"Ġsliding":7879,"################################################################":7880,"PowerOf":7881,"MATIONS":7882,"ĠDALMATIONS":7883,"']]":7884,"(*(":7885,"546":7886,"BIT":7887,"^{":7888,"dish":7889,"dry":7890,"âĻ":7891,"alarm":7892,"Ġsun":7893,"uty":7894,"unc":7895,"])/(":7896,"()[:-":7897,"ĠĠĠĠĠĠĠĠĠĠĠĠĠĠĠĠĠĠĠĊ":7898,"ĠnumTimes":7899,"diers":7900,"335":7901,"4799":7902,"572":7903,"4919":7904,"4959":7905,"2913":7906,"ubles":7907,"505":7908,"2143":7909,"ãģ°":7910,"254":7911,"Ġidxs":7912,"ãĤ¯":7913,"ĠPriorityQueue":7914,"datetime":7915,"ieces":7916,"Ġhandful":7917,"Ġcyc":7918,"Ġncr":7919,"ĠrecordTweet":7920,"Arrange":7921,"waitlist":7922,"Ġjoin":7923,"Factor":7924,"Ġsegments":7925,"CXL":7926,"Fibonacci":7927,"Ġexisting":7928,"GHT":7929,"Woah":7930,"Hardly":7931,".\".":7932,"/=":7933,"323":7934,"760":7935,"Echo":7936,"Ga":7937,"Round":7938,"broken":7939,"fri":7940,"you":7941,"æĻ":7942,"inde":7943,"Ġchef":7944,"Ġpot":7945,"Ġslope":7946,"Ġtu":7947,"Ġduration":7948,"Ġworst":7949,"Ġ280":7950,"Ġ251":7951,"Ġ281":7952,"ĠcountVowel":7953,"1013":7954,"Ġthese":7955,"Ġcopa":7956,"Ġ720":7957,"4069":7958,"4719":7959,"6719":7960,"8719":7961,"6323":7962,"2141":7963,"ĠnewValue":7964,"token":7965,"Ġsubsequence":7966,"Ġ2016":7967,"ODY":7968,"substr":7969,"Too":7970,"iew":7971,"ickets":7972,"distances":7973,"ĠmovesTo":7974,"ĠUnionFindSet":7975,"Ġrecords":7976,"caten":7977,"Bitwise":7978,"Sorted":7979,"AfterFlips":7980,"Monotonic":7981,"Ġadjacency":7982,"ratic":7983,"Ġexplore":7984,",,,,":7985,"RowsAfterFlips":7986,"Ġchess":7987,"RIMES":7988,"ĠcountVowelPermutation":7989,":]]":7990,"Ban":7991,"Five":7992,"Impossible":7993,"Loc":7994,"UL":7995,"close":7996,"sal":7997,"wide":7998,"éľ":7999,"Ġsong":8000,"util":8001,"attr":8002,"allo":8003,"8011":8004,"4327":8005,"ilt":8006,"894":8007,"8917":8008,"214":8009,"Ġboys":8010,"618":8011,"ĠMOUSE":8012,"matians":8013,"2617":8014,"Subrectangle":8015,"Ġflags":8016,"Chars":8017,"Ġ704000":8018,"Ġshorten":8019,"Ġ20041":8020,"åĲĳ":8021,"å¤ļ":8022,"Ġ\",\"":8023,"backtrack":8024,".......\",\"........":8025,"Ġinterpre":8026,"........\",\".......":8027,"Ġppg":8028,"Ġerror":8029,"Ġpercent":8030,"Ġanimals":8031,"minimums":8032,"åĮº":8033,"ĠmaxEqualRowsAfterFlips":8034,"hotdogs":8035,"OfCubiod":8036,"dalmatians":8037,"éľĢ":8038,"'(":8039,"159":8040,"124":8041,"327":8042,"313":8043,"373":8044,"365":8045,"GB":8046,"df":8047,"rl":8048,"udge":8049,"wilson":8050,"increment":8051,"Ġinverse":8052,"see":8053,"Ġrecogn":8054,"ellent":8055,"Ġlc":8056,"Ġstream":8057,"ĠnumComponents":8058,"Ġ\"{":8059,"Ġminv":8060,"Ġhs":8061,"Ġhistory":8062,"maxLen":8063,"4040":8064,"4013":8065,"238":8066,"2311":8067,"4939":8068,"5323":8069,"ubs":8070,"Ġdecrease":8071,"4127":8072,"Ġbooks":8073,"wordlist":8074,"ards":8075,"Ġtemperature":8076,"2699":8077,"ipy":8078,"4611":8079,"4511":8080,"ĠLC":8081,"ĠLuck":8082,"555":8083,"ĠIter":8084,":])]":8085,"Ġrecent":8086,"shortest":8087,"Ġscipy":8088,"Ġ800040000":8089,"1100110100110010110100101100110100110010110011010010110100110010":8090,"110011010011001011010010110011010010110100110010":8091,"Splits":8092,"uesday":8093,"employed":8094,"single":8095,"Ġselected":8096,"tesIO":8097,"wanted":8098,"VISA":8099,"ĠcopaDelRey":8100,"éľĢè¦ģ":8101,"&(":8102,"Automorphic":8103,"BO":8104,"First":8105,"Flood":8106,"MI":8107,"Par":8108,"Sol":8109,"SoFar":8110,"Tri":8111,"below":8112,"epest":8113,"tem":8114,"vat":8115,"wars":8116,"æ²":8117,"Ġini":8118,"Ġremo":8119,"Ġrent":8120,"deq":8121,"Ġnl":8122,"ond":8123,"Ġmet":8124,"Ġdf":8125,"Ġdid":8126,"Ġdoll":8127,"reated":8128,"Ġ2000000000":8129,"ednes":8130,"ĠmaxA":8131,"Ġmaxim":8132,"Ġmaxprofit":8133,"Ġ330":8134,"Ġminy":8135,"!='":8136,"':(":8137,"0006":8138,"ĠsumSubarray":8139,"mos":8140,"2017":8141,"2073":8142,"Ġordered":8143,"4773":8144,"6713":8145,"4900":8146,"4923":8147,"4357":8148,"Ġcolour":8149,"8913":8150,"Ġconv":8151,"Ġonright":8152,"ĠDecimal":8153,"2887":8154,"4513":8155,"442":8156,"Ġexcluding":8157,"375":8158,"rench":8159,"1109":8160,"5413":8161,"beads":8162,"Paths":8163,"Boats":8164,"Ġ80000060":8165,"Ġ12064":8166,"tails":8167,"Ġbird":8168,"ĠAsT":8169,"greetings":8170,"Ġlayer":8171,"Playing":8172,"homepage":8173,"VolumeOfCubiod":8174,"ĠsumSubarrayMins":8175,"*'":8176,"187":8177,"186":8178,"650":8179,":\\\",":8180,"Friday":8181,"Normal":8182,"PS":8183,"lp":8184,"pj":8185,"uous":8186,"æĦ":8187,"invalid":8188,"Ġcipher":8189,"Ġpat":8190,"Ġlenght":8191,"Ġobs":8192,"Ġmaxsum":8193,"Ġ383":8194,"Ġ433":8195,"1039":8196,"Ġsell":8197,"aystack":8198,"4931":8199,"2927":8200,"5319":8201,"cury":8202,"nested":8203,"4157":8204,"2153":8205,"eps":8206,"2811":8207,"4699":8208,"4411":8209,"2217":8210,"Ġhis":8211,"182":8212,"ODO":8213,"5813":8214,"ĠlongestSubsequence":8215,"Probability":8216,"Ġ['']":8217,"disj":8218,"ava":8219,"Ġmade":8220,"ĠsubarrayBitwise":8221,"rotation":8222,"è®°":8223,"paying":8224,"ursday":8225,"ĠTypeError":8226,"ï¿½ï¿½":8227,"110011010011001011010010110011010010110100110010110100101100110100110010110011010010110100110010":8228,"ednesday":8229,"ĠsubarrayBitwiseOR":8230,"'([":8231,"320":8232,"343":8233,"524":8234,"NT":8235,"Sunday":8236,"TA":8237,"cb":8238,"closest":8239,"nl":8240,"oi":8241,"Ġnoun":8242,"Ġmut":8243,"Ġmapper":8244,"Ġshe":8245,"Ġws":8246,"ĠmaxTur":8247,"Ġki":8248,"plant":8249,"ido":8250,"ĠNo":8251,"9937":8252,"4729":8253,"6933":8254,"8933":8255,"....\",\"..":8256,"Ġdet":8257,"letion":8258,"2123":8259,"ĠfindRoot":8260,"ĠchampionsLeague":8261,"ĠCAT":8262,"2611":8263,"2663":8264,"454":8265,"Ġexample":8266,"2200":8267,"2007":8268,"Ġmovie":8269,"ĠHQ":8270,"ãĥ³":8271,"åĪĿ":8272,"Note":8273,"Ġexpand":8274,"DistanceValue":8275,"soln":8276,"ĠpopAtStack":8277,"green":8278,"NumbersSum":8279,"Division":8280,"AllBlue":8281,"Ġcommands":8282,"éĩĮ":8283,"Ġ600058":8284,"Ġfollowing":8285,"ĠNOB":8286,"Ġbaskets":8287,"Johnny":8288,"Ġ\"/\":":8289,"AncestorDiff":8290,"ĠnumTimesAllBlue":8291,"183":8292,":]+":8293,"Keep":8294,"RO":8295,"Sufficient":8296,"]&":8297,"]\\":8298,"]\",":8299,"cities":8300,"rol":8301,"uate":8302,"vi":8303,"ÅĤ":8304,"Ð¸":8305,"Ñģ":8306,"Ġrp":8307,"seed":8308,"Ġfro":8309,"Ġnseven":8310,"gener":8311,"Ġpd":8312,"Ġpad":8313,"Ġson":8314,"reached":8315,"])//":8316,"ĠmaxD":8317,"Ġ348":8318,"ckroach":8319,"Ġarrays":8320,"Ġhh":8321,"1079":8322,"ĠĠĠĠĠĠĠĠĠĠĠĠĠĠĠĠĠĠĠĠĠĠĠĠĠĠĠĠĠĠĠĠĠĠĠĠĠĠĠ":8323,"dious":8324,"Ġ870":8325,"maxs":8326,"extrap":8327,"2033":8328,"2093":8329,"474":8330,"802":8331,"Ġnever":8332,"6319":8333,"502":8334,"4129":8335,"2189":8336,"Ġboss":8337,"5133":8338,")+\"\\":8339,"2417":8340,"Ġyourself":8341,"igator":8342,"Ġ&=":8343,"ĠpointC":8344,"Prob":8345,")**.":8346,"ĠsmallestSufficient":8347,"soint":8348,"ION":8349,"Ġfaces":8350,"ĠfindTheLongestSubstring":8351,"ĠfindTheDistanceValue":8352,"Monday":8353,"ĠconsecutiveNumbersSum":8354,"Ġgener":8355,"planet":8356,"âĢ¦":8357,"ĠUpdate":8358,"Mastercard":8359,"ĠsmallestSufficientTeam":8360,"886":8361,"Best":8362,"Barcodes":8363,"Seven":8364,"VEN":8365,"french":8366,"km":8367,"olf":8368,"ÑĢ":8369,"Ġrps":8370,"Ġradi":8371,"])%(":8372,"ĠnumFriend":8373,"Ġ390":8374,"Ġ416":8375,"Ġyet":8376,"ĠcountA":8377,"arts":8378,"vec":8379,"lista":8380,"9917":8381,"Ġ787":8382,"Ġ900":8383,"Ġ970":8384,"1967":8385,"532":8386,"]]-=":8387,"5161":8388,"eta":8389,"ĠnextL":8390,"ĠLo":8391,"Ġinds":8392,"Ġcalculator":8393,"Ġfraction":8394,"Ġneighbours":8395,"Ġsolved":8396,"ĠmaxSumDiv":8397,"hoo":8398,"]}{":8399,"YouPlaying":8400,"Ġmonkey":8401,"è¿Ķ":8402,"åħ¨":8403,"åħĪ":8404,"Ġapple":8405,"Ġactive":8406,"events":8407,"Ġrectangles":8408,"Ġimpressed":8409,"ãĤĮãĤĭ":8410,"Ġgeese":8411,"Ġevaporator":8412,"origin":8413,"ãģĤãĤĭ":8414,"vector":8415,"Earth":8416,"Banjo":8417,"ĠnumFriendRequests":8418,"ĠmaxSumDivThree":8419,"YouPlayingBanjo":8420,"588":8421,"DS":8422,"MP":8423,"Mid":8424,"Nine":8425,"Shiver":8426,"Will":8427,"hind":8428,"ka":8429,"ping":8430,"vil":8431,"Äħ":8432,"ÄĻ":8433,"ÅĽ":8434,"ÑĤ":8435,"orange":8436,"Ġmango":8437,"Ġ'[":8438,"las":8439,"Ġod":8440,"Ġcounting":8441,"Ġhoney":8442,"vebox":8443,"Ġ593":8444,"4090":8445,"4739":8446,"amination":8447,"upiter":8448,"ĠisMonotonic":8449,"5917":8450,"5153":8451,"matter":8452,"2413":8453,"ĠDead":8454,"164":8455,"000000000000":8456,"5511":8457,"Ġsubord":8458,"2009":8459,"Pool":8460,"ĠYork":8461,"combination":8462,"=''.":8463,"Ġwhite":8464,"cluster":8465,"æľ¨":8466,"Ġ','.":8467,"ĉĉĉĉĉĉ":8468,"Primes":8469,"boundary":8470,"zech":8471,"Ġgreatest":8472,"Ġ4008000000":8473,"Ġglovebox":8474,"å¾Ĺ":8475,"recordTweet":8476,"ä¹Ī":8477,"Ġapolog":8478,"æŃ¥":8479,"author":8480,"Ġabsolutely":8481,"SpecialInteger":8482,"Ġupdated":8483,"Ġadvanced":8484,"STRONG":8485,"Ġderive":8486,"ĠNOBODY":8487,"Ġhoneycomb":8488,"ĠYorkie":8489,"Ġapologize":8490,"#\",":8491,"856":8492,">-":8493,"MCD":8494,"Price":8495,"Ro":8496,"Super":8497,"Tuesday":8498,"Ven":8499,"Vel":8500,"Well":8501,"fro":8502,"sperm":8503,"Äĩ":8504,"Åº":8505,"Å¼":8506,"ÅĦ":8507,"Ġ=[":8508,"Ġcam":8509,"ercury":8510,"Ġ'{:":8511,"Ġ266":8512,"ĠkSimilarity":8513,"Ġ327":8514,"poor":8515,"Ġgu":8516,"leftChild":8517,"Ġ579":8518,"eso":8519,"4727":8520,"4759":8521,"4777":8522,"ĠisDigit":8523,"492":8524,"874":8525,"698":8526,"active":8527,"Ġfindall":8528,"ĠfindSpecialInteger":8529,"24000":8530,"Ġlock":8531,"ĠBe":8532,"ĠBASE":8533,"!!!\"":8534,"ĠcanArrange":8535,"Ġadding":8536,"checker":8537,"Ġ')'":8538,"åĪĻ":8539,"There":8540,"Ġmass":8541,"Into":8542,"Ġ27048":8543,"Ġerase":8544,"ymbols":8545,"Ġhotter":8546,"Ð¾Ð":8547,"ription":8548,"ranus":8549,"Ġquadratic":8550,"eptune":8551,"ĠgetFolder":8552,"Ġrecognised":8553,"656":8554,"CE":8555,"FIN":8556,"Mercury":8557,"Woo":8558,"Wednesday":8559,"breed":8560,"czech":8561,"fast":8562,"nish":8563,"pizza":8564,"votes":8565,"zen":8566,"å¹":8567,"legs":8568,"Ġcitations":8569,"geese":8570,"ener":8571,"Ġduty":8572,"lence":8573,"Ġ():":8574,"Ġ267":8575,"Ġ279":8576,"ueBoats":8577,"ĠmaxCount":8578,"Ġ373":8579,"numNeighbors":8580,"Ġyes":8581,"112":8582,"1117":8583,"Ġgree":8584,"ĠminNumber":8585,"getTweetCountsPerFrequency":8586,"9919":8587,"Ġ673":8588,"amy":8589,"4317":8590,"4321":8591,"5919":8592,"8923":8593,"covered":8594,"5123":8595,"imme":8596,"Ġpaint":8597,"2549":8598,"452":8599,"Ġstringy":8600,"564":8601,"],[\\\"":8602,"ĠUse":8603,"ĠWelcome":8604,"]!=\"":8605,"Ġ\\\"\\\".":8606,"Thursday":8607,"bulence":8608,"aeiouAEIOU":8609,"ĠnumResc":8610,"OUT":8611,"german":8612,"Saturday":8613,"Ġeaten":8614,"SubsetSum":8615,"exists":8616,"madness":8617,"ĠsubarrayBitwiseORs":8618,"ĠgetFolderNames":8619,"Woohoo":8620,"ĠnumRescueBoats":8621,"787":8622,"Ben":8623,"Jupiter":8624,"Lau":8625,"Mars":8626,"MCM":8627,"Neptune":8628,"Tere":8629,"Uranus":8630,"Vite":8631,"Wit":8632,"Years":8633,"fc":8634,"gas":8635,"jte":8636,"lith":8637,"rapper":8638,"site":8639,"vian":8640,"èĬ":8641,"Ġnq":8642,"erences":8643,"gekom":8644,"onian":8645,"Ġppl":8646,"Ġtx":8647,"utch":8648,"Ġautomorphic":8649,"Ġxroot":8650,"edish":8651,"ĠmaxValue":8652,"ĠmaxAncestorDiff":8653,"Ġ329":8654,"Ġ397":8655,"ceed":8656,"idits":8657,"ĠminPush":8658,"Ġ577":8659,"2059":8660,"2039":8661,"4047":8662,"4747":8663,"amas":8664,"6123":8665,"2400000":8666,"Ġmeet":8667,"estonian":8668,"venuto":8669,"lemish":8670,"lemast":8671,"1511":8672,"4483":8673,"2227":8674,"2223":8675,"newlines":8676,"Ġtrain":8677,"Valkommen":8678,"MMCD":8679,"MMCM":8680,"ĠlongestZigZag":8681,"hisky":8682,"divs":8683,"ĉĉĉĊ":8684,"ĠbinarySearch":8685,"disjoint":8686,"bese":8687,"MMMCD":8688,"MMMCM":8689,"italian":8690,"greater":8691,"komst":8692,"finnish":8693,"kiamas":8694,"Welkom":8695,"Welgekom":8696,"uloa":8697,"è¾¹":8698,"Ġqualifying":8699,"latvian":8700,"Ġemployee":8701,"âĸĴâĸĴâĸĴâĸĴ":8702,"Saturn":8703,"Turn":8704,"ĠStrong":8705,"ĠavoidFlood":8706,"friends":8707,"Bienvenue":8708,"Bienvenido":8709,"AMEX":8710,"freud":8711,"Duplicate":8712,"Tervet":8713,"RankUp":8714,"welsh":8715,"uanian":8716,"Croeso":8717,"ĠtidyNumber":8718,"SYN":8719,"Gaidits":8720,"Ġtulemast":8721,"ĠmaxTurbulence":8722,"Willkommen":8723,"Venus":8724,"Velkomst":8725,"Benvenuto":8726,"Laukiamas":8727,"Vitejte":8728,"Witamy":8729,"lithuanian":8730,"ĠminPushBox":8731,"Welgekomen":8732,"Tervetuloa":8733,"ĠmaxTurbulenceSize":8734,",_":8735,"145":8736,"733":8737,"858":8738,"Am":8739,"Match":8740,"Pil":8741,"bad":8742,"flemish":8743,"zing":8744,"Ġ!!!!":8745,"Ġsom":8746,"Ġactions":8747,"Ġ'!'":8748,"rods":8749,"mple":8750,"edy":8751,"ĠSet":8752,"Ġ443":8753,"ential":8754,"105":8755,"1093":8756,"ves":8757,"9913":8758,"4011":8759,"4073":8760,"6073":8761,"5719":8762,"6727":8763,"5977":8764,"6373":8765,"5011":8766,"2657":8767,"Ġmatched":8768,"2287":8769,"SubPath":8770,"lide":8771,"Ġcombs":8772,"8007":8773,"pades":8774,"Ġcompile":8775,"Ġdisarium":8776,"Ġrounds":8777,"Ġperiod":8778,"sonants":8779,"('-')":8780,"hoj":8781,"æķ°ç»Ħ":8782,"Ġoptimal":8783,"sides":8784,"`.`.`.`.`.`.`.`.":8785,"Disarium":8786,"Failte":8787,"udents":8788,"irish":8789,"Underweight":8790,"ĠmovesToStamp":8791,"æĦı":8792,"\"])":8793,"08":8794,"399":8795,"900000":8796,"IG":8797,"Output":8798,"Obese":8799,"Roman":8800,"^^":8801,"cies":8802,"ees":8803,"follow":8804,"hit":8805,"rp":8806,"tol":8807,"tim":8808,"trouble":8809,"vo":8810,"}\")":8811,"åģ":8812,"éĥ":8813,"Ġ168":8814,"Ġshield":8815,"Ġdating":8816,"undefined":8817,"Ġmaxv":8818,"Ġ316":8819,"iform":8820,"cestors":8821,"Ġgimme":8822,"strpt":8823,"Ġ%(":8824,"4700":8825,"8069":8826,"5327":8827,"()))[:":8828,"5089":8829,"4147":8830,"552":8831,"884":8832,"Ġsubstrings":8833,"Ġ408060":8834,"Poss":8835,"Ġmyascii":8836,"Ġmembers":8837,"sche":8838,"Ġ2004000000":8839,"grp":8840,"Ġaccu":8841,"Ġ48000000":8842,"Ġcandy":8843,"äºĮ":8844,"ĠstoneGameII":8845,"Ġlonger":8846,"FFFF":8847,"issuer":8848,"amilies":8849,"Ġduplicates":8850,"missions":8851,"ĠrearrangeBarcodes":8852,"éĿ¢":8853,"ĠminDeletion":8854,"strptime":8855,"ĠminDeletionSize":8856,"+':":8857,"Afri":8858,"fif":8859,"hh":8860,"lv":8861,"pqrst":8862,"spades":8863,"tb":8864,"uft":8865,"uler":8866,"ç¤":8867,"Ġrhs":8868,"star":8869,"Ġnu":8870,"Ġpiece":8871,"request":8872,"requests":8873,"()==":8874,"hearts":8875,"roy":8876,"Ġkind":8877,"Ġ487":8878,"ished":8879,"__(\"":8880,"Ġcursum":8881,"Ġ709":8882,"132":8883,"134":8884,"5733":8885,"6739":8886,"6737":8887,"1917":8888,"4927":8889,"5343":8890,"6317":8891,"6329":8892,"8323":8893,"(\"[":8894,"4143":8895,"]+(":8896,"2443":8897,"2613":8898,"Ġnexts":8899,"458":8900,"Ġexec":8901,"Ġexpected":8902,"5533":8903,"Ġchecking":8904,"SubArray":8905,"5211":8906,"546091":8907,"ciao":8908,"clubs":8909,"cmd":8910,"aeiouy":8911,"mergeSort":8912,"Ġwhole":8913,"Discover":8914,"Ġrule":8915,"Ġfreezing":8916,"ãģ¾ãģ§":8917,"Ġsymmetric":8918,"609344":8919,"Overweight":8920,"Ġleaderboard":8921,"æĽ´æĸ°":8922,"zenset":8923,"éĥ¨":8924,"54609188":8925,"/\\\"":8926,"379":8927,"316":8928,"?\\":8929,"DE":8930,"Dee":8931,"grim":8932,"thirt":8933,"inbach":8934,"Ġfur":8935,"Ġ169":8936,"Ġ161":8937,"Ġplate":8938,"alien":8939,"ounded":8940,"Ġ323":8941,"Ġ357":8942,"Ġ337":8943,"ulouse":8944,"Ġ417":8945,"Ġ467":8946,"Ġhr":8947,"alligator":8948,"ĠTuft":8949,"Ġnote":8950,"Ġ509":8951,"Ġ877":8952,"Ġ790":8953,"6013":8954,"1923":8955,"5033":8956,"4199":8957,"ushed":8958,"Ġchromosome":8959,"Ġcontamination":8960,"Ġpage":8961,"2589":8962,"5613":8963,"585":8964,"Ġcombin":8965,":])))":8966,"6811":8967,"parity":8968,"Toulouse":8969,"ĠupSpeed":8970,"clues":8971,"(\\\":":8972,"Ġflush":8973,"aving":8974,"Ġgoose":8975,"Ġ'+'":8976,"åĲ¦":8977,"Ġprincipal":8978,"ä»İ":8979,"PrimeFactors":8980,"IME":8981,"......\",\"........":8982,"requencies":8983,"cluded":8984,"solutions":8985,"Ġbillboard":8986,"Ġfeast":8987,"Ġwrong":8988,"Ġuniq":8989,"........\",\"......":8990,"signature":8991,"Ġ20000100":8992,"Ġwhatday":8993,"ĠcontainsCycle":8994,"latz":8995,"â£¿â£¿â£¿â£¿":8996,"relative":8997,"æ¯ı":8998,"Ġsimplified":8999,"Ġxnor":9000,"Steinbach":9001,"Pilgrim":9002,"African":9003,"ĠTufted":9004,"Steinbacher":9005,"'(?":9006,"188":9007,"340":9008,"357":9009,"329":9010,"686":9011,"Bu":9012,"ahoj":9013,"ivel":9014,"ninet":9015,"yo":9016,"Ġ),":9017,"Ġinstr":9018,"Ġmom":9019,"ender":9020,"encrypt":9021,"Ġdu":9022,"Ġlakes":9023,"heses":9024,"Ġstar":9025,"ĠnumSplits":9026,"Ġ347":9027,"Ġ370":9028,"Ġ309":9029,"Ġhops":9030,"ĠTLE":9031,"Ġ587":9032,"Ġ70000":9033,"\",'":9034,"terrible":9035,"2973":9036,"6947":9037,"8347":9038,"8313":9039,"Ġcons":9040,"sortArray":9041,"4133":9042,"4149":9043,"omial":9044,"ĠCol":9045,"485":9046,"4687":9047,"Ġoutcomes":9048,"Ġexit":9049,"Ġcannons":9050,").__":9051,"Ġsmash":9052,"ĠStart":9053,"vertString":9054,"Ġdigitize":9055,"testcases":9056,"tries":9057,"Ġ80040":9058,"ĠcumSum":9059,"flat":9060,"attack":9061,"Ġinvite":9062,"åŃĺ":9063,"Ġmarks":9064,"Factored":9065,"Bits":9066,"straight":9067,"hicken":9068,"Color":9069,"Ġcross":9070,"('/')":9071,"Ġgrader":9072,"è§£":9073,"ĠcanConvertString":9074,"ĠalternateCase":9075,"âłĢâłĢ":9076,"ĠSegmentTree":9077,"salut":9078,"Ġrental":9079,"Ġgreek":9080,"#':":9081,")=":9082,")|":9083,"fx":9084,"fail":9085,"hola":9086,"lic":9087,"lhs":9088,"nel":9089,"normal":9090,"volume":9091,"}',":9092,"Ġ..":9093,"error":9094,"alternating":9095,"Ġsperm":9096,"Ġsalary":9097,"Ġtables":9098,"Ġ253":9099,"laLiga":9100,"rig":9101,"ĠmaxNumber":9102,"Ġ399":9103,"ife":9104,"Ġ479":9105,"Ġgunners":9106,"ĠcurNode":9107,")]*":9108,"Ġ560":9109,"ĠNot":9110,"ĠsumOf":9111,"Ġ756":9112,"598":9113,"5983":9114,"ĠMST":9115,"2647":9116,"2689":9117,"285":9118,"Ġproces":9119,"4619":9120,"','')":9121,"2267":9122,"...\",\"...":9123,"4006":9124,"Ġiteration":9125,"replacement":9126,"ĠGood":9127,"Ġ400203":9128,"Ġ[''.":9129,"short":9130,"')]*":9131,"\"],[\".":9132,"Ġcombat":9133,".......\",\".....":9134,"Ġå¦Ĥæŀľ":9135,".....\",\".......":9136,"numerals":9137,"Ġfewest":9138,"ĠdistinctEcho":9139,"Ġintegrate":9140,"Ġfaster":9141,"Ġlinks":9142,"foods":9143,"LOSE":9144,"âĨĴ":9145,"czesc":9146,"æ²¡":9147,"èĬĤçĤ¹":9148,"ively":9149,"ĠdistinctEchoSubstrings":9150,"349":9151,"383":9152,"Out":9153,"RR":9154,"cust":9155,"cipher":9156,"ike":9157,"yroot":9158,"ĉčĊ":9159,"Ġsqr":9160,"Ġtower":9161,"Ġstri":9162,"ris":9163,"Ġ<<=":9164,"ĠmaxCost":9165,"Ġ4000000000":9166,"poon":9167,"1033":9168,"1069":9169,"ĠAll":9170,"Ġcockroach":9171,"2097":9172,"2719":9173,"2777":9174,"2393":9175,"[-(":9176,"5077":9177,"5159":9178,"2433":9179,"4667":9180,"agle":9181,"ĠoddEven":9182,"cls":9183,"Ġpows":9184,"logN":9185,"keep":9186,"double":9187,"Ġ24080000":9188,"ĠplayerRankUp":9189,"apePossible":9190,"Ġprim":9191,"OOOO":9192,"Options":9193,"excellent":9194,"Beagle":9195,"ĠmaxSatisfied":9196,"Candies":9197,"Ġpaperwork":9198,"EscapePossible":9199,"ĠoddEvenJumps":9200,"(\\\",":9201,"({})":9202,"370":9203,"315":9204,"366":9205,"757":9206,"mc":9207,"obs":9208,"ini":9209,"Ġredu":9210,"Ġfc":9211,"Ġ189":9212,"Ġcd":9213,"Ġcircular":9214,"Ġtiling":9215,"istic":9216,"Ġlsum":9217,"Ġlens":9218,"())),":9219,"Ġmaxa":9220,"Ġmaxes":9221,"Ġ320":9222,"Ġ387":9223,"Ġ377":9224,"Ġ379":9225,"Ġ393":9226,"Ġ419":9227,"Ġhome":9228,"ĠĠĠĠĠĠĠĠĠĠĠĠĠĠĠĠĠĠĠĠĠĠĠĠĠĠĠĠĠĠ":9229,"('^":9230,"Ġ733":9231,"Ġ677":9232,"2399":9233,"574":9234,"');":9235,"8319":9236,"8373":9237,"(\"{}":9238,"\\\"{":9239,"coef":9240,"coding":9241,"2419":9242,"262":9243,"2833":9244,"2819":9245,"4533":9246,"Ġ[[]]":9247,"4499":9248,"4489":9249,"ĠLS":9250,"2211":9251,"566":9252,"ĠPos":9253,"ident":9254,"ĠareYouPlayingBanjo":9255,"avail":9256,"1234567":9257,"Ġ402084":9258,"Ġ40208000":9259,"flatten":9260,"Ġ\"+\"":9261,"goal":9262,"Ġ'@',":9263,"Loss":9264,"Ġrespond":9265,"Ġallowed":9266,"èĩª":9267,"ĠmaxLevelSum":9268,"ĠtilingRectangle":9269,"Assignment":9270,"frequency":9271,"hms":9272,"ij":9273,"lin":9274,"pas":9275,"xroot":9276,"sel":9277,"Ġfoo":9278,"integ":9279,"Ġtens":9280,"Ġ225":9281,"axis":9282,"Ġnumb":9283,"Ġ315":9284,"Ġ420":9285,"Ġ439":9286,"ĠminSubarray":9287,"ĠcountB":9288,"ĠTH":9289,"ĠThen":9290,"ĠisEscapePossible":9291,"1909":9292,"4979":9293,"8733":9294,"8717":9295,"294":9296,"nts":9297,"5079":9298,"5039":9299,"2157":9300,"keyboard":9301,"612":9302,"2653":9303,"4813":9304,"4857":9305,"2847":9306,"462":9307,"Ġ402000":9308,"5227":9309,"Ġdominoes":9310,"ĠWin":9311,"Ġ70400":9312,"Strings":9313,"Ġnba":9314,"ĠmaxProfitAssignment":9315,"ELS":9316,"undant":9317,"å°±æĺ¯":9318,"éĽ¢":9319,"Friends":9320,"Fractions":9321,"positives":9322,"ĠwhoseMove":9323,"è·ĿéĽ¢":9324,"\")))":9325,"625":9326,"825":9327,":{":9328,":]),":9329,"El":9330,"Work":9331,"_]":9332,"bar":9333,"blok":9334,"dtype":9335,"fg":9336,"ha":9337,"hallo":9338,"walk":9339,"}!\"":9340,"Ġol":9341,"Ġfct":9342,"Ġlit":9343,"ĠmaxGold":9344,"Ġ353":9345,"artist":9346,"),\"":9347,"Ġbeing":9348,"Ġ527":9349,"Ġ503":9350,"Ġ617":9351,"60200":9352,"2957":9353,"2953":9354,"2939":9355,"2971":9356,"2903":9357,"5307":9358,"ubset":9359,"actics":9360,"Ġleftover":9361,"leted":9362,"2183":9363,"5157":9364,"ãģ©":9365,"Ġsorter":9366,"inity":9367,"2519":9368,"],[],[":9369,"Ġalt":9370,")]),":9371,"å¯®":9372,"99999":9373,"Ġlogical":9374,"Ġknown":9375,"45787":9376,"ãģĦãĤĭ":9377,"100001":9378,"Ġgreen":9379,"è·¯":9380,"ĠcarPool":9381,"åĮĸ":9382,"*-*-*-*-":9383,"èµ°":9384,"ribution":9385,"ĠcarPooling":9386,")#":9387,",\\\"":9388,"347":9389,"987":9390,"</":9391,"Pal":9392,"^=":9393,"_(":9394,"ned":9395,"pressed":9396,"ras":9397,"wins":9398,"æĬ":9399,"ĉĠĠĠ":9400,"Ġ!!":9401,"ĠZero":9402,"Ġreplaced":9403,"Ġfx":9404,"arsh":9405,"Ġtallest":9406,"Ġba":9407,"Ġbark":9408,"atan":9409,"Ġlater":9410,"Ġlca":9411,"Ġ').":9412,"Ġ219":9413,"Ġstation":9414,"Ġ340":9415,"Ġ430":9416,"Ġ437":9417,"Ġ456":9418,"Ġ490":9419,"1019":9420,"1077":9421,"Ġ888":9422,"Ġcover":9423,"('#":9424,"maxVal":9425,"2079":9426,"1327":9427,"suma":9428,"6023":9429,"6060":9430,"8727":9431,"4347":9432,"4373":9433,"5953":9434,"832":9435,"Ġ1023":9436,"actual":9437,"5073":9438,"Ġpredecessor":9439,"2627":9440,"ĠDane":9441,"infected":9442,"465":9443,"4527":9444,"4543":9445,"Ġretval":9446,"Ġdicti":9447,"Pointer":9448,"5411":9449,"Ġshots":9450,"profits":9451,"ãĥķ":9452,"partial":9453,"ĠmergeSort":9454,"Ġtravel":9455,"Ġraw":9456,"tracker":9457,"Ġflowerbed":9458,"Ġterrain":9459,"negatives":9460,"çĽ´":9461,"Ġ4000000020":9462,"AAAA":9463,"OfFamilies":9464,"ascie":9465,"Matrix":9466,"Ġlovefunc":9467,"Ġhoop":9468,"People":9469,"æīĢæľī":9470,"çĦ¶":9471,"é¢ĺ":9472,"04":9473,"844":9474,">'":9475,"Bordered":9476,"EY":9477,"Fraction":9478,"GC":9479,"IR":9480,"cor":9481,"fold":9482,"floors":9483,"gra":9484,"pat":9485,"æĶ":9486,"Ġì":9487,"inform":9488,"orge":9489,"least":9490,"Ġ1200":9491,"Ġcj":9492,"Ġssum":9493,"Ġld":9494,"room":9495,"hil":9496,"())[":9497,"orth":9498,"ĠmaxCandies":9499,"Ġ\")]":9500,"Ġ511":9501,"Ġ873":9502,"ĠNe":9503,"('|":9504,"maxSum":9505,"maxHeap":9506,"2057":9507,"Ġemail":9508,"4793":9509,"amma":9510,"answers":9511,"Ġ960":9512,"6983":9513,"Ġonboard":9514,"4899":9515,"2867":9516,"collection":9517,"reading":9518,"4517":9519,"Indices":9520,"1217":9521,"2263":9522,"ibr":9523,"Ġalloc":9524,"Ġ207":9525,"subset":9526,"ĠOther":9527,"Ġprofitable":9528,"Ġ'.',":9529,"Ġ5060080":9530,"cessary":9531,"osen":9532,"Ġ1204":9533,"option":9534,"ircles":9535,"Ġbanan":9536,"åĽł":9537,"ĠclosestDivisors":9538,"Ġcorrespon":9539,"æĿ¥":9540,"diagonal":9541,"ãģĪãĤĭ":9542,"Ġfails":9543,"ĠsimplifiedFractions":9544,"BorderedSquare":9545,".@":9546,"319":9547,"389":9548,"723":9549,"828":9550,"APP":9551,"Down":9552,"Malware":9553,"Seg":9554,"clo":9555,"null":9556,"nbr":9557,"radi":9558,"vars":9559,"orse":9560,"sections":9561,"army":9562,"Ġtex":9563,"Ġwrap":9564,"oters":9565,"Ġ289":9566,"rooms":9567,"Ġ343":9568,"Ġ386":9569,"Ġ450":9570,"ĠminMalware":9571,"Ġhmap":9572,"Ġsequences":9573,"Ġ556":9574,"Ġ566":9575,"Ġ846":9576,"Ġ839":9577,"Ġ8400":9578,"2040":9579,"4057":9580,"138":9581,"upied":9582,"Ġ983":9583,"Ġ939":9584,"4973":9585,"5959":9586,"5973":9587,"8939":9588,"ubling":9589,"Ġconstr":9590,"perfect":9591,"5071":9592,"\");":9593,"Ġenemy":9594,"4167":9595,"4153":9596,"516":9597,"818":9598,"8143":9599,"oding":9600,"matches":9601,"2499":9602,"8600":9603,"5611":9604,"wolf":9605,"pyramid":9606,"Ġcompany":9607,"cursive":9608,"ĠĠĠĠĠĠĠĠĠĠĠĠĠĠĠĠĠĠĠĠĠĠĠĠĠĠĠĠĠĠĠĠĠ":9609,"ä»¶":9610,"Ġintersect":9611,"FromLeaf":9612,"$$$$$$$$":9613,"Widths":9614,"Ġdeleted":9615,"ç§»":9616,"ä¼ļ":9617,"å½ĵåīį":9618,"Ġidea":9619,"ollowerId":9620,"éķ¿åº¦":9621,"æĻĤ":9622,"ĠminMalwareSpread":9623,"$\",":9624,"'ve":9625,"'(\\":9626,"911":9627,"<(":9628,"Happy":9629,"LC":9630,"Schemes":9631,"increasing":9632,"Ġrn":9633,"oring":9634,"Ġmas":9635,"ended":9636,"Ġelt":9637,"Ġxxx":9638,"ĠnumFactored":9639,"Ġ380":9640,"Ġ303":9641,"Ġ411":9642,"splitlines":9643,"strength":9644,"Ġhyp":9645,"1063":9646,"ĠĠĠĠĠĠĠĠĠĠĠĠĠĠĠĠĠĠĠĠĠĠĠĠĠĠĠĠĠĠĠĠĠĠĠĠ":9647,"Ġ567":9648,"Ġ569":9649,"Ġ827":9650,"Ġsumq":9651,"ightsee":9652,"4027":9653,"40200":9654,"1399":9655,"Ġ917":9656,"4987":9657,"5937":9658,"5377":9659,"2129":9660,"matrices":9661,"Ġzombies":9662,"finditer":9663,"2659":9664,"2621":9665,"2557":9666,"282":9667,"]))%":9668,"Ġstacks":9669,"preSum":9670,"4444":9671,"5527":9672,"Ġ204030":9673,"6800":9674,"Ġcompress":9675,"Ġ4002700":9676,"clothes":9677,"Ġflat":9678,")>>":9679,"suc":9680,"########################":9681,":[],":9682,"generate":9683,"twos":9684,"ĠĠĠĠĠĠĠĠĠĠĠĠĠĠĠĠĠĠĠĠĠĠĠĠĠĠĠĠĠĠĠĠĠĠ":9685,"Ġprv":9686,"ç»ĵ":9687,"directions":9688,"Ġfillvalue":9689,"TrieNode":9690,"ĠfindKthBit":9691,"URN":9692,"ĠmaxNumberOfFamilies":9693,"ĠprofitableSchemes":9694,"ightseeing":9695,"06":9696,"720":9697,"Ct":9698,"PUT":9699,"We":9700,"aux":9701,"fy":9702,"fstat":9703,"hops":9704,"wns":9705,"é¡":9706,"Ġfd":9707,"Ġ191":9708,"era":9709,"Ġpatterns":9710,"allen":9711,"Ġ427":9712,"Ġ457":9713,"Ġ463":9714,"]:]":9715,"Ġarrange":9716,"ĠĠĠĠĠĠĠĠĠĠĠĠĠĠĠĠĠĠĠĠĠĠĠĠĠĠĠĠĠ":9717,"Ġ757":9718,"Ġ770":9719,"ĠFunction":9720,"Ġqs":9721,"2069":9722,"4093":9723,"4091":9724,"4757":9725,"ĠĠĠĠĠĠĠĠĠĠĠĠĠĠĠĠĠĠĠĠĠĠĠĊ":9726,"8017":9727,"5979":9728,"5939":9729,"8393":9730,"5087":9731,"2167":9732,"514":9733,"5187":9734,"2487":9735,"2599":9736,"4683":9737,"press":9738,"Ġ204000":9739,"tempt":9740,"Ġquot":9741,"4283":9742,"command":9743,"Ġperform":9744,"Ġcapital":9745,"Ġ400050":9746,"Ġmaj":9747,"Positive":9748,"Ġbrute":9749,"Ġbranch":9750,"}:{:":9751,"Ġerr":9752,"å¾Į":9753,"Ġoccurr":9754,"weekday":9755,"tolist":9756,"\"]:":9757,"-'":9758,".'.":9759,"Break":9760,"BASE":9761,"Pattern":9762,"Type":9763,"bloom":9764,"draw":9765,"mind":9766,"tie":9767,"Ġic":9768,"Ġ188":9769,"Ġcalls":9770,"Ġsample":9771,"Ġbuff":9772,"itr":9773,"Ġancestors":9774,"Ġ288":9775,"ĠSe":9776,"ĠmaxArea":9777,"ĠmaxHeap":9778,"Ġ499":9779,"Ġ415":9780,"Ġminu":9781,"Ġhoriz":9782,"1017":9783,"Ġ811":9784,"Ġ773":9785,"Ġ659":9786,"20200":9787,"2773":9788,"2377":9789,"4943":9790,"4977":9791,"minq":9792,"5099":9793,"Ġary":9794,"8159":9795,"ĠMake":9796,"ĠMove":9797,"Ġsortedcontain":9798,"2459":9799,"#####":9800,"ĠBit":9801,"4633":9802,"4613":9803,"4587":9804,"706":9805,"progress":9806,"1223":9807,"2219":9808,"1833":9809,"Ġmodulus":9810,"ĠRE":9811,"Ġpointers":9812,"ï¼Ł":9813,")})":9814,"Ġlsoint":9815,"abcde":9816,"$$$":9817,"OrderedDict":9818,"fractions":9819,"Ġtails":9820,"Ġ204008000":9821,"Ġ10000260":9822,"issubset":9823,"åı¯èĥ½":9824,"ĠNOT":9825,"Ġtasks":9826,"Ġweeks":9827,"ÐµÐ":9828,"Ġnearest":9829,"==[]:":9830,"(\\\",\\\")":9831,"Ġsortedcontainers":9832,")?":9833,",)":9834,"-':":9835,"369":9836,"363":9837,"377":9838,"688":9839,"658":9840,"727":9841,"Ac":9842,"ga":9843,"nk":9844,"special":9845,"sofar":9846,"vable":9847,"æĭ":9848,"Ġur":9849,"leaves":9850,"alnum":9851,"Ġspec":9852,"Ġtill":9853,"unite":9854,"otProduct":9855,"Ġ287":9856,"Ġxj":9857,"him":9858,"Ġ*(":9859,"Ġ473":9860,"Ġ48000":9861,"Ġyj":9862,"plore":9863,"Ġham":9864,"ĠThere":9865,"ĠcurMin":9866,"Ġ890":9867,"(')":9868,"2013":9869,"4737":9870,"Ġ911":9871,"Ġ967":9872,"Ġ987":9873,"Ġ937":9874,"194":9875,"1913":9876,"4989":9877,"2979":9878,"6971":9879,"coeff":9880,"addr":9881,"Ġarm":9882,"Ġuv":9883,"2457":9884,"4887":9885,"252":9886,"ĠBase":9887,"4457":9888,"558":9889,"8887":9890,"2253":9891,"185":9892,"ODD":9893,"666":9894,"1487":9895,"ĠIS":9896,"4299":9897,"4213":9898,"4217":9899,"Ġ12000":9900,"5483":9901,"ToH":9902,"Ġprefixsum":9903,"cursor":9904,"notes":9905,"without":9906,"Ġmerged":9907,"ĠsplitArray":9908,"neighbour":9909,"powers":9910,"Ġmuls":9911,"Ġswaps":9912,"OUND":9913,"BinaryTrees":9914,"ĠBytesIO":9915,"Ġmultiplier":9916,"tribute":9917,"çķªçĽ®":9918,"éĻ¤":9919,"ĠmaxDotProduct":9920,"ç¤º":9921,"ĠnumFactoredBinaryTrees":9922,"144":9923,"8000000000":9924,"NF":9925,"SC":9926,"TURN":9927,"UE":9928,"Visit":9929,"but":9930,"ially":9931,"lang":9932,"sig":9933,"triplets":9934,"Ġ()":9935,"Ġothers":9936,"Ġrj":9937,"sell":9938,"Ġ215":9939,"Ġ297":9940,"Ġgt":9941,"Ġ889":9942,"ĠsumSubseq":9943,"Ġcos":9944,"2053":9945,"1733":9946,"5779":9947,"8079":9948,"2919":9949,"8927":9950,"632":9951,"6399":9952,"8327":9953,"5037":9954,"quet":9955,"7777":9956,"ĠgetVolumeOfCubiod":9957,"2683":9958,"4657":9959,"4500":9960,"4547":9961,"ĠLIS":9962,"Ġsubtract":9963,"2221":9964,"Ġ2020":9965,"agram":9966,"4267":9967,"ĠUSE":9968,"divmod":9969,"Ġfreqs":9970,"compress":9971,"å¯»":9972,"evens":9973,"Ġdivision":9974,"serv":9975,"partitions":9976,"eeId":9977,"offer":9978,"è¾º":9979,"ratio":9980,"ĠNumber":9981,"Duplicates":9982,"âĸĪâĸĪ":9983,"Ġmonoq":9984,"Ġnamed":9985,"urviv":9986,"IntoFibonacci":9987,"ĠsumSubseqWidths":9988,"+\",":9989,"380":9990,"600000000":9991,"929":9992,"Apart":9993,"IZE":9994,"TT":9995,"Temp":9996,"assign":9997,"bseven":9998,"gu":9999,"sevent":10000,"Ġ141":10001,"Ġsite":10002,"Ġsquared":10003,"elt":10004,"eline":10005,"Ġbridge":10006,"ĠkLength":10007,"Ġ389":10008,"ific":10009,"Ġ410":10010,"Ġ497":10011,"Ġ4800":10012,"Ġ540":10013,"ĠNUM":10014,"Ġsumi":10015,"Ġ723":10016,"Ġ667":10017,"Ġ683":10018,"Ġ630":10019,"Ġ666":10020,"4099":10021,"ĠisGood":10022,"4967":10023,"4949":10024,"8049":10025,"5309":10026,"6377":10027,"(\"{":10028,"5063":10029,"Ġboats":10030,"5127":10031,"ĠfindMin":10032,"8127":10033,"aseven":10034,"Ġthink":10035,"2567":10036,"2559":10037,"2817":10038,"2869":10039,"ddy":10040,"4417":10041,"8687":10042,"Ġ20160":10043,"1811":10044,"Ġ'(',":10045,"6543":10046,"orders":10047,"Ġ2001000":10048,"cape":10049,"Ġ}.":10050,"ĠsplitIntoFibonacci":10051,"when":10052,"Ġtracker":10053,"nonzero":10054,"Ġ4080020":10055,"games":10056,"ãģĹãģŁ":10057,"Ġpassengers":10058,"attery":10059,"Iteration":10060,"Ġfixed":10061,"åħĥç´ł":10062,"ĠkLengthApart":10063,".\",":10064,"353":10065,"bn":10066,"cows":10067,"false":10068,"glo":10069,"tif":10070,"}-{":10071,"Ġ186":10072,"Ġmct":10073,"Ġspeak":10074,"Ġsymbol":10075,"uthor":10076,"Ġaway":10077,"()+":10078,"Ġ299":10079,"Ġ224":10080,"Ġstreak":10081,"Ġstores":10082,"Ġ447":10083,"Ġ493":10084,"isalnum":10085,"Ġ810":10086,"Ġ853":10087,"338":10088,"3307":10089,"Ġ610":10090,"Ġ660":10091,"maxy":10092,"2081":10093,"4039":10094,"Ġ909":10095,"5737":10096,"4937":10097,"5069":10098,"Ġpremin":10099,"5167":10100,"6129":10101,"imb":10102,"ĠCurrent":10103,"ĠCLOSE":10104,"]-(":10105,"2643":10106,"482":10107,"Ġunused":10108,"-=(":10109,"ĠIP":10110,"1101":10111,"ĠOdious":10112,"ĠEvil":10113,"Ġneedle":10114,"Ġverb":10115,"LIX":10116,"æķ°åŃĹ":10117,"lision":10118,"coordinates":10119,".....\",\"........":10120,"Cases":10121,"Ġfailed":10122,"Ġlabels":10123,"........\",\".....":10124,"ainedSubsetSum":10125,"Ġmonths":10126,"ãģĳãĤĭ":10127,"ãģĿãģ®":10128,"Amount":10129,"ĠconstrainedSubsetSum":10130,"*/":10131,"348":10132,"624":10133,"711":10134,"AFE":10135,"LACK":10136,"Mem":10137,"Mouse":10138,"PI":10139,"Ref":10140,"UC":10141,"XOR":10142,"eve":10143,"hing":10144,"iB":10145,"nlogn":10146,"sB":10147,"tfor":10148,"yellow":10149,"zigzag":10150,"}[":10151,"information":10152,"Ġrd":10153,"Ġrk":10154,"stand":10155,"Ġfre":10156,"Ġ144":10157,"Ġpet":10158,"Ġtgt":10159,"Ġbfour":10160,"Ġafour":10161,"Ġints":10162,"Ġ250":10163,"Ġ339":10164,"Ġ428":10165,"ordiv":10166,"__)":10167,"loordiv":10168,"Ġ547":10169,"Ġ557":10170,"Ġ559":10171,"Ġ573":10172,"Ġ570":10173,"ĠNow":10174,"Ġ729":10175,"Ġ797":10176,"Ġqi":10177,"332":10178,"Ġ640":10179,"2087":10180,"4077":10181,"4031":10182,"ups":10183,"6079":10184,"5777":10185,"1973":10186,"805":10187,"8943":10188,"ĠcurrMax":10189,"Ġleftmost":10190,"\")[":10191,"Ġeng":10192,"4183":10193,"5199":10194,"8199":10195,"8153":10196,"6187":10197,"4833":10198,"2527":10199,"2857":10200,"2843":10201,"readlines":10202,"4589":10203,"4583":10204,"bou":10205,"Increasing":10206,"Ġsubt":10207,"2257":10208,"1867":10209,"5899":10210,"Ġaltf":10211,"ĠlongestPrefix":10212,"unny":10213,"600040":10214,"ĠHere":10215,"ĠQu":10216,"Ġ86400":10217,"Ġ40000800":10218,"ierre":10219,"Ġbltf":10220,"Ġ6000008000":10221,"Green":10222,"Ġsystem":10223,"ãĤģãĤĭ":10224,"526":10225,"719":10226,":{}":10227,"Sightseeing":10228,"bishop":10229,"cn":10230,"drop":10231,"nGo":10232,"rg":10233,"sg":10234,"tn":10235,"wi":10236,"}\",":10237,"}({":10238,"å¥":10239,"stock":10240,"lev":10241,"Ġrepl":10242,"Ġnormal":10243,"Ġcents":10244,"Ġmix":10245,"Ġtip":10246,"Ġtarg":10247,"Ġlm":10248,"Ġaj":10249,"()[::-":10250,"Ġ213":10251,"Ġ259":10252,"Ġ286":10253,"Ġmaxp":10254,"Ġvideo":10255,"Ġkth":10256,"Ġdps":10257,"Ġarrow":10258,"':['":10259,"Ġ599":10260,"Ġ530":10261,"Ġ823":10262,"Ġ879":10263,"Ġ793":10264,"3373":10265,"Ġ613":10266,"1367":10267,"6717":10268,"2967":10269,"5303":10270,"6977":10271,"ope":10272,"8937":10273,"5019":10274,"adding":10275,"Ġsorting":10276,"inese":10277,"4867":10278,"ĠDo":10279,"2521":10280,"4413":10281,"ĠLR":10282,"1211":10283,"Ġsubseq":10284,"2283":10285,"400400":10286,"egin":10287,"combo":10288,"8533":10289,"aved":10290,"zeroes":10291,"40000030":10292,"LIM":10293,"operations":10294,"åħ¶":10295,"Route":10296,"goals":10297,"è¦ª":10298,"changes":10299,"ãģ¨ãģį":10300,"Ġbacktracking":10301,"ĠvalidateBinary":10302,"cross":10303,"ãĥ¼ãĥĹ":10304,"ĠmaxScoreSightseeing":10305,"Ġbackwards":10306,"TreeNodes":10307,"Direction":10308,"ĠvalidateBinaryTreeNodes":10309,"ĠmaxScoreSightseeingPair":10310,")[:-":10311,"387":10312,"30000000":10313,"799":10314,"=',":10315,"TIME":10316,"bridge":10317,"cop":10318,"clock":10319,"ji":10320,"âķ":10321,"èī":10322,"ê°":10323,"Ġrad":10324,"Ġign":10325,"Ġindic":10326,"ancy":10327,"anches":10328,"Ġfit":10329,"decreasing":10330,"defor":10331,"Ġsup":10332,"Ġtaps":10333,"Ġdrops":10334,"uth":10335,"leng":10336,"itu":10337,"recover":10338,"Ġwolf":10339,"Ġast":10340,"Ġelm":10341,"Ġ'!',":10342,"arrier":10343,"apples":10344,"ĠmaxPer":10345,"Ġvow":10346,"Ġvotes":10347,"Ġ424":10348,"Ġ477":10349,"Ġ488":10350,"1031":10351,"Ġ523":10352,"Ġ887":10353,"Ġ829":10354,"Ġ883":10355,"Ġ727":10356,"Ġ703":10357,"Ġ679":10358,"4087":10359,"4743":10360,"1373":10361,"6087":10362,"6043":10363,"Ġ929":10364,"5727":10365,"4953":10366,"5967":10367,"6959":10368,"6353":10369,"6391":10370,"2199":10371,"quer":10372,"Ġarmy":10373,"6183":10374,"ĠCat":10375,"tok":10376,"2489":10377,"4827":10378,"]*=":10379,"ica":10380,"ĠBu":10381,"8699":10382,"2289":10383,"2251":10384,"ĠPerson":10385,"Ġ131":10386,"5833":10387,"1489":10388,"4259":10389,"5213":10390,"6009":10391,"8411":10392,"State":10393,"clusters":10394,"Ġclues":10395,"ignore":10396,"å°¾":10397,"Ġneighbour":10398,"Minus":10399,",[])":10400,"Ġimplement":10401,"Preorder":10402,"triangles":10403,"('*')":10404,"Ġassigned":10405,"Iterator":10406,"åİ»":10407,"Ġexactly":10408,"çİ°":10409,"çŁŃ":10410,"DivisionError":10411,"(__":10412,"359":10413,"717":10414,"729":10415,"Br":10416,"EVEN":10417,"danish":10418,"dutch":10419,"ract":10420,"tables":10421,"wrap":10422,"who":10423,"watch":10424,"âī":10425,"ĠnC":10426,"erial":10427,"))>":10428,"Ġsk":10429,"Ġtj":10430,"Ġ'):":10431,"Ġ[{":10432,"Ġoscar":10433,"Ġ319":10434,"Ġyroot":10435,"Ġminval":10436,"1087":10437,"Ġseed":10438,")]+=":10439,"ĠAnd":10440,"Ġ517":10441,"akra":10442,"Ġ761":10443,"Ġliste":10444,"Ġ633":10445,"Ġ627":10446,"2043":10447,"1739":10448,"6099":10449,"Ġ980":10450,"578":10451,"1937":10452,"4909":10453,"8020":10454,"6967":10455,"Ġdecompose":10456,"Ġdeepest":10457,"[:(":10458,"5031":10459,"Ġrightmost":10460,"2159":10461,"ãģĺ":10462,")->":10463,"aulter":10464,"ĠgetBill":10465,"2629":10466,"4889":10467,"2851":10468,"4643":10469,"4561":10470,"boss":10471,"lemon":10472,"1611":10473,"1233":10474,"cons":10475,"ĠOpt":10476,"Ġsucc":10477,"ĠStep":10478,"groupby":10479,")}\"":10480,"INT":10481,"aled":10482,"Ġhandle":10483,"rounds":10484,"Ġshifted":10485,"Ġ600000800":10486,"Ġbuilding":10487,"backward":10488,"bird":10489,"=''):":10490,"Ġ\"+\":":10491,"ĠExplanation":10492,"ribes":10493,"Monica":10494,"spanish":10495,"Optimal":10496,"ĠmaxSatisfaction":10497,"Ġfoods":10498,"éĽĨ":10499,"swedish":10500,"OVES":10501,"å¿ħ":10502,"ĠcroakOfFrogs":10503,"è¨Ī":10504,"Ġmoment":10505,"']+":10506,"324":10507,"50000000":10508,"769":10509,"923":10510,"937":10511,"SB":10512,"UFS":10513,"[\\":10514,"celsius":10515,"fen":10516,"hm":10517,"hero":10518,"lib":10519,"mountain":10520,"sd":10521,"shield":10522,"town":10523,"ynamic":10524,"æĥ":10525,"lead":10526,"Ġpay":10527,"Ġslist":10528,"Ġdn":10529,"Ġ249":10530,"Ġ364":10531,"Ġ421":10532,"Ġyt":10533,"1023":10534,"Ġ510":10535,"Ġ553":10536,"Ġ521":10537,"Ġ590":10538,"9973":10539,"Ġ719":10540,"Ġ780":10541,"Ġ769":10542,"chg":10543,"Ġ[]}":10544,"Ġ60000":10545,"Ġ687":10546,"Ġ629":10547,"2023":10548,"2077":10549,"4017":10550,"4079":10551,"Ġ900000":10552,"5723":10553,"8043":10554,"6973":10555,"6359":10556,"Ġconsec":10557,"Ġ106":10558,"5023":10559,"Ġtoextend":10560,"4187":10561,"Ġitself":10562,"ĠnewString":10563,"ĠMe":10564,"2483":10565,"ĠgetValue":10566,"2827":10567,"2859":10568,"ĠBinary":10569,"4651":10570,"4433":10571,"Ġsubtree":10572,"5617":10573,"newparalle":10574,"modP":10575,"664":10576,"ĠIOW":10577,"OfWord":10578,"4243":10579,"5267":10580,"ctionary":10581,"Prod":10582,")}'":10583,"ãĥİ":10584,"å¯³":10585,"uffle":10586,"Ġcaps":10587,"Ġhashtable":10588,"efficiency":10589,"ireWork":10590,"Ġoverall":10591,"Ġpossib":10592,"sabers":10593,"croak":10594,"Animal":10595,"ãĥ¼ãĥī":10596,"æ¯Ķ":10597,"âĶĢâĶĢâĶĢâĶĢ":10598,"nuke":10599,"ĠmincostToH":10600,"Ġdetermine":10601,"Ġinterpreter":10602,"ĠnextLarger":10603,"deforces":10604,"UFSIZE":10605,"ĠIOWrapper":10606,"ireWorkers":10607,"ĠmincostToHireWorkers":10608,",...":10609,".,":10610,"761":10611,"PE":10612,"Rem":10613,"_=":10614,"fghi":10615,"kids":10616,"rb":10617,"yn":10618,"}!":10619,"ä¾":10620,"Ġ)%":10621,"Ġ182":10622,"Ġsix":10623,"Ġsche":10624,"Ġtd":10625,"][:-":10626,"Ġxors":10627,"ĠSC":10628,"ĠSI":10629,"Ġ359":10630,"Ġ325":10631,"Ġ388":10632,"Ġ449":10633,"1119":10634,"poles":10635,"Ġgarden":10636,"alloc":10637,"1067":10638,"Ġ819":10639,"Ġ859":10640,"Ġ897":10641,"Ġ717":10642,"Ġ743":10643,"Ġ779":10644,"Ġ737":10645,"ĠFirst":10646,"Ġ653":10647,"Ġ670":10648,"Ġ_.":10649,"278":10650,"4779":10651,"4703":10652,"6019":10653,"60100":10654,"Ġ977":10655,"8077":10656,"8093":10657,"2983":10658,"4387":10659,"Ġ1080":10660,"Ġdegrees":10661,"4151":10662,"8189":10663,"ĠCH":10664,"inite":10665,"2623":10666,"2667":10667,"Ġnextval":10668,"1627":10669,"1213":10670,"Ġsubarr":10671,"2269":10672,"ĠcheckIf":10673,"'.':":10674,"Ġleg":10675,"1499":10676,"Ġfunnel":10677,"4289":10678,"ĠOn":10679,"Stops":10680,"combs":10681,"ells":10682,"6211":10683,"Ġadjust":10684,"},{":10685,"]%=":10686,"Ġ4000700":10687,"mylist":10688,"Ġsoldier":10689,"Ġspf":10690,"Perms":10691,"Ġ'#',":10692,"hashtag":10693,"Ġmarked":10694,"Ġintersection":10695,"Ġfacs":10696,"evil":10697,"FromPreorder":10698,"Ġimpossible":10699,"100000007":10700,"Ġrules":10701,"Ġcalendar":10702,"password":10703,"Ġprogramming":10704,"112358":10705,"uniq":10706,"ãĥ«ãĥ¼ãĥĹ":10707,"###############":10708,"Ġmismatch":10709,"generator":10710,"ĠnextLargerNodes":10711,"318":10712,"713":10713,"Ele":10714,"Pt":10715,"Que":10716,"Slices":10717,"VAL":10718,"ban":10719,"fraction":10720,"iate":10721,"ider":10722,"kv":10723,"none":10724,"say":10725,"tar":10726,"Ġë":10727,"ĠçļĦ":10728,"Ġextend":10729,"Ġinde":10730,"Ġcsum":10731,"arn":10732,"Ġpen":10733,"Ġmt":10734,"Ġsatisfied":10735,"Ġtm":10736,"Ġlol":10737,"Ġ226":10738,"Ġ248":10739,"Ġ\"*(":10740,"Ġ355":10741,"Ġ358":10742,"Ġhint":10743,"Ġhapp":10744,"Ġhaystack":10745,"Ġ529":10746,"Ġ867":10747,"Ġ830":10748,"Ġ730":10749,"ĠFS":10750,"Ġ624":10751,"2067":10752,"2071":10753,"4089":10754,"Ġeating":10755,"4787":10756,"4789":10757,"6041":10758,"6071":10759,"5783":10760,"5773":10761,"5739":10762,"5393":10763,"')*":10764,"permutation":10765,"Ġ108":10766,"indexed":10767,"Ġdebug":10768,"4161":10769,"2161":10770,"ĠfindNumOf":10771,"ĠnewP":10772,"ĠMost":10773,"ĠCalc":10774,"2469":10775,"860000":10776,"1287":10777,"8819":10778,"5633":10779,"142":10780,"684":10781,"ĠlongestDup":10782,"cepted":10783,"6511":10784,"Ġshar":10785,"Ġshow":10786,"]%(":10787,"Ġ100020":10788,"Ġ402080000":10789,"åıª":10790,"å¤į":10791,"ĠcatMouse":10792,"what":10793,"ValidWords":10794,"loyd":10795,"Ġchoices":10796,"Ġ...,":10797,"ACH":10798,"Ġbutton":10799,"æłĩ":10800,"Ġprobab":10801,"Billboard":10802,"Ġvariables":10803,"Ġsimplify":10804,"Ġ'<':":10805,"ãĤ°ãĥ«ãĥ¼ãĥĹ":10806,"èĢĥ":10807,"ĠdisplayTable":10808,"SameAverage":10809,"Ġrandint":10810,"è¡¨ç¤º":10811,"ĠtallestBillboard":10812,"ĠsplitArraySameAverage":10813,"LIMIT":10814,"ĠmaxPerformance":10815,"ĠfindNumOfValidWords":10816,"ĠlongestDupSubstring":10817,"ĠcatMouseGame":10818,"\"].":10819,"341":10820,"780":10821,"967":10822,"GCD":10823,"Largest":10824,"Person":10825,"TB":10826,"TC":10827,"US":10828,"drops":10829,"nNo":10830,"ule":10831,"Ġç":10832,"Ġly":10833,"Ġ258":10834,"Ġ\"$":10835,"Ġ\"<":10836,"Ġvi":10837,"Ġvol":10838,"Ġvoid":10839,"Ġkata":10840,"Ġ349":10841,"Ġ363":10842,"Ġ350":10843,"numpy":10844,"Ġ459":10845,"Ġ483":10846,"idual":10847,"Ġguest":10848,"ĠminA":10849,"ĠminCoins":10850,"ĠTh":10851,"1073":10852,")]):":10853,"Ġ647":10854,"Ġ619":10855,"Ġ648":10856,"Ġ639":10857,"4019":10858,"2779":10859,"Ġ930":10860,"4983":10861,"4951":10862,"876":10863,"8033":10864,"2959":10865,"2969":10866,"5329":10867,"5369":10868,"6371":10869,"5040":10870,"Ġprec":10871,"4121":10872,"ĠfindMax":10873,"ĠMade":10874,"]+',":10875,"240000":10876,"ĠmidInd":10877,"4523":10878,"4427":10879,"5555":10880,"locs":10881,"Ġaliens":10882,"6899":10883,"ided":10884,"Ġadds":10885,"8287":10886,"boarding":10887,"ãĥĥ":10888,"Ġcluster":10889,"Ġflatten":10890,"shape":10891,"Ġ\".\"":10892,"403000":10893,"eeded":10894,"bounds":10895,"Divisible":10896,"1000001":10897,"REG":10898,"çĽ¸":10899,"ÂłÂłÂłÂłÂłÂłÂł":10900,"````":10901,"equation":10902,"FromLeafValues":10903,"Ġarmies":10904,"ãĥİãĥ¼ãĥī":10905,"*[":10906,"*\\\"":10907,"++":10908,"350":10909,"960":10910,"983":10911,":#":10912,"IGHT":10913,"Kh":10914,"[((":10915,"pf":10916,"patterns":10917,"xors":10918,"Ġroman":10919,"sen":10920,"urn":10921,"desired":10922,"Ġ228":10923,"Ġ244":10924,"Ġvn":10925,"Ġ369":10926,"Ġ458":10927,"Ġ4203":10928,"Ġminarea":10929,"Ġhcf":10930,"allow":10931,"1053":10932,"1061":10933,"1091":10934,"ĠĠĠĠĠĠĠĠĠĠĠĠĠĠĠĠĠĠĠĠĠĠĠĠĠĊ":10935,"':\"":10936,"Ġ817":10937,"('',":10938,"Ġ750":10939,"Ġ663":10940,"Ġ690":10941,"maxd":10942,"2083":10943,"2031":10944,"6067":10945,"Ġ923":10946,"1979":10947,"6367":10948,"ackets":10949,"minx":10950,"minHeap":10951,"Ġ102":10952,"Ġdes":10953,"8157":10954,"Ġroom":10955,"ĠMem":10956,"2513":10957,"2823":10958,"2883":10959,"Ġamazon":10960,"1533":10961,"4447":10962,"862":10963,"8613":10964,"8643":10965,"2213":10966,"2243":10967,"Ġ120000000":10968,"5417":10969,"ĠStop":10970,"8223":10971,"ĠWhen":10972,"ðŁĺīðŁĺīðŁĺī":10973,"Ġ200010":10974,"Ġmiss":10975,"Connected":10976,"ðŁĺīðŁĺīðŁĺīðŁĺīðŁĺīðŁĺīðŁĺī":10977,"Ġ120640":10978,"Ġgender":10979,"ĠRemove":10980,"(?=":10981,"choose":10982,"ðŁĺīðŁĺīðŁĺīðŁĺīðŁĺīðŁĺīðŁĺīðŁĺīðŁĺīðŁĺīðŁĺīðŁĺīðŁĺīðŁĺīðŁĺī":10983,"Ġdecimals":10984,"storage":10985,"Ġ2000000010":10986,"Ġ7002000":10987,"Ġconstant":10988,"variables":10989,"ðŁĺīðŁĺīðŁĺīðŁĺīðŁĺīðŁĺīðŁĺīðŁĺīðŁĺīðŁĺīðŁĺīðŁĺīðŁĺīðŁĺīðŁĺīðŁĺīðŁĺīðŁĺīðŁĺīðŁĺīðŁĺīðŁĺīðŁĺīðŁĺīðŁĺīðŁĺīðŁĺīðŁĺīðŁĺīðŁĺīðŁĺī":10990,"truediv":10991,"Ġlft":10992,"MountainArray":10993,"Ġcycles":10994,"ĠminNumberOperations":10995,"ĠmctFromLeafValues":10996,"){":10997,"345":10998,"747":10999,"743":11000,"751":11001,"Cols":11002,"Snuke":11003,"Vert":11004,"klm":11005,"knight":11006,"ljust":11007,"wage":11008,"series":11009,"Ġfrequencies":11010,"turns":11011,"Ġpm":11012,"Ġmapp":11013,"Ġwt":11014,"Ġwhisky":11015,"Ġanss":11016,"Ġ'$',":11017,"Ġ237":11018,"Ġxb":11019,"Ġvv":11020,"Ġ455":11021,"ĠTrans":11022,"getBill":11023,"getTargetCopy":11024,"ĠAn":11025,"Ġ543":11026,"Ġ539":11027,"Ġ516":11028,"Ġ597":11029,"ĠFast":11030,"Ġ689":11031,"Ġ637":11032,"6077":11033,"8099":11034,"80400":11035,"6347":11036,"]]*":11037,"usc":11038,"quick":11039,"812":11040,"8133":11041,"8147":11042,"ĠnewY":11043,"2523":11044,"2569":11045,"book":11046,"=[];":11047,"8689":11048,"8833":11049,"8867":11050,"2229":11051,"5827":11052,"ĠRes":11053,"rules":11054,"6833":11055,"egg":11056,"Ġsuit":11057,"6217":11058,"6000200":11059,"afa":11060,"Ġcolored":11061,"Ġexpr":11062,"host":11063,"....\",\"........":11064,"è¿Ľ":11065,"Ġapply":11066,"ĠxorQueries":11067,"Ġequals":11068,"ANG":11069,"Ġ48600":11070,"éĤ£ä¹Ī":11071,"Ġhomepage":11072,"integers":11073,"']))":11074,"Cour":11075,"Nth":11076,"Needed":11077,"Wait":11078,"Weight":11079,"buff":11080,"cube":11081,"ham":11082,"mst":11083,"mallest":11084,"pins":11085,"spec":11086,"tax":11087,"tas":11088,"wn":11089,"~~":11090,"æŁ":11091,"orage":11092,"Ġinform":11093,"Ġ158":11094,"Ġmint":11095,"Ġmex":11096,"Ġ+\"":11097,"Ġanch":11098,"islice":11099,"===":11100,"1173":11101,"1027":11102,"1043":11103,"1097":11104,"Ġcurlen":11105,"),[":11106,"Ġ555":11107,"Ġ857":11108,"Ġ843":11109,"Ġ799":11110,"Ġ783":11111,"Ġ707":11112,"Ġ616":11113,"Ġ693":11114,"Ġ6003":11115,"2037":11116,"4021":11117,"2789":11118,"Ġegg":11119,"6039":11120,"Ġ919":11121,"8700":11122,"8013":11123,"5903":11124,"Ġnested":11125,"Ġnecessary":11126,"5387":11127,"8973":11128,"Ġ10800":11129,"5013":11130,"5017":11131,"0000030":11132,"5143":11133,"ãģ¹":11134,"6127":11135,"6181":11136,"Ġgets":11137,"Ġloss":11138,"Ġcntr":11139,"Ġmeows":11140,"2517":11141,"2563":11142,"Ġprods":11143,"pred":11144,"lowers":11145,"1600":11146,"prods":11147,"1267":11148,"882":11149,"Ġsublist":11150,"565":11151,"4007":11152,"Ġ2070":11153,"Ġ40806000":11154,"668":11155,"ruise":11156,"5261":11157,"olls":11158,"5449":11159,"8527":11160,"8513":11161,"Ġ5066":11162,"ãģ®æķ°":11163,"å¯«":11164,"å¯°":11165,"Ġseqs":11166,"Compression":11167,"Ġ8040610":11168,"Ġ8000006000":11169,"principal":11170,"IMPOSSIBLE":11171,"Ġwrit":11172,"Force":11173,"manhattan":11174,"æłĳ":11175,"å½ķ":11176,"éĩı":11177,"(\"%.":11178,"éģį":11179,"æİ¥":11180,"tasks":11181,"ĠmaxEqualFreq":11182,"Ġarguments":11183,"Ġpotential":11184,"Ġcombined":11185,"ĠZeroDivisionError":11186,"allenge":11187,"ĠsuccProb":11188,"fghij":11189,"ĠMostafa":11190,"Khaled":11191,"klmno":11192,"763":11193,"781":11194,"748":11195,"826":11196,"939":11197,"BFS":11198,"Maj":11199,"ever":11200,"pn":11201,"tour":11202,"ught":11203,"å¦Ĥæŀľ":11204,"Ġ!!'":11205,"stats":11206,"Ġ184":11207,"Ġtickets":11208,"])!=":11209,"][\"":11210,"lave":11211,"orty":11212,"Ġ\"!":11213,"Ġ326":11214,"Ġ413":11215,"ftime":11216,"Ġhundred":11217,"Ġstraight":11218,"1089":11219,"Ġ519":11220,"Ġ863":11221,"Ġ850":11222,"Ġcoke":11223,"Ġ713":11224,"Ġ753":11225,"2030":11226,"Ġeight":11227,"Ġ950":11228,"8039":11229,"8363":11230,"=[]):":11231,"Ġbook":11232,"rightChild":11233,"Ġlost":11234,"2863":11235,"4599":11236,"4569":11237,"1517":11238,"162":11239,"1613":11240,"4423":11241,"Inverse":11242,"8627":11243,"5513":11244,"5569":11245,"------":11246,"885":11247,"Ġchecker":11248,"'.'":11249,"1817":11250,"Ġtran":11251,"Ġmoving":11252,"8006":11253,"6411":11254,"5433":11255,"8213":11256,"currentIndex":11257,"ãģ®åĢ¤":11258,"scan":11259,"Ġperms":11260,"Consecutive":11261,"Ġpartitions":11262,"shots":11263,":[]":11264,"åĪ¤":11265,"âĸł":11266,"Ġ240807":11267,"Ġspd":11268,"xyr":11269,"MAP":11270,"Ġ800000600":11271,"\"],[\".......":11272,"Ġtraversal":11273,"Ġtyped":11274,"adjac":11275,"Distances":11276,"theta":11277,"Ġplan":11278,"ãģªãĤī":11279,"ç»ı":11280,"Ġ400860100":11281,"ARD":11282,"åĬ¨":11283,"ãĤĮãģ°":11284,"biguous":11285,"Option":11286,"å¤§ãģį":11287,"fullmatch":11288,"ĠString":11289,"Ġ'_'":11290,"åĢĭæķ°":11291,"****************":11292,"Ġresponse":11293,"(\"*\",":11294,"OME":11295,"Ġsubordinates":11296,"Possibilities":11297,"\"%":11298,"+|":11299,"3000000":11300,"AY":11301,"Run":11302,"cj":11303,"iat":11304,"mit":11305,"piece":11306,"sat":11307,"sure":11308,"vol":11309,"Ġfamily":11310,"Ġpieces":11311,"umb":11312,"Ġbrr":11313,"uniform":11314,"])',":11315,"Ġ220":11316,"ĠmaxIndex":11317,"Ġvec":11318,"Ġ368":11319,"Ġ460":11320,"1179":11321,"Ġhy":11322,"1037":11323,"ĠĠĠĠĠĠĠĠĠĠĠĠĠĠĠĠĠĠĠĠĠĠĠĠĠĠĠĠĠĠĠĠĠĠĠĠĊ":11324,"digs":11325,"00060":11326,"Ġcool":11327,"Ġ715":11328,"Ġ649":11329,"2047":11330,"40600":11331,"4721":11332,"Ġisn":11333,"5709":11334,"678":11335,"athers":11336,"2987":11337,"ilon":11338,"5943":11339,"5931":11340,"538":11341,"Ġ105":11342,"5091":11343,"Ġtoddy":11344,"ĠwordDict":11345,"4100":11346,"4189":11347,"ãģ¿":11348,"Ġfinding":11349,"8129":11350,"6143":11351,"Ġrooms":11352,"ĠChef":11353,"4849":11354,"2551":11355,"2899":11356,"4519":11357,"8623":11358,"Ġtimedelta":11359,"8800":11360,"2261":11361,"Ġ2010000000":11362,"Ġ13440":11363,"ppp":11364,"modulo":11365,"Ġleaves":11366,"5857":11367,"5887":11368,"codechef":11369,"1103":11370,"5419":11371,"5469":11372,"Ġtextbooks":11373,"8233":11374,"Ġcached":11375,"ï¼¿":11376,"should":11377,"âĸĩ":11378,"40000600":11379,"buzz":11380,"Ġspell":11381,"ORS":11382,"ĠgoodNodes":11383,"æľĢçŁŃ":11384,"åĢĻ":11385,"Ġdividend":11386,"MAXN":11387,"(_)":11388,"Ġdescription":11389,"ronym":11390,"Ġrepresentation":11391,"Ġfives":11392,"{},{},":11393,"è®¡":11394,"Ġhistogram":11395,"percent":11396,"Ġsimilar":11397,"ĠCombination":11398,"Ġcontaining":11399,"ãĤ¹ãĥĪ":11400,"åĲĮãģĺ":11401,"Ġearli":11402,"Ġ'>':":11403,"Ġdimension":11404,"ä¸¤ä¸ª":11405,"è®°å½ķ":11406,"1234567890":11407,"Ġignore":11408,")^":11409,"715":11410,"970":11411,"Bou":11412,"Fennec":11413,"LV":11414,"Memo":11415,"TY":11416,"Tuple":11417,"UN":11418,"[~":11419,"]?":11420,"battery":11421,"ku":11422,"sidx":11423,"tens":11424,"targ":11425,"xn":11426,"Ġub":11427,"Ġ152":11428,"Ġnbs":11429,"Ġnsmallest":11430,"Ġcsoint":11431,"Ġpending":11432,"Ġmv":11433,"Ġtrees":11434,"Ġdm":11435,"elve":11436,"Ġbank":11437,"()-":11438,"Ġ221":11439,"Ġ246":11440,"Ġ245":11441,"Ġ271":11442,"())])":11443,"Ġjudge":11444,"Ġkwargs":11445,"Ġ310":11446,"Ġ341":11447,"Ġ440":11448,"Ġ466":11449,"getMax":11450,"ĠAlex":11451,"),'":11452,"Ġ880":11453,"Ġ869":11454,"Ġ84000000":11455,"9939":11456,"Ġ768":11457,"Ġ[]]":11458,"Ġ699":11459,"maxes":11460,"4080":11461,"2747":11462,"Ġ941":11463,"674":11464,"8051":11465,"]]=[":11466,"above":11467,"=[\"":11468,"acter":11469,"5129":11470,"Ġnewlist":11471,"\",\"\")":11472,"ĠnumberWays":11473,"2481":11474,"derr":11475,"4627":11476,"4463":11477,"865":11478,"8633":11479,"1299":11480,"newValue":11481,"ĠPrint":11482,"ĠPrime":11483,"['$":11484,"liver":11485,"Ġleap":11486,"Ġalive":11487,"Ġiterations":11488,"\"\"]":11489,"ToMake":11490,"Prof":11491,"Ġ40089":11492,"ilePossibilities":11493,"ĠlargestNumber":11494,"å¯¦":11495,"å¯©":11496,"å¯¶":11497,"10001":11498,"ĠsmallestRep":11499,"soldiers":11500,"frame":11501,"Ġcands":11502,"opened":11503,"Ġ4080020000":11504,"Ġcsofloat":11505,"å®Į":11506,"records":11507,"ä¹Ł":11508,"months":11509,"Ġ8000000040":11510,"unitDivByK":11511,"(\":\")":11512,"Aliens":11513,"ĠminDifference":11514,"basket":11515,"catenation":11516,"Ġanchor":11517,"ToMakeValid":11518,"ĠsmallestRepunitDivByK":11519,"*',":11520,",.":11521,"310":11522,"321":11523,"783":11524,"845":11525,"977":11526,"AI":11527,"Ad":11528,"Full":11529,"RM":11530,"_^":11531,"oe":11532,"rfind":11533,"third":11534,"xc":11535,"}]":11536,"}}":11537,"Ġrinput":11538,"Ġinpl":11539,"Ġincluded":11540,"stery":11541,"Ġfline":11542,"Ġcent":11543,"Ġ---------------------------------":11544,"alp":11545,"Ġbri":11546,"])}":11547,"Ġ'').":11548,"Ġ238":11549,"Ġ#[":11550,"ĠnumPairs":11551,"Ġ328":11552,"Ġ346":11553,"Ġgy":11554,"that":11555,"ĠTotal":11556,"Ġstrength":11557,"ĠArr":11558,"),-":11559,"Ġ533":11560,"Ġ513":11561,"Ġ847":11562,"Ġ851":11563,"Ġ763":11564,"Ġ680":11565,"Ġ655":11566,"4067":11567,"4097":11568,"234":11569,"176":11570,"1747":11571,"6033":11572,"6047":11573,"6031":11574,"Ġ9000":11575,"6793":11576,"1947":11577,"4947":11578,"2947":11579,"2963":11580,"2909":11581,"5359":11582,"6349":11583,"miny":11584,"5183":11585,")+\":":11586,"775":11587,"ĠgetLengthOf":11588,"trs":11589,"trump":11590,"2669":11591,"Ġlose":11592,"Ġpassword":11593,"predecessor":11594,"4449":11595,"ĠLine":11596,"2281":11597,"5667":11598,"Ġ20400000000":11599,"Ġ405020":11600,"6699":11601,"4233":11602,"4219":11603,"5443":11604,"ĠGame":11605,"6233":11606,"6263":11607,"nsmallest":11608,"Ġcls":11609,"Ġtranspose":11610,"Ġsoln":11611,"ãĤĴæ±Ĥ":11612,"ITS":11613,"osite":11614,"ĠRecursive":11615,"({'":11616,"accine":11617,"ĠpalindromePartition":11618,"Ġnumerals":11619,"ĠprocessQueries":11620,"CASE":11621,"Ġhtml":11622,"Ġpfc":11623,"horizontalCuts":11624,"æĿ¡":11625,"priority":11626,"Replace":11627,"Ġ4008200000":11628,"ãĤ°ãĥ©":11629,"(':'))":11630,"constant":11631,"CONT":11632,"Buzz":11633,"Ġnamedtuple":11634,"âī¤":11635,"OptimalCompression":11636,"DivisibleBy":11637,"Courses":11638,"ĠnumPairsDivisibleBy":11639,"ĠgetLengthOfOptimalCompression":11640,"ãĤ°ãĥ©ãĥķ":11641,")[(":11642,"/{":11643,"361":11644,"386":11645,"753":11646,"756":11647,"953":11648,"<{":11649,"Bus":11650,"Equ":11651,"Java":11652,"NTimes":11653,"Ret":11654,"Ship":11655,"]=[]":11656,"pw":11657,"port":11658,"psum":11659,"qsize":11660,"ring":11661,"tle":11662,"å¸":11663,"Ġris":11664,"deal":11665,"Ġcf":11666,"Ġ'!":11667,"ĠmaxDiff":11668,"Ġ318":11669,"Ġ489":11670,"Ġ461":11671,"Ġgain":11672,"1099":11673,"Ġ550":11674,"Ġ541":11675,"Ġ833":11676,"Ġ815":11677,"Ġ893":11678,"Ġ759":11679,"Ġ724":11680,"Ġ748":11681,"Ġ766":11682,"Ġ611":11683,"Ġ643":11684,"Ġ697":11685,"maxa":11686,"Ġorg":11687,"2767":11688,"2753":11689,"2309":11690,"1777":11691,"6030":11692,"6037":11693,"Ġ973":11694,"6799":11695,"4907":11696,"8731":11697,"8083":11698,"8073":11699,"2943":11700,"5907":11701,"5373":11702,"634":11703,"6307":11704,"Ġ104":11705,"Ġ1024":11706,"5043":11707,"emale":11708,"5147":11709,"4817":11710,"2889":11711,"2861":11712,"illy":11713,"linear":11714,"Ġoutside":11715,"4481":11716,"Ġquest":11717,"5519":11718,"8827":11719,"5643":11720,"Ġ201000":11721,"Ġ13200":11722,"Vals":11723,"2004":11724,"Ġaddition":11725,"Ġdishes":11726,"groupSizes":11727,"!!!!!!!":11728,"7511":11729,")},":11730,"ĠHappy":11731,"å°ĳ":11732,"Ġrolling":11733,"âĸĵ":11734,"Ġ200010000":11735,")+'\\":11736,"ĠVector":11737,"Ġcumul":11738,"ORE":11739,"Ġ12096":11740,"Perm":11741,"Ġmarker":11742,"workers":11743,"Ġencoded":11744,"____________________________________":11745,"Ġ40208070":11746,"ç´¢":11747,"ĠcombinationLength":11748,"ĠMinimum":11749,"Ġ'?':":11750,"RAW":11751,"ĠmaxVowels":11752,"aughter":11753,"Ġfuture":11754,"____________________________________________________________________________________________________":11755,"Ġopponent":11756,"NUMBER":11757,"åĮºéĸĵ":11758,"Ġdetect":11759,"Ġprocessed":11760,"Ġbananas":11761,"Ġspellchecker":11762,"ĠCombinationIterator":11763,"+\\\"":11764,"710":11765,"917":11766,"957":11767,"959":11768,"GR":11769,"HS":11770,"Op":11771,"Red":11772,"SS":11773,"TO":11774,"Ta":11775,"Vowels":11776,"bfour":11777,"dv":11778,"fu":11779,"fol":11780,"nfour":11781,"qs":11782,"Ġ][":11783,"Ġck":11784,")))]":11785,")))):":11786,"Ġdump":11787,"Ġbp":11788,"Ġ==\"":11789,"Ġ252":11790,"mpty":11791,"())-":11792,"Ġ361":11793,"numb":11794,"Ġ448":11795,"Ġ468":11796,"Ġ400000000000":11797,"Ġyb":11798,"forest":11799,"1177":11800,"ĠminRemove":11801,"1071":11802,"(([":11803,"ĠcurProfit":11804,"dia":11805,"Ġ525":11806,"Ġ821":11807,"Ġ816":11808,"ĠNote":11809,"Ġ747":11810,"Ġ789":11811,"ĠFact":11812,"cha":11813,"4043":11814,"4050":11815,"4061":11816,"40400":11817,"4071":11818,"roman":11819,"6063":11820,"Ġ933":11821,"Ġ953":11822,"5759":11823,"8793":11824,"8071":11825,"2937":11826,"836":11827,"cod":11828,"using":11829,"ems":11830,"2187":11831,"ĠMMM":11832,"ĠCt":11833,"2453":11834,"2441":11835,"2813":11836,"4617":11837,"4659":11838,"Ġunhappy":11839,"4419":11840,"556":11841,"8811":11842,")*((":11843,"1899":11844,"5843":11845,"1411":11846,"Ġmov":11847,"Dictionary":11848,"Ġalign":11849,"angular":11850,"achine":11851,"4269":11852,"ĠOP":11853,"8400000":11854,"Ġcompanies":11855,"creen":11856,"novowels":11857,"Ġ^_^":11858,"complement":11859,"afour":11860,"å°Ģ":11861,"Ġ2004000":11862,"Ġ8004700":11863,"ĠnumTilePossibilities":11864,"Ġdecrypt":11865,"Ġrotates":11866,"ORD":11867,"flips":11868,"soldier":11869,"Ġ400000800":11870,"lexity":11871,"Ġapples":11872,"Ġgreeting":11873,"483647":11874,"Ġgreedy":11875,"ç»Ń":11876,"Ġpossibilities":11877,"region":11878,"Ġ20000000400":11879,"Ġ\"*\"":11880,"('*',":11881,"ãģ£ãģŁ":11882,"senger":11883,"verticalCuts":11884,"ç¬¦":11885,"ĠrepeatedNTimes":11886,"lablablablab":11887,"çµĲ":11888,"Ġshelf":11889,"Ġradius":11890,"ĠFastIO":11891,"ĠminRemoveToMakeValid":11892,"!'.":11893,".',":11894,"767":11895,"933":11896,"947":11897,"943":11898,"?'":11899,"Gr":11900,"HER":11901,"Lst":11902,"Ramp":11903,"Trip":11904,"brr":11905,"gx":11906,"wick":11907,"ince":11908,"Ġrgt":11909,"sens":11910,"streak":11911,"Ġfy":11912,"Ġpack":11913,"Ġpushed":11914,"Ġsal":11915,"Ġsatisf":11916,"require":11917,"Ġancestor":11918,"Ġ381":11919,"ulu":11920,"Ġgond":11921,"ĠTODO":11922,"ĠcurOrder":11923,"Ġ589":11924,"Ġ548":11925,"Ġ864":11926,"Ġ711":11927,"Ġ760":11928,"Ġ751":11929,"Ġ661":11930,"Ġ625":11931,"Ġ615":11932,"2063":11933,"20400":11934,"1319":11935,"Ġ916":11936,"Ġ986":11937,"Ġ966":11938,"Ġ903":11939,"594":11940,"Ġcollatz":11941,"6907":11942,"6343":11943,"8377":11944,"ources":11945,"Ġchakra":11946,"img":11947,"ĠCan":11948,"ĠtotalCost":11949,"2619":11950,"4847":11951,"4883":11952,"Ġkeyboard":11953,"ĠDist":11954,"Coin":11955,"collect":11956,"ĠKruskal":11957,"0000000000000":11958,"','+":11959,"','.":11960,"1289":11961,"connections":11962,"Ġidxes":11963,"Ġ407":11964,"subsequence":11965,"1459":11966,"4223":11967,"4287":11968,"5269":11969,"casefold":11970,"!!!!\"":11971,"6299":11972,"6247":11973,"cipe":11974,"IND":11975,"ĠremoveDuplicates":11976,"Ġ24000000":11977,"Ġ20043":11978,"Ġ20007000":11979,"multi":11980,"åĲĦ":11981,"Ġtrace":11982,"failed":11983,"Ġremainders":11984,"segments":11985,"Ġaccess":11986,"biggest":11987,"needle":11988,"DIG":11989,"Starting":11990,"sinx":11991,"Ġtwice":11992,"ï¼ģï¼ģ":11993,"Ġunittest":11994,"åİĨ":11995,"(\",\")":11996,"çŃĶ":11997,"Ġoptimization":11998,"ĠmaxWidthRamp":11999,"çĦ¶åĲİ":12000,"ĠOtherwise":12001,"åĽłä¸º":12002,"Ġhypot":12003,"10000000000":12004,"355":12005,"6000000000":12006,"979":12007,"930":12008,"986":12009,"BST":12010,"Me":12011,"Pas":12012,"PRIMES":12013,"World":12014,"gb":12015,"lg":12016,"lol":12017,"lca":12018,"nay":12019,"sup":12020,"sym":12021,"wl":12022,"|{":12023,"ç«":12024,"Ġpun":12025,"Ġmakes":12026,"Ġslice":12027,"reps":12028,"Ġ'**":12029,"Ġ261":12030,"Ġstored":12031,"Ġks":12032,"Ġ312":12033,"strftime":12034,"geta":12035,"ĠĠĠĠĠĠĠĠĠĠĠĠĠĠĠĠĠĠĠĠĠĠĠĠĠĠĠĠĠĠĠĠĠĠĠĠĠĠĠĠĠĠĠ":12036,"Ġ558":12037,"Ġ813":12038,"maps":12039,"Ġ[]):":12040,"Ġ60000000":12041,"4059":12042,"2723":12043,"Ġey":12044,"2373":12045,"2371":12046,"172":12047,"Ġ949":12048,"Ġ943":12049,"5707":12050,"6749":12051,"6703":12052,"4969":12053,"8087":12054,"opp":12055,"8963":12056,"Ġbeers":12057,"=[[-":12058,"5027":12059,"5097":12060,"2127":12061,"Ġchains":12062,"Ġzc":12063,"ĠgetProbability":12064,"icense":12065,"302":12066,"ĠĠĠĠĠĠĠĠĠĠĠĠĠĠĠĠĠĠĠĠĠĠĊ":12067,"4443":12068,"Ġexc":12069,"562":12070,"5687":12071,"5659":12072,"subseq":12073,"Ġmoved":12074,"6857":12075,"ĠIs":12076,"codewars":12077,"Ġiterable":12078,"6427":12079,"Ġ803000":12080,"840000":12081,"8459":12082,"400060":12083,"unnel":12084,"Ġcompression":12085,"800060":12086,"Ġperimeter":12087,"Ġclusters":12088,"aily":12089,"ĠĠĠĠĠĠĠĠĠĠĠĠĠĠĠĠĠĠĠĠĠĠĠĠĠĠĠĠĠĠĠĠĠĠĠĠĠĠĠĠĠĠĠĠĠĠĠĠĠĠĠĠĠĠĠĠĠĠĠĠĠĠĠĠ":12090,"]}\"":12091,"ä»¬":12092,"Ġevaluate":12093,"Ġshifting":12094,"hashmap":12095,"Ġbracket":12096,"})'":12097,"izzas":12098,"Ġfinished":12099,"ä¸įèĥ½":12100,"éĢļ":12101,"Ġtruediv":12102,"æĪĳ":12103,"ãĤĤãģ®":12104,"åĨį":12105,"chunks":12106,"æĮĩ":12107,"CLOSED":12108,"ĠDijkstra":12109,"Ġdollars":12110,"éģįåİĨ":12111,"+)',":12112,"-',":12113,"654":12114,"749":12115,"728":12116,"969":12117,"941":12118,"961":12119,"Customer":12120,"Current":12121,"En":12122,"Fe":12123,"Flag":12124,"fire":12125,"jp":12126,"kid":12127,"mber":12128,"margin":12129,"pages":12130,"rad":12131,"xb":12132,"|=":12133,"Ġ)))":12134,"ı¾":12135,"Ġrsum":12136,"stderr":12137,"Ġcate":12138,"Ġcus":12139,"ario":12140,"erase":12141,"))%(":12142,"alist":12143,"Ġthickness":12144,"ato":12145,"lenght":12146,"Ġlon":12147,"Ġlhs":12148,"Ġanagram":12149,"])[::-":12150,"Ġ(_":12151,"arri":12152,"Ġ\"):":12153,"Ġ\"**":12154,"ĠkCon":12155,"Ġ469":12156,"idak":12157,"ĠTwo":12158,"1057":12159,"Ġcurnode":12160,"Ġ549":12161,"Ġ825":12162,"Ġ710":12163,"Ġ728":12164,"Ġ623":12165,"Ġ641":12166,"2091":12167,"Ġori":12168,"2707":12169,"terms":12170,"1789":12171,"6083":12172,"Ġ947":12173,"Ġ924":12174,"Ġ915":12175,"5791":12176,"5371":12177,"\\\"))":12178,"abbits":12179,"5051":12180,"john":12181,"daught":12182,"ĠstartIndex":12183,"ĠnewNode":12184,"omic":12185,"2427":12186,"4843":12187,"4859":12188,"parentheses":12189,"2543":12190,"Ġ[[],":12191,"nexts":12192,"Ġoutcome":12193,"8657":12194,"8863":12195,"5817":12196,"Ġ80400000":12197,"84000":12198,"Stream":12199,"ratings":12200,"lsofloat":12201,"lsoint":12202,"Ġ\\\")":12203,"å°Ĩ":12204,"pows":12205,"Ġlsofloat":12206,"Ġ40008060":12207,"Ġdirec":12208,"ĠshortestCommon":12209,"Ġ40201000":12210,"âĸĢ":12211,"Ġmergesort":12212,"')]*(":12213,"Ġworking":12214,"Ġlooking":12215,"åı·":12216,"puzzles":12217,"ĠRead":12218,"Ġappear":12219,"Ġactually":12220,"Ġæī":12221,"chool":12222,"åĬĽ":12223,"robot":12224,"Ġlenghts":12225,"Ġfrog":12226,"Supersequence":12227,"æ²¡æľī":12228,"arshad":12229,"catenationMaxSum":12230,"ĠkConcatenationMaxSum":12231,"daughter":12232,"ĠshortestCommonSupersequence":12233,"(\\\"\\\"":12234,"++)":12235,"626":12236,"759":12237,"724":12238,"949":12239,"980":12240,"973":12241,"Ball":12242,"Begin":12243,"Created":12244,"FT":12245,"^\"":12246,"flow":12247,"floordiv":12248,"hood":12249,"lon":12250,"ners":12251,"smo":12252,"suff":12253,"slow":12254,"symbols":12255,"tell":12256,"uched":12257,"æı":12258,"éĺ":12259,"Ĭ¶":12260,"increase":12261,"Ġinbuf":12262,"stick":12263,"Ġfarm":12264,"Ġnw":12265,"Ġph":12266,"Ġpw":12267,"Ġmak":12268,"alty":12269,"Ġtour":12270,"Ġlval":12271,"Ġ(*":12272,"Ġ268":12273,"],-":12274,"ĠmaxL":12275,"Ġ\"_":12276,"Ġ345":12277,"Ġ453":12278,"Ġ425":12279,"Ġ418":12280,"Ġ40000000000":12281,"isPrime":12282,"Ġmina":12283,"Ġminheap":12284,"Ġha":12285,"Ġ528":12286,"Ġ820":12287,"Ġ8000000000":12288,"('_":12289,"Ġ755":12290,"Ġ657":12291,"Ġ669":12292,"4063":12293,"1343":12294,"1353":12295,"2303":12296,"5743":12297,"8067":12298,"8070":12299,"ily":12300,"ilver":12301,"5399":12302,"6979":12303,"834":12304,"minn":12305,"perms":12306,"5081":12307,"setitem":12308,"Ġenum":12309,"Ġboat":12310,"5149":12311,"6149":12312,"]+)":12313,"))).":12314,"154":12315,"1633":12316,"1247":12317,"5581":12318,"inside":12319,"5663":12320,"Ġlev":12321,"5861":12322,"Ġalong":12323,"ĠprimePalindrome":12324,"5233":12325,"6499":12326,"ĠOR":12327,"6523":12328,"ĠGiven":12329,"Ġremains":12330,"Ġfactorize":12331,"Ġ\\\"*\\\"":12332,"shoot":12333,"Ġ800400":12334,"ĠsmallestRange":12335,"Ġ4020807":12336,"masks":12337,"å¤ī":12338,"Ġtriplet":12339,"æľĢåĲİ":12340,"Ġfolders":12341,"otein":12342,"Ġsignature":12343,"Ġincr":12344,"links":12345,"Interval":12346,"Ġfiltered":12347,"Ġaxis":12348,"ĠcanReach":12349,"Ġ9072":12350,"ãĤĴæ±ĤãĤģãĤĭ":12351,"æĿ¡ä»¶":12352,")'''":12353,".`":12354,"093":12355,"325":12356,"388":12357,"358":12358,"6400":12359,"726":12360,"Series":12361,"Version":12362,"]\"":12363,"chickens":12364,"rindex":12365,"tod":12366,"tile":12367,"ä¿":12368,"orelist":12369,"Ġreally":12370,"Ġft":12371,"Ġ164":12372,"))[-":12373,"Ġladd":12374,"Ġ'&":12375,"rod":12376,"apple":12377,"mex":12378,"ĠSE":12379,"1133":12380,"ĠminC":12381,"Ġcounters":12382,"getValue":12383,"Ġ588":12384,"Ġ741":12385,"ĠFOR":12386,"chance":12387,"4049":12388,"406000":12389,"escape":12390,"2733":12391,"4707":12392,"1397":12393,"178":12394,"Ġ959":12395,"6723":12396,"2929":12397,"2977":12398,"6903":12399,"638":12400,"6379":12401,"8389":12402,"abb":12403,"=[],[]":12404,"5067":12405,"5093":12406,"4181":12407,"irls":12408,"ãģĬ":12409,"Ġud":12410,"ĠMemo":12411,"ĠCoding":12412,"ĠtotalSum":12413,"2553":12414,"Ġprov":12415,"Ġproper":12416,"4649":12417,"Ġunits":12418,"8669":12419,"Ġexperience":12420,"1249":12421,"1243":12422,"1259":12423,"conf":12424,"conn":12425,"5653":12426,"newX":12427,"Ġ2040":12428,"Ġ2070000":12429,"1800":12430,"childs":12431,"ĠPok":12432,"2001":12433,"6611":12434,"582":12435,"1433":12436,"1419":12437,"Ġcombo":12438,"ĠImplement":12439,"4229":12440,"5299":12441,")]).":12442,"comment":12443,"NOT":12444,"Ġbyte":12445,"Ġ5040":12446,"bees":12447,"Ġ800400000":12448,"Ġ402010":12449,"Ġ4020848":12450,"eleven":12451,"])+\"":12452,"ĠupdateSubrectangle":12453,"è¿ĺ":12454,"æĺİ":12455,"æĺ¯åĲ¦":12456,"ATTER":12457,"denom":12458,"ggle":12459,"Ġbeginning":12460,"Ġ80000460":12461,"eqn":12462,"æłĪ":12463,"needs":12464,"ĠsubarraysDivByK":12465,"å·²":12466,"Ġlinked":12467,"Ġ10752":12468,"ä¹ĭ":12469,"æĹ¶åĢĻ":12470,"ĠfindKthPositive":12471,"Alien":12472,"ĠABC":12473,"ãģłãģĳ":12474,"çŃī":12475,"Ġterminal":12476,"Location":12477,"Middle":12478,"frozenset":12479,"Ġexecute":12480,"Ġcorresponding":12481,"closed":12482,"Ġhamming":12483,"ĠBuild":12484,"'m":12485,"'ll":12486,")'":12487,"741":12488,"919":12489,"989":12490,"966":12491,"Deg":12492,"Low":12493,"UP":12494,"gon":12495,"impossible":12496,"mv":12497,"pm":12498,"save":12499,"thickness":12500,"tactics":12501,"venty":12502,"éļ":12503,"include":12504,"Ġ=(":12505,"degrees":12506,"Ġcars":12507,"Ġmer":12508,"Ġmirror":12509,"Ġspoon":12510,"Ġdz":12511,"Ġ':'":12512,"()],":12513,"Ġ236":12514,"lash":12515,"Ġxmin":12516,"ĠSieve":12517,"ĠmaxP":12518,"Ġ338":12519,"Ġ441":12520,"1118":12521,"Ġgn":12522,"ĠminHeap":12523,"thm":12524,"strand":12525,"Ġ507":12526,"Ġ899":12527,"Ġ860":12528,"Ġ848":12529,"Ġ896":12530,"2089":12531,"4041":12532,"2709":12533,"1377":12534,"ĠisS":12535,"6089":12536,"Ġ957":12537,"Ġ989":12538,"8757":12539,"8089":12540,"8063":12541,"8021":12542,"8031":12543,"298":12544,"6943":12545,"6961":12546,"]]>":12547,"\\\"],[\\\"":12548,"5053":12549,"5083":12550,"2149":12551,"6167":12552,"ĠnewS":12553,"ĠMat":12554,"ĠgetPower":12555,"2651":12556,"4559":12557,"<=(":12558,"Ġmemoization":12559,"conv":12560,"ĠtimePoints":12561,"8857":12562,"8841":12563,"2259":12564,"...\"":12565,"4001":12566,"Ġ209":12567,"Ġ135":12568,"5811":12569,"Ġfacts":12570,"Ġparameter":12571,"Ġalist":12572,"5287":12573,"5259":12574,"6599":12575,")==(":12576,"8283":12577,"Ġ10080":12578,"ĠWr":12579,"Ġ400824":12580,"Ġtrying":12581,"Ġprefixes":12582,"ĠEach":12583,"ĠXY":12584,"company":12585,"Less":12586,"Ġbitmask":12587,"Ġpartic":12588,"simple":12589,"Ġsplits":12590,"Ġ36400400":12591,"Ġtriangles":12592,"ptrs":12593,"Ġbuildings":12594,"ALL":12595,"evap":12596,"Ġ2004800000":12597,"Ġfibonacci":12598,"osthen":12599,"????":12600,"snake":12601,"Ġ\"%\":":12602,"Ġchunks":12603,"Ġ'^':":12604,"Ġ4802041":12605,"hythm":12606,"camel":12607,"è¶³":12608,"ĠIterate":12609,"âĸĩï¼¿":12610,"osthenes":12611,"')),":12612,",),":12613,"033":12614,"381":12615,"645":12616,"716":12617,"755":12618,"910":12619,">>=":12620,"BG":12621,"Dig":12622,"Flowers":12623,"Occ":12624,"Tra":12625,"brown":12626,"larger":12627,"song":12628,"treturn":12629,"xj":12630,"Ð»":12631,"Ð½":12632,"ç©":12633,"Ġum":12634,"Ġir":12635,"orial":12636,"Ġincome":12637,"Ġreset":12638,"Ġ175":12639,"arder":12640,"gether":12641,"enemy":12642,"Ġsources":12643,"Ġbmax":12644,"iterate":12645,"Ġlx":12646,"undy":12647,"Ġ218":12648,"Ġ272":12649,"ĠnumSubarrays":12650,"meet":12651,"Ġkid":12652,"Ġ321":12653,"Ġ335":12654,"isSubPath":12655,"Ġyoun":12656,"Ġymax":12657,"Ġmindist":12658,"ĠTra":12659,")];":12660,"!=[":12661,"':-":12662,"Ġ881":12663,"Ġ886":12664,"Ġ855":12665,"Ġ8400000":12666,"994":12667,"Ġ716":12668,"Ġ651":12669,"Ġ672":12670,"2049":12671,"2015":12672,"Ġ:)":12673,"2793":12674,"4709":12675,"1357":12676,"174":12677,"1723":12678,"6097":12679,"Ġ928":12680,"Ġ968":12681,"8737":12682,"8053":12683,"8097":12684,"8979":12685,"8359":12686,"Ġ10200000":12687,"cosx":12688,"5049":12689,"5059":12690,"iron":12691,"quad":12692,"Ġchosen":12693,"8161":12694,")))%":12695,"2423":12696,"ĠgetSum":12697,"rowIn":12698,"]*((":12699,"2547":12700,"2853":12701,"2841":12702,"4647":12703,"4653":12704,"4663":12705,"venue":12706,"1617":12707,"4467":12708,"Ġexclude":12709,"1219":12710,"5559":12711,"8817":12712,"5699":12713,"40030":12714,"newa":12715,"Ġ40200000":12716,"Ġtruth":12717,"Ġmodified":12718,"tempts":12719,"ĠRun":12720,"4261":12721,"5257":12722,"5243":12723,"5253":12724,"ĠgroupSizes":12725,"Ġ8064":12726,"5427":12727,"8423":12728,"Ġ1001":12729,"6269":12730,"Ġ990":12731,"ĠĠĠĠĠĠĠĠĠĠĠĠĠĠĠĠĠĠĠĠĠĠĠĠčĊ":12732,"ãģ®ãĤ":12733,"ãģ®ãģ§":12734,"Ġperfect":12735,"9233":12736,"Ġtransform":12737,"Ġ4802400":12738,"......\",\"...":12739,"ĠVIS":12740,"...\",\"......":12741,"ERR":12742,"cumSum":12743,"\"],[\"........":12744,"'),('":12745,"å¤´":12746,"è¿ŀ":12747,"Ġslot":12748,"END":12749,"Ġterms":12750,"Once":12751,"destination":12752,"dividend":12753,"azine":12754,"trace":12755,"æł¹":12756,"Ġbulb":12757,"Disjoint":12758,"Ġ100000020":12759,"Ġ12240":12760,"reachable":12761,"Ġrelative":12762,"Ġoccupied":12763,"Ġ4810000":12764,"ãĤĪãģĨ":12765,"tributes":12766,"Ġ20160000":12767,"ĠmaxAbs":12768,"lasses":12769,"Ġreduced":12770,"Ġoldest":12771,"èī²":12772,"['$']":12773,"\")]":12774,"'%":12775,"(%":12776,".\")":12777,"5000000":12778,"718":12779,"766":12780,"920":12781,"927":12782,"950":12783,"916":12784,"Any":12785,"FI":12786,"Fizz":12787,"Obj":12788,"Solve":12789,"Tr":12790,"cin":12791,"cry":12792,"dw":12793,"eat":12794,"gc":12795,"garden":12796,"imp":12797,"vow":12798,"Ġinstru":12799,"Ġfp":12800,"Ġnf":12801,"Ġcare":12802,"Ġpierre":12803,"aliens":12804,"Ġsf":12805,"Ġaug":12806,"hips":12807,"rics":12808,"Ġmaxheap":12809,"Ġview":12810,"ording":12811,"1059":12812,"1051":12813,"Ġsen":12814,"Ġ580":12815,"Ġ524":12816,"Ġ526":12817,"Ġ537":12818,"Ġ8192":12819,"Ġ767":12820,"Ġ620":12821,"Ġ686":12822,"2070":12823,"40600000":12824,"2739":12825,"6027":12826,"6053":12827,"Ġ969":12828,"Ġ963":12829,"5749":12830,"6779":12831,"1919":12832,"8047":12833,"8091":12834,"4377":12835,"6900":12836,"6361":12837,"8343":12838,"8383":12839,"(\".\"":12840,"ĠcurrMin":12841,"Ġ1026":12842,"[:,":12843,"Ġlogs":12844,"4853":12845,"4861":12846,"Ġthing":12847,"2583":12848,"2561":12849,"30200":12850,"4529":12851,"Ġunvisited":12852,"158":12853,"','',":12854,"8647":12855,"wealth":12856,"554":12857,"5587":12858,"5563":12859,"Ġ204":12860,"rangeData":12861,"5849":12862,"ĠInt":12863,"']**":12864,"5251":12865,"6433":12866,"5461":12867,"ĠWith":12868,"avings":12869,"Ġbacks":12870,"Ġ4802000000":12871,"åĲ«":12872,"Ġsplitted":12873,"Ġspin":12874,"WithSum":12875,"Ġmonotonic":12876,"å¤Ħ":12877,"ĠMAP":12878,"240800":12879,"Ġ7680":12880,"ãģ§ãģį":12881,"ĠProblem":12882,"=\"\".":12883,">>>":12884,"segfunc":12885,"Ġgolds":12886,"choices":12887,"Ġeverything":12888,"ARS":12889,"Ġsomething":12890,"Ġ11340":12891,"Ġprior":12892,"'[^":12893,"å½¢":12894,"DIR":12895,"Ġrtn":12896,"ĠmaxSoFar":12897,"puzzlebox":12898,"ELTA":12899,"Ġholds":12900,"110100101100110100101101001100101100110100110010110100101100110100110010110011010010110100110010":12901,"Smallest":12902,"Ġseparator":12903,"Ġargument":12904,"Triang":12905,"Ġfurther":12906,"1123581347":12907,"pinski":12908,"Ġ\"**\":":12909,"ĠnumSubarraysWithSum":12910,"ĠVISIT":12911,"110100101100110100101101001100101100110100110010110100101100110100110010110011010010110100110010110011010011001011010010110011010010110100110010110100101100110100110010110011010010110100110010":12912,"']=":12913,"+\":":12914,",(-":12915,"344":12916,"385":12917,"628":12918,"786":12919,"Calc":12920,"OST":12921,"PM":12922,"RL":12923,"ae":12924,"dn":12925,"fb":12926,"lif":12927,"nCr":12928,"rhs":12929,"td":12930,"warm":12931,"}!\".":12932,"éħ":12933,"inorder":12934,"Ġrans":12935,"Ġij":12936,"dept":12937,"Ġ185":12938,"Ġnh":12939,"Ġcu":12940,"Ġcoun":12941,"Ġcash":12942,"george":12943,"onor":12944,"Ġmend":12945,"altf":12946,"Ġsuf":12947,"Ġtag":12948,"Ġbk":12949,"Ġbot":12950,"istmas":12951,"reat":12952,"Ġ'\"":12953,"Ġ((-":12954,"Ġ234":12955,"Ġ200000000000":12956,"arrs":12957,"Ġstrip":12958,"Ġjs":12959,"Ġresolve":12960,"Ġ\"{:":12961,"Ġ322":12962,"Ġ301":12963,"Ġ336":12964,"1131":12965,"Ġsecret":12966,"Ġ546":12967,"Ġ586":12968,"Ġ837":12969,"9967":12970,"9943":12971,"Ġ746":12972,"3327":12973,"Ġ646":12974,"Ġ6600":12975,"Ġorange":12976,"4083":12977,"1303":12978,"uplets":12979,"ters":12980,"Ġ910":12981,"Ġ920":12982,"Ġ926":12983,"4903":12984,"80600000":12985,"6939":12986,"')-":12987,"8959":12988,"8303":12989,"abcd":12990,"5057":12991,"5029":12992,"5021":12993,"Ġpred":12994,"quant":12995,"Ġuunion":12996,"6153":12997,"ima":12998,"ĠMM":12999,"2447":13000,"48000":13001,"4823":13002,"4829":13003,"2829":13004,"2821":13005,"colIn":13006,"306":13007,"302000":13008,"4451":13009,"InTree":13010,"8617":13011,"8823":13012,"8843":13013,"8869":13014,"Ġ4070000":13015,"ODE":13016,"6633":13017,"1423":13018,"6823":13019,"6469":13020,"5441":13021,"Stones":13022,"ĠGener":13023,"Ġcomplement":13024,"Ġ10024":13025,"]),(":13026,"NORE":13027,"Ġinstances":13028,"bitmap":13029,"scale":13030,"Ġanything":13031,"å¯¨":13032,"Ġtestcase":13033,"Ġ\\\".":13034,"Arrays":13035,"lowest":13036,"wrong":13037,"Ġ480000":13038,"('-',":13039,"åıĺ":13040,"ĠmaximumSum":13041,"ITE":13042,"Perimeter":13043,"å±ŀ":13044,"Ġblank":13045,"Ġvisiting":13046,"LEN":13047,"Ġloops":13048,"bltf":13049,"Ġextract":13050,"Ġslots":13051,"Ġ201080":13052,"ART":13053,"Ġglob":13054,"Ġ11760":13055,"Example":13056,"Ġsaint":13057,"twelve":13058,"Ġbullet":13059,"Ġ11520":13060,"termine":13061,"éĹ®":13062,"Ġdirectly":13063,"ĠreachableNodes":13064,"Ġimg":13065,"Ġ'|'":13066,".*?":13067,"ĠsumOfDistances":13068,"passengers":13069,"#########################":13070,"bouquets":13071,"ĠStopIteration":13072,"æŁ¥":13073,"ĠshiftingLetters":13074,"éħį":13075,"Ġmendnow":13076,"ĠsumOfDistancesInTree":13077,")][::-":13078,"*)":13079,"326":13080,"346":13081,"746":13082,"822":13083,"963":13084,"9000000":13085,"=\\\",":13086,">\"":13087,"OT":13088,"bonus":13089,"bribes":13090,"fp":13091,"lation":13092,"uation":13093,"çĬ¶":13094,"invert":13095,"Ġran":13096,"Ġib":13097,"Ġincluding":13098,"stmp":13099,"students":13100,"ann":13101,"Ġnice":13102,"Ġnull":13103,"erpinski":13104,"Ġdaughter":13105,"Ġbarrier":13106,"Ġlibr":13107,"Ġasum":13108,"Ġ2100":13109,"Ġstorage":13110,"edInteger":13111,"Ġjk":13112,"ĠnumM":13113,"Ġmaxn":13114,"Ġvl":13115,"Ġ356":13116,"Ġ314":13117,"Ġ385":13118,"Ġ392":13119,"ulating":13120,"Ġ414":13121,"entry":13122,"1187":13123,"splits":13124,"Ġhsh":13125,"Ġhost":13126,"Ġ520":13127,"Ġ515":13128,"Ġ800000000000":13129,"9977":13130,"Ġ781":13131,"Ġ726":13132,"Ġ%.":13133,"Ġ681":13134,"maxindex":13135,"4051":13136,"Ġei":13137,"tery":13138,"6061":13139,"Ġ981":13140,"Ġ955":13141,"1907":13142,"8777":13143,"8779":13144,"8023":13145,"4379":13146,"Ġcollection":13147,"6949":13148,"8989":13149,"8971":13150,"peech":13151,"Ġpress":13152,"000006":13153,"6157":13154,"Ġ______________________________________________________________________________________________________":13155,"Ġzigzag":13156,"2468":13157,"estedInteger":13158,"\":(":13159,"250000":13160,"2529":13161,"2581":13162,"4621":13163,"440000":13164,"8629":13165,"1283":13166,"timePoints":13167,"Ġmatr":13168,"5517":13169,"8813":13170,"Ġweather":13171,"1823":13172,"ĠPM":13173,"20040":13174,"inals":13175,"1107":13176,"5429":13177,"ä¸²":13178,"Ġcodes":13179,"Ġlocs":13180,"Ġwhites":13181,"chess":13182,"transform":13183,"âĸĦ":13184,"Ġspot":13185,"Ġdynamic":13186,"Ġ8960":13187,"Ġ'-',":13188,"'}.":13189,"Ġ9360":13190,"Ġplaces":13191,"Ġmatching":13192,"combine":13193,"Ġ80004060":13194,"repet":13195,"AllKeys":13196,"ä»¥ä¸Ĭ":13197,"Expr":13198,"ĠshortestPathAllKeys":13199,"Ġcutoff":13200,"Ġ11088":13201,"è¾¾":13202,"terminal":13203,"eighteen":13204,"fronts":13205,"Ġ1020068":13206,"Neighbor":13207,"ãĤĪãĤĬ":13208,"Ġfailure":13209,"Ġframes":13210,"Ġabsolute":13211,"directed":13212,"è¿ĶãģĻ":13213,"nineteen":13214,"Ġastero":13215,"ĠcheckIfCan":13216,"REGEX":13217,"è®¡ç®Ĺ":13218,")<<":13219,"+\\":13220,"-\\":13221,".)\\":13222,"2409":13223,":/":13224,"Ser":13225,"Teams":13226,"VE":13227,"_))":13228,"`,":13229,"aze":13230,"btw":13231,"every":13232,"fam":13233,"hcf":13234,"iel":13235,"kh":13236,"norm":13237,"video":13238,"yout":13239,"Ġè¿Ļ":13240,"Ġil":13241,"Ġinversions":13242,"leap":13243,"ongs":13244,"intain":13245,"regex":13246,"Ġluck":13247,"Ġwc":13248,"Ġwal":13249,"Ġwomen":13250,"Ġ231":13251,"][:]":13252,"endOfWord":13253,"Ġxt":13254,"Ġoct":13255,"ĠmaxIn":13256,"Ġ\"\").":13257,"Ġvel":13258,"Ġ351":13259,"Ġ444":13260,"Ġ4200":13261,"Ġ475":13262,"ison":13263,"Ġminlen":13264,"Ġhttp":13265,"Ġ5376":13266,"Ġ868":13267,"Ġ8406":13268,"334":13269,"Ġ658":13270,"2757":13271,"Ġeps":13272,"1301":13273,"ĠisPowerOf":13274,"Ġdices":13275,"676":13276,"1971":13277,"8029":13278,"4399":13279,"Ġcollision":13280,"')])":13281,"')==":13282,"8387":13283,"8397":13284,"abin":13285,"5047":13286,"addEdge":13287,"4163":13288,"Ġnews":13289,"Ġcontrol":13290,"Ġ{}:":13291,"Ġzo":13292,"Ġdistribution":13293,"2881":13294,"308":13295,"raise":13296,"4553":13297,"8641":13298,"8621":13299,"1257":13300,"conor":13301,"contest":13302,"consonants":13303,"5523":13304,"5567":13305,"8899":13306,"Ġsubsequences":13307,"Ġsubmatrices":13308,"Ġgraphs":13309,"Ġ136":13310,"ValExpr":13311,"5819":13312,"5821":13313,"ĠIO":13314,"Ġiterator":13315,"4253":13316,"6417":13317,"Ġ605":13318,"8427":13319,"8413":13320,"Store":13321,"6587":13322,"Ġdelimit":13323,"ĠGo":13324,"ĠWindow":13325,"Ġ40080000":13326,"Ġ9984":13327,"Ġ3060200":13328,"Ġcalculated":13329,"å¯¡":13330,"note":13331,"Ġ240000030":13332,"cessful":13333,"Ġ20001000":13334,"Ġ804027":13335,"]}'":13336,"ãģ«ãģªãĤĭ":13337,"------------------------":13338,"Ġprere":13339,"updateSubrectangle":13340,"Ġ400000200000":13341,"Ġemptystring":13342,"ffff":13343,"gregor":13344,"fourteen":13345,"persons":13346,",[]":13347,"Ġachi":13348,"........\",\"........":13349,"éĢī":13350,"Ġregion":13351,"Ġlazy":13352,"LMNF":13353,"11010010110011010010110100110010110011010011001011010010110011010010110100110010110100101100110100110010110011010010110100110010":13354,"unittest":13355,"histogram":13356,"Ġ~(":13357,"Ġ'?'":13358,"(','.":13359,"Ġleading":13360,"OVE":13361,"TestCase":13362,"Ġ80046000":13363,"Ġonleftl":13364,"###############################################################################":13365,"Ġmeeting":13366,"thirteen":13367,"Ġstrict":13368,"æĬĬ":13369,"ĠNUMBER":13370,"Refuel":13371,"ATTERN":13372,"ĠmaxAbsValExpr":13373,"\"},":13374,"\"+\"":13375,"#',":13376,"928":13377,"<>":13378,"HITE":13379,"Oi":13380,"Pls":13381,"ales":13382,"battle":13383,"citations":13384,"don":13385,"gi":13386,"gly":13387,"mr":13388,"rv":13389,"rings":13390,"sink":13391,"sqr":13392,"tdef":13393,"yt":13394,"zies":13395,"|[":13396,"Ñĥ":13397,"ining":13398,"Ġrng":13399,"anded":13400,"Ġrear":13401,"details":13402,"Ġreturned":13403,"ĠpC":13404,"Ġpizza":13405,"Ġdaily":13406,"unt":13407,"Ġ[[(":13408,"Ġ[\"\"]":13409,"Ġ214":13410,"Ġ282":13411,"Ġxmax":13412,"00006":13413,"Ġkm":13414,"Ġ426":13415,"isValid":13416,"Ġgod":13417,"explore":13418,"Ġarrive":13419,"Ġtheta":13420,"ĠAM":13421,"Ġ518":13422,"998244353":13423,"Ġ749":13424,"Ġ786":13425,"Ġ788":13426,"Ġqsum":13427,"Ġ656":13428,"+=((":13429,"4023":13430,"4053":13431,"4081":13432,"Ġep":13433,"sumi":13434,"1709":13435,"Ġ961":13436,"5799":13437,"5703":13438,"6777":13439,"1903":13440,"872":13441,"878":13442,"Ġcoll":13443,"6929":13444,"6931":13445,"8977":13446,"ĠcurrRange":13447,"mina":13448,"minSum":13449,"Ġ1088":13450,"acts":13451,"Ġlefts":13452,"6159":13453,"omNote":13454,"ĉĉčĊ":13455,"Ġ{}!\".":13456,"Ġtempor":13457,"ĠDI":13458,"734":13459,"735":13460,"Coord":13461,"Coords":13462,"ĠBut":13463,"ĠBLACK":13464,"4549":13465,"Ġunpack":13466,"program":13467,"SumSub":13468,"8683":13469,"Ġqueens":13470,"ĠcurrentNode":13471,"5553":13472,"ibling":13473,"stacklist":13474,"allel":13475,"ãĤ¿":13476,"Ġ405":13477,"Ġ40800000000":13478,"1889":13479,"Ġ13824":13480,"Ġleet":13481,"Ġmodule":13482,"5867":13483,"OfE":13484,"Ġquo":13485,"5249":13486,"ĠONE":13487,"5487":13488,"phone":13489,"parking":13490,"Ġdoubles":13491,"male":13492,"ĠHe":13493,"ĠHash":13494,"checked":13495,"ĠlargestPerimeter":13496,"Leo":13497,"Leaves":13498,"å¯Ń":13499,"Sets":13500,"Ġlinear":13501,"Ġ4000800000":13502,"Ġ240800000":13503,"Ġ240120":13504,"Ġ2000900":13505,"prefixes":13506,"ãĤĴè¿ĶãģĻ":13507,"Ġrepeats":13508,"Ġtrav":13509,"Ġ6720":13510,"Ġ200000400000":13511,"ĠconvertTo":13512,"Ġruns":13513,"nik":13514,"branch":13515,"ZeroSumSub":13516,"ACT":13517,"Ġ100001":13518,"ĠthreeSum":13519,"Ġ12345787":13520,"ĠpartitionDisjoint":13521,"Ġriders":13522,"Month":13523,"éĢĴ":13524,"ousand":13525,"Ġredundant":13526,"Ġformatted":13527,"Ġ10368":13528,"sixteen":13529,"multiplier":13530,"userId":13531,"éķ·":13532,"================================================================":13533,"ĠatMostK":13534,"ĠcanConstruct":13535,"Ġrequirements":13536,"ĠLoop":13537,"ĠcircularPermutation":13538,"seventeen":13539,"ĠMethod":13540,"Ġpenalty":13541,"Ġquestion":13542,"NORECASE":13543,"ZeroSumSublists":13544,"099":13545,"351":13546,"721":13547,":]])":13548,"=\",":13549,"Cand":13550,"COL":13551,"Dum":13552,"Ge":13553,"MEN":13554,"Top":13555,"UU":13556,"WR":13557,"chi":13558,"circles":13559,"efs":13560,"followerId":13561,"hold":13562,"have":13563,"lx":13564,"museum":13565,"pan":13566,"past":13567,"rj":13568,"sj":13569,"sv":13570,"spaces":13571,"ya":13572,"ìĿ":13573,"ĵį":13574,"leave":13575,"Ġ162":13576,"Ġnone":13577,"Ġmb":13578,"Ġmr":13579,"))<=":13580,"Ġ+(":13581,"Ġssc":13582,"Ġbub":13583,"reserved":13584,"Ġ'__":13585,"()))]":13586,"ĠSA":13587,"ĠSheep":13588,"Ġ\"|":13589,"Ġvoters":13590,"Ġ391":13591,"Ġ384":13592,"Ġ334":13593,"numOf":13594,"Ġ471":13595,"Ġ432":13596,"ision":13597,"Ġher":13598,"ĠTemp":13599,"1047":13600,"aye":13601,"Ġbears":13602,"Ġ512":13603,"Ġ576":13604,"Ġ596":13605,"Ġ841":13606,"Ġ824":13607,"Ġ858":13608,"Ġ81000":13609,"ĠNE":13610,"9927":13611,"9979":13612,"Ġsumma":13613,"3379":13614,"maxLetters":13615,"4037":13616,"2727":13617,"2797":13618,"Ġever":13619,"1799":13620,"6090":13621,"Ġ927":13622,"5767":13623,"8747":13624,"8709":13625,"8019":13626,"8041":13627,"8037":13628,"4383":13629,"Ġneig":13630,"6987":13631,"8947":13632,"6301":13633,"8353":13634,"([],":13635,"Ġtogether":13636,"emies":13637,"Ġsetrecursionlimit":13638,"popped":13639,"8167":13640,"ĠMonic":13641,"ĠendRange":13642,"2461":13643,"Ġdistrib":13644,"Ġthreading":13645,"2541":13646,"ĠBr":13647,"ĠBUFSIZE":13648,"4623":13649,"4563":13650,"nextval":13651,"8667":13652,"construct":13653,"ãĤı":13654,"Ġ401":13655,"Ġ40800000":13656,"],[],":13657,"ĠPRIMES":13658,"agic":13659,"']%":13660,"4249":13661,"8004":13662,"5247":13663,"Ġshape":13664,"ellis":13665,"Ġchilds":13666,"icker":13667,"å¯£":13668,"dishes":13669,"Rev":13670,"Ġshorter":13671,"123456789":13672,"beers":13673,"freqs":13674,"serve":13675,"door":13676,"Ġ9720":13677,"Ġdepths":13678,"aijo":13679,"ITY":13680,"Ġ800000400000":13681,"Ġ5760":13682,"Ġ8316":13683,"IOBase":13684,"Ġjohn":13685,"Ġbranches":13686,"irection":13687,"aaaa":13688,"Ġboundaries":13689,"occurr":13690,"numeral":13691,"uclide":13692,"ACE":13693,"Ġwrapper":13694,"REE":13695,"initialBoxes":13696,"Ġangles":13697,"Deque":13698,"Ġrepresents":13699,"(':')[":13700,"Ġmcgregor":13701,"ology":13702,"switch":13703,"Negative":13704,"FEELS":13705,"hypot":13706,"||||":13707,"Ġserved":13708,"å¹¶":13709,"ãģ¾ãģ§ãģ®":13710,"éĥ¨åĪĨ":13711,"(\\\":\\\")":13712,"global":13713,"éĽĨåĲĪ":13714,"è¨Īç®Ĺ":13715,"Ġschedule":13716,"Ġshared":13717,"ĠcheckIfCanBreak":13718,"ĠMonica":13719,"uclidean":13720,"/'":13721,"328":13722,"544":13723,"522":13724,"913":13725,"915":13726,";;":13727,"Back":13728,"Half":13729,"PH":13730,"Pat":13731,"SP":13732,"Src":13733,"Xor":13734,"air":13735,"bonacci":13736,"csum":13737,"cus":13738,"funnel":13739,"gts":13740,"latest":13741,"nascie":13742,"pnt":13743,"tm":13744,"wt":13745,"zombies":13746,"è½":13747,"Ġlemon":13748,"Ġncol":13749,"Ġcit":13750,"Ġpprint":13751,"Ġsnum":13752,"Ġbra":13753,"Ġ285":13754,"ouncy":13755,"())+":13756,"Ġohms":13757,"ĠSP":13758,"Ġvf":13759,"Ġvt":13760,"Ġ344":13761,"Ġ376":13762,"Ġ378":13763,"Ġ451":13764,"Ġansw":13765,"leftmost":13766,"Ġnothing":13767,"1049":13768,"(('\\":13769,"Ġcurmax":13770,"Ġsel":13771,"Ġseek":13772,"Ġbehind":13773,"Ġ5600":13774,"Ġ828":13775,"Ġ856":13776,"ĠNc":13777,"ĠNr":13778,"9993":13779,"Ġ6400":13780,"Ġ{-":13781,"maxLength":13782,"2048":13783,"Ġest":13784,"6017":13785,"Ġ940":13786,"Ġ921":13787,"Ġ925":13788,"Ġ9600":13789,"1931":13790,"8789":13791,"4363":13792,"4303":13793,"5947":13794,"5971":13795,"Ġneis":13796,"5367":13797,"8399":13798,"8379":13799,"perf":13800,"=[],":13801,"dicts":13802,"[:])":13803,"5189":13804,"ãģ¡":13805,"ainv":13806,"Ġnewstr":13807,"rootp":13808,"Ġzz":13809,"ĠDriver":13810,"icable":13811,"illion":13812,"4669":13813,"4641":13814,"3020":13815,"4557":13816,"4521":13817,"probability":13818,"8681":13819,"iger":13820,"5599":13821,"ĠĠĠĠĠĠĠĠĠĠĠĠĠĠĠĠĠĠĠĠĠĠĠĠĠĠĠĊ":13822,"Ġ40203":13823,"ĠPo":13824,"6613":13825,"substrings":13826,"1429":13827,"achines":13828,"6817":13829,"6487":13830,"Ġ809":13831,"5447":13832,"5467":13833,"8469":13834,"condition":13835,"8553":13836,"8563":13837,"8581":13838,"]+=(":13839,"3233":13840,"heappushpop":13841,"Ġ9999999999":13842,"80006":13843,"Ġ50600":13844,"Ġnos":13845,"complete":13846,"Ġ1440":13847,"Ġ\\\"#":13848,"Ġmults":13849,"Ġ400086000":13850,"doubling":13851,"Ġ48020000":13852,"Ġ8040200":13853,"spot":13854,"Ġ7560":13855,"recent":13856,"Ġ60000010":13857,"LEFT":13858,"xxx":13859,"æĸŃ":13860,"Ġobst":13861,"è¦ĭ":13862,"Ġsummary":13863,"Ġminimax":13864,"ByFriends":13865,"Ġaccount":13866,"ĠmaxSizeSlices":13867,"repeating":13868,"Ġpriority":13869,"Ġbulbs":13870,"isspace":13871,"âĶģ":13872,"ratosthenes":13873,"Intersection":13874,"longer":13875,"Ġgives":13876,"RIME":13877,"æĮģ":13878,"Ġ\"#\",":13879,"ĠwatchedVideosByFriends":13880,"Rotation":13881,"çİ¯":13882,"UnionFind":13883,"similar":13884,"BestValue":13885,"Ġ40020380":13886,"radians":13887,"adjacent":13888,"å·²ç»ı":13889,"Ġtemporary":13890,")|(":13891,"300000000":13892,"314":13893,"368":13894,"Below":13895,"Implement":13896,"QU":13897,"RGB":13898,"euler":13899,"sweet":13900,"xA":13901,"ymax":13902,"~-":13903,"Ġ={}":13904,"Ġregex":13905,"Ġfg":13906,"Ġ1337":13907,"Ġcv":13908,"Ġphi":13909,"umsy":13910,"))],":13911,"enwick":13912,"Ġsur":13913,"Ġdl":13914,"ution":13915,"Ġbishop":13916,"atMost":13917,"Ġlw":13918,"Ġanc":13919,"Ġ[''":13920,"Ġ2400":13921,"Ġ298":13922,"Ġ##########################":13923,"ctuation":13924,"Ġxc":13925,"Ġstd":13926,"Ġ331":13927,"1139":13928,"1193":13929,"Ġgg":13930,"1021":13931,"die":13932,"Ġcou":13933,"Ġ758":13934,"Ġ775":13935,"ĠFug":13936,"2051":13937,"2095":13938,"2799":13939,"Ġeasy":13940,"2351":13941,"ĠisPredecessor":13942,"ĠisSol":13943,"1707":13944,"6051":13945,"602000":13946,"6707":13947,"8799":13948,"2989":13949,"4349":13950,"4393":13951,"8967":13952,"8315":13953,"ottom":13954,"(\"|":13955,"Ġcurrsum":13956,"()));":13957,"aba":13958,"Ġencounter":13959,"2169":13960,"8141":13961,"6199":13962,"posi":13963,")+[":13964,"rootq":13965,"4819":13966,"Ġ''))":13967,"4629":13968,"movei":13969,"Ġprevent":13970,"ĠKeep":13971,"4461":13972,"Ġmaterial":13973,"Ġchecks":13974,"5627":13975,"5647":13976,"40060":13977,"ĠretPath":13978,"Ġleave":13979,"5841":13980,"subarrays":13981,"temperature":13982,"1453":13983,"Ġcomput":13984,"']}":13985,"coder":13986,"4240":13987,"8499":13988,"8467":13989,"combos":13990,"parser":13991,"8511":13992,"8523":13993,"cccc":13994,"!!!!!!":13995,"6221":13996,"ĠthisLevel":13997,"Ġpermut":13998,"ãĥĻ":13999,"testcase":14000,"checking":14001,"Ġclimb":14002,"å¯¸":14003,"dislikes":14004,"gray":14005,"Ġnonzero":14006,"åĪĩ":14007,"Ġ40002000":14008,"Ġ4020800000":14009,"Ġ804020048":14010,"built":14011,"thest":14012,"Ġ400000800000":14013,"Perfect":14014,"ffee":14015,"Ġ4680":14016,"ĠnumOfCoins":14017,"Ġbounds":14018,"ATE":14019,"Ġacce":14020,"Zeros":14021,"Ġswapped":14022,"ABLE":14023,"Ġconditions":14024,"åĪ°è¾¾":14025,"slots":14026,"candy":14027,"Ġttl":14028,"triplet":14029,"DICT":14030,"beta":14031,"Ġsuccessor":14032,"Alternating":14033,"Ġspanning":14034,"Ġdeletion":14035,"rnk":14036,"\",\".\",\".\",\".\",\".":14037,"IPv":14038,"('%.":14039,"html":14040,"ĠclosedIsland":14041,"IGNORECASE":14042,"ĠColor":14043,"GCET":14044,"Ġ120420048":14045,"ĠCalculate":14046,"Equiv":14047,"\"(":14048,"70000000":14049,"940":14050,"926":14051,"?':":14052,"AST":14053,"BR":14054,"Bin":14055,"La":14056,"Lap":14057,"Label":14058,"Si":14059,"border":14060,"cit":14061,"cing":14062,"forty":14063,"gamma":14064,"pixel":14065,"rng":14066,"sf":14067,"yj":14068,"}/{":14069,"¦çĲĨ":14070,"ç¢":14071,"Ġrhythm":14072,"Ġfif":14073,"deri":14074,"ari":14075,"arp":14076,"endent":14077,"lft":14078,"Ġtown":14079,"Ġbing":14080,"rez":14081,"Ġ[_":14082,"Ġ296":14083,"Ġ274":14084,"ĠxRoot":14085,"000040":14086,"Ġ\"(\":":14087,"Ġ375":14088,"Ġ446":14089,"Ġ412":14090,"Ġ4480":14091,"1163":14092,"Ġga":14093,"Ġbecomes":14094,"Ġ581":14095,"Ġ545":14096,"Ġ562":14097,"Ġ5280":14098,"Ġ849":14099,"Ġ826":14100,"ĠsumOdd":14101,"('?":14102,"////":14103,"3301":14104,"Ġ626":14105,"Ġ6480":14106,"Ġ600000000000":14107,"1773":14108,"Ġ913":14109,"Ġ945":14110,"8040":14111,"8027":14112,"5389":14113,"6923":14114,"')'":14115,"8307":14116,"Ġdeal":14117,"5181":14118,"ĠfindBestValue":14119,"6163":14120,"Ġze":14121,"findRoot":14122,"4841":14123,"ĠDS":14124,"794":14125,"prec":14126,"ĠprevPerm":14127,"702":14128,"1619":14129,"','').":14130,"8653":14131,"ĠLet":14132,"ĠtimeSeries":14133,"8883":14134,"5689":14135,"5641":14136,"pointB":14137,"ĠPoint":14138,"Ġ132":14139,"Ġ13500":14140,"6687":14141,"subtree":14142,"682":14143,"ĠcanWin":14144,"cntr":14145,"4247":14146,"5423":14147,"Ġdeltas":14148,"Ġshot":14149,"Ġshuffle":14150,"8263":14151,"ToIndex":14152,"Ġ9999":14153,"clue":14154,"(\\\"/\\\"":14155,"Ġclips":14156,"cyc":14157,"Ġbuilt":14158,"4000003":14159,"Ġmasks":14160,"Ġgray":14161,"Ġ800000400":14162,"going":14163,"Ġ;)":14164,"Ġfinally":14165,"åŃĹç¬¦":14166,"Ġ4002000800":14167,"Ġswitcher":14168,"Ġ12600":14169,"Ġequations":14170,"åŃĲæłĳ":14171,"Ġ'@':":14172,"ĠrobotSim":14173,"adeChange":14174,"Look":14175,"Ġmagic":14176,"ertain":14177,"Ġturrets":14178,"Ġ9792":14179,"baskets":14180,"åĪĿå§ĭ":14181,"fifteen":14182,"alienPath":14183,"Segment":14184,"ĠCLOSER":14185,"Ġearliest":14186,"smooth":14187,"ERROR":14188,"ĠBrute":14189,"ĠlemonadeChange":14190,"ĠprevPermOpt":14191,"\";":14192,"$%":14193,")\"":14194,"069":14195,"3800":14196,"750":14197,"7000000":14198,"924":14199,"925":14200,"946":14201,"955":14202,"968":14203,">,":14204,"Big":14205,"BUG":14206,"GT":14207,"Print":14208,"Suc":14209,"Text":14210,"Used":14211,"Visited":14212,"WPI":14213,"fer":14214,"fly":14215,"ked":14216,"lip":14217,"lps":14218,"nrows":14219,"packet":14220,"pizzas":14221,"qi":14222,"slen":14223,"taps":14224,"ua":14225,"xa":14226,"}$',":14227,"¨æĦı":14228,"æ»":14229,"è´":14230,"ĠÂłÂłÂł":14231,"Ġiinput":14232,"Ġinversion":14233,"):(":14234,"Ġ171":14235,"Ġ142":14236,"Ġnans":14237,"Ġnorm":14238,"only":14239,"enum":14240,"Ġsat":14241,"Ġben":14242,"remo":14243,"Ġwarn":14244,"Ġ'âĨ":14245,"Ġ278":14246,"Ġ#|":14247,"Ġ#',":14248,"Ġxd":14249,"Ġstay":14250,"appear":14251,"Ġmaxnum":14252,"ĠmaxTime":14253,"ĠmaxDist":14254,"Ġke":14255,"ceeded":14256,"Ġ491":14257,"Ġ434":14258,"Ġminsum":14259,"ĠThat":14260,"getPower":14261,"dijkstra":14262,"Ġbeaut":14263,"Ġ822":14264,"Ġ866":14265,"Ġ721":14266,"Ġ650":14267,"Ġ618":14268,"Ġ6240":14269,"2791":14270,"1341":14271,"terrain":14272,"1779":14273,"Ġdigs":14274,"60400":14275,"Ġ951":14276,"Ġ946":14277,"6787":14278,"8057":14279,"4329":14280,"iller":14281,"6989":14282,"8953":14283,"6389":14284,"8357":14285,"8349":14286,"8329":14287,"8309":14288,"(\":\"":14289,"Ġconsonants":14290,"\\\"):":14291,"permut":14292,"ashes":14293,"dps":14294,"account":14295,"population":14296,"8149":14297,"6147":14298,"ĠCase":14299,"ipart":14300,"ĠDynamic":14301,"Ġseens":14302,"boats":14303,"1663":14304,"4453":14305,"','-":14306,"1227":14307,"-------":14308,"Ġ2048":14309,"charm":14310,"[''.":14311,"Ġdicta":14312,"Ġ138":14313,"976":14314,"6619":14315,"Ġparallel":14316,"1447":14317,"anga":14318,"ĠlongestWPI":14319,"5263":14320,"Ġ8046":14321,"Stairs":14322,"Ġbinomial":14323,"8211":14324,"8269":14325,"8543":14326,"6251":14327,"nos":14328,"typed":14329,"ĠvalidMountainArray":14330,"Ġremoves":14331,"ĠremoveZeroSumSublists":14332,"compar":14333,"validate":14334,"ĠlargestIsland":14335,"Reverse":14336,"kills":14337,"capital":14338,"Ġ80041":14339,"Ġordering":14340,"Ġsoldiers":14341,"Ġ270000000":14342,"lables":14343,":'',":14344,"....\",\".....":14345,"ĠminimumMoves":14346,"Ġ40000230":14347,"Ġ3840":14348,"Ġ{\"+\":":14349,"Ġ8160":14350,"Ġ[]).":14351,"Ġ201040":14352,"Ġ408002000":14353,"Explanation":14354,"slot":14355,"Plus":14356,"Ġ12800":14357,"ĠZach":14358,"Ġregister":14359,"Ġ7000240":14360,"prim":14361,"ĠConvert":14362,"OverLap":14363,"Ġ']':":14364,"duplicates":14365,"ç§į":14366,"ĠLeo":14367,"ĠLeft":14368,"dzies":14369,"Ġcomparison":14370,"è¶ħ":14371,"ãĥªãĤ¹ãĥĪ":14372,"Ġlocked":14373,"identifier":14374,"Ġ400070080":14375,"acteria":14376,"(\\\"\\\")":14377,"ĠisSolvable":14378,"758":14379,"CP":14380,"Dir":14381,"GE":14382,"Given":14383,"High":14384,"LS":14385,"TODO":14386,"hard":14387,"holiday":14388,"imo":14389,"kn":14390,"nh":14391,"«ĺ":14392,"èª":14393,"éĶ":14394,"é«ĺ":14395,"Ġfo":14396,"Ġfol":14397,"Ġfire":14398,"Ġnrows":14399,"Ġnlargest":14400,"Ġcre":14401,"ĠpSet":14402,"Ġmot":14403,"Ġmountain":14404,"Ġte":14405,"apsed":14406,"Ġ#(":14407,"lav":14408,"ĠSince":14409,"ĠmaxProf":14410,"Ġ\"***":14411,"Ġ445":14412,"Ġ464":14413,"plates":14414,"__()":14415,"10600":14416,"Ġsections":14417,"!=\"":14418,"Ġ551":14419,"Ġ845":14420,"ĠNestedInteger":14421,"Ġsumv":14422,"('{":14423,"Ġ725":14424,"3317":14425,"3339":14426,"Ġ645":14427,"Ġ668":14428,"2021":14429,"2092":14430,"Ġ:[":14431,"6029":14432,"Ġ988":14433,"Ġ918":14434,"6797":14435,"6701":14436,"5909":14437,"5353":14438,"8931":14439,"minp":14440,"Ġ10240":14441,"Ġ10692":14442,"Ġdecrement":14443,"8163":14444,"ineer":14445,"ĠMB":14446,"ĠMod":14447,"Ġzig":14448,"trellis":14449,"2649":14450,"4869":14451,"######":14452,"28000":14453,"7077":14454,"bose":14455,"4441":14456,"ĠLIM":14457,"2241":14458,"5651":14459,"ãĤº":14460,"charIdx":14461,"ĠPy":14462,"200480":14463,"6653":14464,"1483":14465,"']/":14466,"inalg":14467,"4257":14468,"4251":14469,"Ġ12288":14470,"Ġ6050":14471,"Ġ6048":14472,"8487":14473,"Ġshare":14474,"Ġcomps":14475,"8219":14476,"8599":14477,"8569":14478,"Ġdislike":14479,"Ġattempt":14480,"Ġufb":14481,"6213":14482,"Ġmystery":14483,"Ġ198":14484,")}-{":14485,"ãģ®è¦ģç´ł":14486,"mono":14487,"Ġclue":14488,"å¯¥":14489,"å¯½":14490,"å¯¾":14491,"Ġtestcases":14492,"å°ĥ":14493,"å°Ī":14494,"Ġ20040030":14495,"æľ¬":14496,"kebab":14497,"msk":14498,"Ġ2000430":14499,"Ġ8040200000":14500,"hesis":14501,"Ġtrailing":14502,"Ġprotein":14503,"Ġ6912":14504,"Ġ7344":14505,"å±ĵ":14506,"Ġtakewhile":14507,"ĠintervalIntersection":14508,"ScoreTriang":14509,"Ġdivided":14510,"Ġtaking":14511,"ĠINT":14512,"Ġpalindromes":14513,"Ġ270480":14514,"Ġbouquet":14515,"Ġrtv":14516,"Ġregions":14517,"Ġcorner":14518,"!!!!!!!!!!!!!!!!!!!!!!!!!!!!!!!!":14519,"converted":14520,"æİĴ":14521,"çĲĥ":14522,"Ġimage":14523,"Ġ48020400":14524,"(':')))":14525,"å¼Ģ":14526,",,,,,,,,":14527,"âĢ¦âĢ¦":14528,"è¿ĶåĽŀ":14529,"!!!\"];":14530,"^^^^":14531,"OOOOOOOO":14532,"æĥħ":14533,"Ġprobability":14534,"åĪ¤æĸŃ":14535,"liverOptions":14536,"OfEratosthenes":14537,"ĠPoints":14538,"ScoreTriangulation":14539,",}":14540,"-*/":14541,"010":14542,"788":14543,"921":14544,"988":14545,">{":14546,"Cur":14547,"Cust":14548,"Dp":14549,"FG":14550,"KEY":14551,"ML":14552,"Ptr":14553,"Prev":14554,"SK":14555,"^\\":14556,"aus":14557,"bles":14558,"cents":14559,"dragons":14560,"duration":14561,"fwd":14562,"guest":14563,"han":14564,"nans":14565,"ui":14566,"zo":14567,"æį":14568,"çı¾":14569,"Ġ]:":14570,"sta":14571,"Ġremember":14572,"Ġfb":14573,"Ġfish":14574,"Ġfusc":14575,"dev":14576,"Ġnrow":14577,"ergy":14578,"Ġsv":14579,"elm":14580,"Ġbn":14581,"Ġbfts":14582,"Ġblok":14583,"itic":14584,"rear":14585,"Ġland":14586,"Ġafts":14587,"Ġ')[":14588,"Ġ276":14589,"Ġnumero":14590,"ĠSB":14591,"Ġmaxsize":14592,"Ġvp":14593,"Ġka":14594,"uls":14595,"Ġ478":14596,"Ġgl":14597,"then":14598,"__',":14599,"Ġhard":14600,"((((":14601,"Ġ568":14602,"Ġ861":14603,"Ġ832":14604,"9931":14605,"Ġcome":14606,"Ġ718":14607,"Ġ70000000":14608,"Ġlistt":14609,"Ġqn":14610,"chan":14611,"3313":14612,"3359":14613,"3377":14614,"\",&":14615,"Ġ621":14616,"Ġ628":14617,"Ġ688":14618,"Ġ631":14619,"20800":14620,"4029":14621,"2703":14622,"1387":14623,"2329":14624,"2363":14625,"Ġ90000000":14626,"5757":14627,"1943":14628,"8773":14629,"8059":14630,"8061":14631,"4397":14632,"5949":14633,"5379":14634,"5397":14635,"892":14636,"8929":14637,"6397":14638,"Ġheader":14639,"Ġenqueue":14640,"Ġensure":14641,"Ġenergy":14642,"ĠnodeB":14643,"ãģļ":14644,"8100":14645,"ĠnewList":14646,"Ġ{}\\\".":14647,"ĠMy":14648,"2449":14649,"2463":14650,"Ġgetting":14651,"findMax":14652,"train":14653,"infinity":14654,"395":14655,"Ġ[[\"":14656,"7091":14657,"1553":14658,"Ġoutstr":14659,"4469":14660,"8661":14661,"Ġexceed":14662,"ĠcurrentMax":14663,"Ġsubgraph":14664,"2249":14665,"5623":14666,"5669":14667,"4008":14668,"newx":14669,"Ġ408":14670,"Ġ409":14671,"Ġ4032":14672,"Ġtrump":14673,"],['":14674,"902":14675,"906":14676,"ppend":14677,"6649":14678,"5823":14679,"5829":14680,"5851":14681,"template":14682,"Ġpara":14683,"6449":14684,"6481":14685,"5499":14686,"6547":14687,"200020":14688,"ĠGRA":14689,"6257":14690,"Ġ999":14691,"Ġ9900":14692,"7517":14693,"Ġ192":14694,"aff":14695,"Ġ2688":14696,"9211":14697,"Second":14698,"distanceThreshold":14699,"=='':":14700,"æľŁ":14701,"behind":14702,"Ġ8004000000":14703,"Positions":14704,"sons":14705,"Ġ7920":14706,"Ġprune":14707,"sidered":14708,"å±ĭ":14709,"calendar":14710,"Ġgreat":14711,"Ġfronts":14712,"('.')[":14713,"(?!":14714,"blacks":14715,"Ġnegatives":14716,"Beer":14717,"XCV":14718,"ĠfolloweeId":14719,"æŃ¤":14720,"ãģĵãĤĮ":14721,"åĨµ":14722,"LISH":14723,"èµ·":14724,"Rotate":14725,"ancing":14726,"Ġ7776":14727,"ĠComplexity":14728,"ä½¿çĶ¨":14729,"ãĤ¯ãĤ":14730,"Ġremoving":14731,"Ġ'[':":14732,"DEAD":14733,"åŃĺåľ¨":14734,"risk":14735,"Ġallocated":14736,"assigned":14737,"Ġ420300":14738,"Ġaligned":14739,"hoods":14740,"youtube":14741,"Ġbingo":14742,"\"%(":14743,",((":14744,"422":14745,"4609":14746,"644":14747,"::]":14748,"=__":14749,"Ds":14750,"Easy":14751,"Gap":14752,"MST":14753,"Na":14754,"PRIME":14755,"UFF":14756,"_|":14757,"alent":14758,"bwd":14759,"banks":14760,"circle":14761,"dl":14762,"easy":14763,"hu":14764,"hol":14765,"hai":14766,"ja":14767,"ju":14768,"presses":14769,"sur":14770,"som":14771,"uk":14772,"xmax":14773,"åĭ":14774,"æ·":14775,"Ġgh":14776,"ĩæķ°":14777,"ĠĠĠčĊ":14778,"Ġrle":14779,"leads":14780,"Ġcelsius":14781,"Ġpin":14782,"Ġpig":14783,"Ġpitch":14784,"Ġsink":14785,"Ġbm":14786,"ĠrangeData":14787,"Ġalen":14788,"()][":14789,"Ġ212":14790,"lakes":14791,"Ġstairs":14792,"())}":14793,"Ġvacc":14794,"Ġkids":14795,"Ġ352":14796,"Ġ431":14797,"Ġ436":14798,"ĠyRoot":14799,"1141":14800,"Ġgaps":14801,"ĠminD":14802,"ĠminValue":14803,"ĠminIdx":14804,"__.":14805,"().__":14806,"Ġseive":14807,"los":14808,"ĠAc":14809,"ĠAND":14810,"Ġ8800":14811,"Ġ745":14812,"chinese":14813,"3393":14814,"Ġ691":14815,"Ġemul":14816,"1383":14817,"13579":14818,"2347":14819,"2383":14820,"ĠisSubPath":14821,"1783":14822,"Ġ948":14823,"Ġ972":14824,"Ġ9216":14825,"6773":14826,"1969":14827,"1951":14828,"4970":14829,"8787":14830,"8707":14831,"8081":14832,"2921":14833,"4391":14834,"8941":14835,
[...]
